unsigned char converted_model_tflite[] = {
  0x20, 0x00, 0x00, 0x00, 0x54, 0x46, 0x4c, 0x33, 0x00, 0x00, 0x00, 0x00,
  0x00, 0x00, 0x12, 0x00, 0x1c, 0x00, 0x04, 0x00, 0x08, 0x00, 0x0c, 0x00,
  0x10, 0x00, 0x14, 0x00, 0x00, 0x00, 0x18, 0x00, 0x12, 0x00, 0x00, 0x00,
  0x03, 0x00, 0x00, 0x00, 0x60, 0x56, 0x00, 0x00, 0xcc, 0x3b, 0x00, 0x00,
  0xb4, 0x3b, 0x00, 0x00, 0x3c, 0x00, 0x00, 0x00, 0x04, 0x00, 0x00, 0x00,
  0x01, 0x00, 0x00, 0x00, 0x0c, 0x00, 0x00, 0x00, 0x08, 0x00, 0x0c, 0x00,
  0x04, 0x00, 0x08, 0x00, 0x08, 0x00, 0x00, 0x00, 0x08, 0x00, 0x00, 0x00,
  0x1b, 0x00, 0x00, 0x00, 0x13, 0x00, 0x00, 0x00, 0x6d, 0x69, 0x6e, 0x5f,
  0x72, 0x75, 0x6e, 0x74, 0x69, 0x6d, 0x65, 0x5f, 0x76, 0x65, 0x72, 0x73,
  0x69, 0x6f, 0x6e, 0x00, 0x1c, 0x00, 0x00, 0x00, 0x68, 0x3b, 0x00, 0x00,
  0x54, 0x3b, 0x00, 0x00, 0x38, 0x3b, 0x00, 0x00, 0x14, 0x3b, 0x00, 0x00,
  0xb0, 0x3a, 0x00, 0x00, 0x9c, 0x3a, 0x00, 0x00, 0x78, 0x3a, 0x00, 0x00,
  0x64, 0x3a, 0x00, 0x00, 0x50, 0x3a, 0x00, 0x00, 0x3c, 0x3a, 0x00, 0x00,
  0x28, 0x3a, 0x00, 0x00, 0xd4, 0x01, 0x00, 0x00, 0xb0, 0x01, 0x00, 0x00,
  0x7c, 0x01, 0x00, 0x00, 0x18, 0x01, 0x00, 0x00, 0x0c, 0x01, 0x00, 0x00,
  0xf8, 0x00, 0x00, 0x00, 0xe4, 0x00, 0x00, 0x00, 0xd0, 0x00, 0x00, 0x00,
  0xbc, 0x00, 0x00, 0x00, 0xa8, 0x00, 0x00, 0x00, 0x94, 0x00, 0x00, 0x00,
  0x80, 0x00, 0x00, 0x00, 0x6c, 0x00, 0x00, 0x00, 0x58, 0x00, 0x00, 0x00,
  0x44, 0x00, 0x00, 0x00, 0x30, 0x00, 0x00, 0x00, 0x04, 0x00, 0x00, 0x00,
  0x36, 0xc5, 0xff, 0xff, 0x04, 0x00, 0x00, 0x00, 0x10, 0x00, 0x00, 0x00,
  0x31, 0x2e, 0x31, 0x34, 0x2e, 0x30, 0x00, 0x00, 0x00, 0x00, 0x00, 0x00,
  0x00, 0x00, 0x00, 0x00, 0x00, 0x00, 0x00, 0x00, 0x00, 0x00, 0x00, 0x00,
  0x00, 0x00, 0x00, 0x00, 0xa4, 0xab, 0xff, 0xff, 0x00, 0x00, 0x00, 0x00,
  0x00, 0x00, 0x00, 0x00, 0x00, 0x00, 0x00, 0x00, 0xb4, 0xab, 0xff, 0xff,
  0x00, 0x00, 0x00, 0x00, 0x00, 0x00, 0x00, 0x00, 0x00, 0x00, 0x00, 0x00,
  0xc4, 0xab, 0xff, 0xff, 0x00, 0x00, 0x00, 0x00, 0x00, 0x00, 0x00, 0x00,
  0x00, 0x00, 0x00, 0x00, 0xd4, 0xab, 0xff, 0xff, 0x00, 0x00, 0x00, 0x00,
  0x00, 0x00, 0x00, 0x00, 0x00, 0x00, 0x00, 0x00, 0xe4, 0xab, 0xff, 0xff,
  0x00, 0x00, 0x00, 0x00, 0x00, 0x00, 0x00, 0x00, 0x00, 0x00, 0x00, 0x00,
  0xf4, 0xab, 0xff, 0xff, 0x00, 0x00, 0x00, 0x00, 0x00, 0x00, 0x00, 0x00,
  0x00, 0x00, 0x00, 0x00, 0x04, 0xac, 0xff, 0xff, 0x00, 0x00, 0x00, 0x00,
  0x00, 0x00, 0x00, 0x00, 0x00, 0x00, 0x00, 0x00, 0x14, 0xac, 0xff, 0xff,
  0x00, 0x00, 0x00, 0x00, 0x00, 0x00, 0x00, 0x00, 0x00, 0x00, 0x00, 0x00,
  0x24, 0xac, 0xff, 0xff, 0x00, 0x00, 0x00, 0x00, 0x00, 0x00, 0x00, 0x00,
  0x00, 0x00, 0x00, 0x00, 0x34, 0xac, 0xff, 0xff, 0x00, 0x00, 0x00, 0x00,
  0x00, 0x00, 0x00, 0x00, 0x00, 0x00, 0x00, 0x00, 0x44, 0xac, 0xff, 0xff,
  0x00, 0x00, 0x00, 0x00, 0x00, 0x00, 0x00, 0x00, 0x00, 0x00, 0x00, 0x00,
  0x54, 0xac, 0xff, 0xff, 0x00, 0x00, 0x00, 0x00, 0x16, 0xc6, 0xff, 0xff,
  0x04, 0x00, 0x00, 0x00, 0x51, 0x00, 0x00, 0x00, 0x05, 0xc3, 0xac, 0xd6,
  0xfc, 0xbd, 0x18, 0xe5, 0x01, 0x08, 0x81, 0x3a, 0xc7, 0xf0, 0xc7, 0x11,
  0xe7, 0xfd, 0xd9, 0xb1, 0x7e, 0x3c, 0x04, 0xe1, 0xf2, 0xf7, 0xc7, 0xd6,
  0x8a, 0x36, 0x24, 0xc3, 0x04, 0xd7, 0x22, 0xf0, 0xdb, 0xab, 0x21, 0x3b,
  0xcf, 0xfe, 0xc2, 0x38, 0xf4, 0xed, 0x81, 0x17, 0x2f, 0xdf, 0x00, 0xf0,
  0x1d, 0xfd, 0x5e, 0x9a, 0xc7, 0xf9, 0xcd, 0xa6, 0xf4, 0xd1, 0xb2, 0x13,
  0xb6, 0xe8, 0xd7, 0xcc, 0x53, 0xe1, 0xe2, 0x01, 0xb6, 0xe3, 0x16, 0x81,
  0x10, 0x59, 0xe8, 0x17, 0x16, 0x00, 0x00, 0x00, 0x76, 0xc6, 0xff, 0xff,
  0x04, 0x00, 0x00, 0x00, 0x1b, 0x00, 0x00, 0x00, 0x28, 0x93, 0xd5, 0xec,
  0xde, 0xfb, 0xcc, 0x6d, 0x7f, 0x59, 0x7f, 0x14, 0x12, 0xc0, 0xed, 0x94,
  0xa2, 0xd6, 0x7f, 0x4b, 0xde, 0x0b, 0x3c, 0xf2, 0x9d, 0xf7, 0xf9, 0x00,
  0x00, 0x00, 0x00, 0x00, 0x00, 0x00, 0x00, 0x00, 0xa6, 0xc6, 0xff, 0xff,
  0x04, 0x00, 0x00, 0x00, 0x14, 0x00, 0x00, 0x00, 0x96, 0xa7, 0x90, 0x70,
  0x7c, 0x68, 0x95, 0xa2, 0x8b, 0x6d, 0x8e, 0x6f, 0x72, 0xaf, 0xa5, 0x57,
  0x8a, 0xa0, 0x7f, 0xa0, 0xc6, 0xc6, 0xff, 0xff, 0x04, 0x00, 0x00, 0x00,
  0x40, 0x38, 0x00, 0x00, 0xf1, 0xe8, 0xf9, 0xfd, 0xda, 0xe5, 0xe7, 0xfc,
  0xff, 0x05, 0x07, 0xf9, 0xfc, 0xff, 0x0c, 0x04, 0x0b, 0x09, 0x07, 0x0d,
  0x0a, 0x07, 0x12, 0x0d, 0x07, 0x0d, 0x00, 0x06, 0xf9, 0x02, 0xf5, 0xd5,
  0x12, 0x02, 0xb4, 0xe6, 0xe2, 0xe7, 0x08, 0xf0, 0xfe, 0x09, 0x12, 0x05,
  0x08, 0x04, 0x03, 0x03, 0xfd, 0x04, 0xff, 0x06, 0xfb, 0xfe, 0x11, 0x04,
  0x0b, 0x09, 0x02, 0xfe, 0xde, 0xcf, 0x2c, 0x08, 0xe9, 0x17, 0xfb, 0xed,
  0x35, 0x1c, 0x00, 0x2d, 0x19, 0x14, 0x02, 0xec, 0xf6, 0x07, 0xf0, 0x01,
  0x0e, 0x14, 0x04, 0x0b, 0x0c, 0x0d, 0x20, 0x08, 0x0d, 0x1b, 0xef, 0xe3,
  0x35, 0xfd, 0xec, 0x1a, 0xe6, 0xe7, 0x39, 0x14, 0xf5, 0x19, 0xfe, 0x03,
  0x0e, 0xf7, 0x05, 0x1e, 0x01, 0x03, 0x01, 0x05, 0x05, 0x18, 0x0a, 0x0c,
  0x0f, 0x02, 0xfd, 0x08, 0xee, 0xdb, 0x28, 0xfb, 0x0b, 0x1b, 0xed, 0xeb,
  0x10, 0xfe, 0xfc, 0x0d, 0x16, 0x02, 0xff, 0xfd, 0x0a, 0x19, 0x00, 0x02,
  0xf2, 0xfc, 0xf4, 0xf3, 0x07, 0x05, 0x06, 0xfa, 0x06, 0x06, 0xe0, 0xdb,
  0x1b, 0x05, 0x09, 0x02, 0xfd, 0xf7, 0x12, 0x08, 0xe6, 0x02, 0xfa, 0xfb,
  0xff, 0xf7, 0x03, 0x13, 0x08, 0xf5, 0xfd, 0x0b, 0xfa, 0x08, 0x1d, 0xff,
  0xfc, 0x02, 0x04, 0xff, 0xe9, 0xf7, 0x29, 0x0f, 0x23, 0xf3, 0x0e, 0x09,
  0x20, 0x18, 0xfb, 0xfb, 0x19, 0x03, 0xfc, 0x07, 0x12, 0x0a, 0x03, 0xf6,
  0x15, 0x00, 0xfb, 0x07, 0x03, 0xfa, 0xf7, 0xfd, 0xfe, 0xfb, 0xe0, 0xf7,
  0x2e, 0x09, 0x14, 0xef, 0x0d, 0x12, 0xf7, 0x13, 0xff, 0xfe, 0xfa, 0x11,
  0xf7, 0xfd, 0x18, 0xf7, 0xef, 0x00, 0x04, 0x06, 0x05, 0x00, 0xf6, 0xfd,
  0xee, 0xf6, 0x00, 0xef, 0xec, 0x0b, 0x0a, 0x01, 0x2d, 0xeb, 0x0f, 0x0e,
  0xec, 0x03, 0x0d, 0xeb, 0xf3, 0x11, 0xe8, 0x19, 0x13, 0xee, 0x04, 0xf9,
  0x00, 0x00, 0x01, 0xfa, 0xf3, 0xfc, 0xfc, 0xef, 0x02, 0xf5, 0xea, 0x0e,
  0x0c, 0xf5, 0x33, 0xd5, 0x0a, 0x1d, 0xeb, 0xf3, 0x13, 0xe5, 0xe4, 0xff,
  0xdb, 0x00, 0x0d, 0xf2, 0x0d, 0x08, 0xe3, 0xf5, 0x09, 0xfc, 0xf6, 0xfe,
  0x00, 0xff, 0x01, 0xef, 0xf3, 0x10, 0xe0, 0xf5, 0x35, 0xd6, 0x16, 0x18,
  0xdf, 0x05, 0x19, 0xc1, 0xee, 0x0a, 0xda, 0x0f, 0x0b, 0xd9, 0x11, 0x09,
  0xfe, 0x07, 0x03, 0x06, 0xfb, 0xfc, 0xfb, 0x01, 0x0c, 0x0b, 0xfd, 0x07,
  0xc7, 0xdc, 0x2c, 0xef, 0x25, 0x1e, 0xda, 0xfe, 0x0d, 0xd4, 0xee, 0x14,
  0xe8, 0x08, 0x05, 0xf3, 0x1f, 0x05, 0x06, 0x07, 0x0a, 0x03, 0xf8, 0xfb,
  0xf7, 0xf2, 0x05, 0xf3, 0x04, 0x03, 0xd8, 0xb6, 0x16, 0xfe, 0x38, 0x0d,
  0xe8, 0x0b, 0x17, 0xcf, 0xfe, 0x12, 0xf7, 0x0a, 0x0b, 0x06, 0x0e, 0x0e,
  0x19, 0x13, 0xfe, 0x05, 0xf8, 0x02, 0x02, 0x07, 0x00, 0x04, 0x09, 0xfe,
  0xd0, 0x81, 0x02, 0xfc, 0x1a, 0xf1, 0xf5, 0xf2, 0x18, 0x05, 0xfc, 0x00,
  0x05, 0x11, 0x0b, 0xfa, 0x08, 0x08, 0x04, 0x0e, 0x08, 0x15, 0x02, 0xfe,
  0x11, 0xfa, 0x0c, 0x0a, 0x05, 0xf0, 0xbd, 0xac, 0xf9, 0xf9, 0xf4, 0xeb,
  0xf3, 0xef, 0x12, 0x0f, 0x15, 0x13, 0x25, 0x04, 0x04, 0x0c, 0xfd, 0xfe,
  0x02, 0x00, 0x0d, 0x0c, 0x02, 0x00, 0x08, 0x03, 0x07, 0x0f, 0xff, 0xe2,
  0xb3, 0x9f, 0xef, 0xd8, 0xe1, 0xe2, 0xd3, 0xe8, 0x08, 0xf5, 0xf3, 0x14,
  0x19, 0x0a, 0x00, 0x16, 0x11, 0x01, 0x04, 0x07, 0xfb, 0x00, 0x06, 0x01,
  0xf8, 0x08, 0x05, 0xf6, 0x1c, 0xe1, 0xbf, 0xba, 0xdc, 0xdb, 0xed, 0xf7,
  0x03, 0xfb, 0xfb, 0xfd, 0xf2, 0x04, 0x16, 0x0d, 0x04, 0x0f, 0x01, 0xf8,
  0x01, 0x07, 0xff, 0x0b, 0x04, 0xfb, 0x0d, 0xf7, 0x00, 0x01, 0x23, 0xf0,
  0xcc, 0xce, 0xd6, 0xd7, 0xf3, 0xfb, 0x00, 0xe9, 0xf4, 0x03, 0xfe, 0x06,
  0xff, 0x0b, 0x00, 0xfe, 0xfa, 0x05, 0x09, 0x12, 0x01, 0x0a, 0xfe, 0xfa,
  0x0a, 0xff, 0xff, 0x01, 0x12, 0xe9, 0xe8, 0xdb, 0xd2, 0xe6, 0x03, 0xf8,
  0xf8, 0xeb, 0xee, 0xf3, 0xeb, 0x04, 0xe7, 0x0d, 0xfa, 0x09, 0x08, 0x03,
  0x0b, 0xfe, 0x00, 0x1a, 0x01, 0xfb, 0xfd, 0x00, 0x06, 0xf7, 0x1a, 0xf3,
  0xf6, 0xdf, 0xcd, 0x0c, 0xed, 0x07, 0x02, 0xf0, 0xee, 0xf3, 0xf4, 0xfb,
  0x09, 0x01, 0x04, 0x07, 0x03, 0xfa, 0x02, 0xfb, 0xfd, 0x17, 0x0d, 0xff,
  0x09, 0xf8, 0xfe, 0x0f, 0xf2, 0x05, 0x0c, 0xf0, 0xde, 0x1e, 0xff, 0xed,
  0x05, 0xf7, 0xfc, 0xf3, 0x0d, 0xfe, 0x08, 0xfc, 0x05, 0x13, 0xf3, 0xfa,
  0x03, 0xfa, 0xfa, 0xf7, 0x00, 0xff, 0xfe, 0xfb, 0xf9, 0xf7, 0xff, 0xfa,
  0x10, 0x2e, 0xdf, 0x1f, 0xf9, 0xf0, 0x19, 0xff, 0x02, 0x0f, 0xfb, 0x03,
  0x03, 0xfc, 0x01, 0xff, 0xf1, 0x08, 0xf0, 0x00, 0xfc, 0xf9, 0x06, 0x03,
  0xed, 0x07, 0xfc, 0xee, 0xf6, 0x0e, 0x2c, 0x1c, 0xf0, 0x15, 0x08, 0xfa,
  0x2d, 0x1a, 0x02, 0x13, 0x02, 0x03, 0xf6, 0x0e, 0xfe, 0xfe, 0x05, 0x00,
  0x06, 0x01, 0xff, 0x0a, 0xf0, 0x02, 0xee, 0xf5, 0x01, 0xfe, 0x03, 0x07,
  0x1f, 0xf7, 0xf5, 0x05, 0xe9, 0x04, 0x38, 0x0a, 0xf9, 0x09, 0x14, 0xfd,
  0x00, 0x0e, 0xfe, 0x06, 0x0f, 0x01, 0x01, 0x05, 0xfb, 0x04, 0xfb, 0x06,
  0x05, 0x03, 0xff, 0x05, 0x18, 0xf7, 0x4b, 0x10, 0x1b, 0x03, 0xec, 0x22,
  0x2b, 0x13, 0x1b, 0x15, 0x04, 0xf6, 0x16, 0x0b, 0x04, 0x17, 0xfc, 0xf5,
  0x0f, 0x01, 0xfb, 0x0a, 0x09, 0x06, 0xff, 0x0b, 0xf5, 0x0e, 0x0f, 0x20,
  0x3d, 0x00, 0x11, 0x01, 0xdf, 0xee, 0x12, 0x0b, 0x15, 0xf9, 0x03, 0x02,
  0xfb, 0x06, 0x0e, 0x09, 0x12, 0x07, 0x02, 0x00, 0x04, 0x0b, 0x03, 0x07,
  0x10, 0x08, 0x07, 0x02, 0x01, 0x13, 0xfc, 0xde, 0xfb, 0xd6, 0xc5, 0xcc,
  0xf7, 0xe8, 0xf9, 0xea, 0xf7, 0x08, 0x05, 0x0a, 0x05, 0x01, 0x10, 0x06,
  0x08, 0xff, 0x01, 0x10, 0x03, 0x08, 0x0c, 0xf9, 0x02, 0x11, 0x02, 0x07,
  0xf1, 0xf5, 0xf8, 0xa9, 0xd2, 0xda, 0x03, 0xf9, 0xfb, 0xf6, 0xfc, 0xfa,
  0x21, 0x09, 0x04, 0x20, 0x16, 0x05, 0x03, 0x0c, 0x00, 0x0d, 0x09, 0x0e,
  0x03, 0x15, 0x01, 0x11, 0xe4, 0xf3, 0x05, 0x23, 0xd3, 0xc4, 0xf6, 0xfe,
  0x2b, 0x0a, 0x02, 0x11, 0x1c, 0xfe, 0x15, 0x02, 0xfd, 0x27, 0x08, 0x03,
  0xfd, 0x11, 0xf5, 0xfd, 0x1b, 0x16, 0x0c, 0x09, 0x07, 0x07, 0xf4, 0xf1,
  0x1f, 0x0d, 0xec, 0xf4, 0xee, 0xf4, 0x45, 0x06, 0xf7, 0x36, 0x0b, 0x0a,
  0x0b, 0xfe, 0xff, 0x0c, 0x13, 0xf1, 0xeb, 0x07, 0xf3, 0xfe, 0x18, 0x0b,
  0xfe, 0x02, 0x08, 0x03, 0xe4, 0xf5, 0x29, 0x0e, 0x01, 0xfe, 0xeb, 0xfa,
  0x2c, 0xed, 0xea, 0x13, 0x0f, 0x09, 0x0c, 0xee, 0xff, 0x24, 0xfa, 0x02,
  0x07, 0x06, 0x05, 0x15, 0x05, 0x02, 0xf5, 0x04, 0x0a, 0xf9, 0xe3, 0xfc,
  0x22, 0x0c, 0x1d, 0x03, 0xf9, 0xfc, 0x30, 0xf7, 0xec, 0x09, 0xff, 0x0c,
  0xef, 0x03, 0x0a, 0x14, 0x07, 0xf7, 0xff, 0x17, 0x07, 0x07, 0x0a, 0x0e,
  0x03, 0x01, 0x0e, 0x06, 0xda, 0xe9, 0x1d, 0x0e, 0x14, 0xfc, 0x03, 0x01,
  0x1a, 0x10, 0xf3, 0xfd, 0x10, 0x16, 0x04, 0x08, 0x12, 0x04, 0xf9, 0xf5,
  0xf5, 0x0e, 0x01, 0x08, 0xf7, 0x0c, 0xf5, 0xfb, 0x09, 0x07, 0xfa, 0xf8,
  0x06, 0x0b, 0x1f, 0xf9, 0x16, 0x0a, 0x0b, 0x2b, 0x09, 0x11, 0xff, 0x17,
  0xf7, 0xf3, 0x0c, 0x0c, 0x01, 0x00, 0xf8, 0xfa, 0x04, 0xf8, 0xee, 0x03,
  0xfe, 0xf3, 0x0b, 0xfb, 0x01, 0x20, 0xf4, 0x08, 0x1e, 0xfd, 0x10, 0x07,
  0x0a, 0x20, 0xfe, 0xff, 0x06, 0x1c, 0xf4, 0x02, 0x13, 0xeb, 0xf2, 0x05,
  0xf1, 0x0a, 0xfe, 0xfe, 0x02, 0x00, 0xf3, 0x02, 0x05, 0xf9, 0xf4, 0x0a,
  0xea, 0xf0, 0x3d, 0xe2, 0x0a, 0x0c, 0xf1, 0x2d, 0x13, 0xef, 0x04, 0x1f,
  0xea, 0xfa, 0xff, 0xe4, 0xf8, 0xfe, 0x07, 0xef, 0x01, 0xf9, 0xf2, 0x00,
  0xed, 0x03, 0x01, 0x00, 0x05, 0x1b, 0xde, 0xe2, 0x3f, 0xdd, 0x0b, 0x08,
  0xf1, 0x1a, 0x25, 0xe1, 0xeb, 0x14, 0xdf, 0x00, 0x03, 0xe6, 0x18, 0x0b,
  0xfa, 0x05, 0xfd, 0xfb, 0xf3, 0x09, 0xf9, 0x0f, 0x04, 0x00, 0x11, 0x0f,
  0xcf, 0xcf, 0x2e, 0xd9, 0x0a, 0x06, 0xeb, 0xfb, 0x0d, 0xdf, 0xd4, 0xfc,
  0xdd, 0xe5, 0x02, 0x04, 0x09, 0x13, 0x0c, 0x08, 0x06, 0x04, 0xfe, 0x0c,
  0x04, 0xf9, 0x15, 0x09, 0x13, 0x0d, 0xc1, 0xb7, 0x1e, 0xf3, 0x11, 0x0c,
  0xe4, 0x01, 0x1e, 0xbd, 0xe9, 0x12, 0xcb, 0xef, 0x0f, 0xef, 0xf0, 0x10,
  0x0a, 0x0f, 0x06, 0xfd, 0x0a, 0x09, 0xf5, 0x06, 0x06, 0x01, 0x24, 0xfc,
  0xb6, 0xa6, 0x03, 0xd2, 0x05, 0xf4, 0xde, 0xf8, 0x2b, 0xe1, 0xe0, 0x08,
  0xe3, 0x06, 0xf6, 0xef, 0xfc, 0x0e, 0xfc, 0x17, 0x03, 0x0b, 0x0e, 0x05,
  0xfe, 0x09, 0x06, 0x0c, 0x09, 0xed, 0xb6, 0xae, 0x05, 0xde, 0xe7, 0xf9,
  0xe1, 0xf8, 0x29, 0xf4, 0xea, 0xff, 0xeb, 0xfc, 0xf7, 0xf1, 0x08, 0x10,
  0x0c, 0x01, 0x08, 0x0a, 0x03, 0x04, 0x06, 0xf5, 0x02, 0x06, 0x16, 0xed,
  0xbd, 0xc4, 0x16, 0xef, 0xde, 0x15, 0xf0, 0xe2, 0x13, 0x04, 0xf5, 0x02,
  0x02, 0x02, 0xf8, 0x02, 0xfb, 0x12, 0x07, 0x1b, 0x0a, 0x12, 0x1e, 0x06,
  0x09, 0x10, 0x05, 0x08, 0x18, 0xef, 0xc5, 0xd2, 0xf7, 0xfc, 0xfe, 0x1b,
  0xe3, 0xda, 0x07, 0xeb, 0xf0, 0xf5, 0xea, 0x10, 0xfa, 0x06, 0x12, 0x09,
  0x01, 0x17, 0x0e, 0x0c, 0x12, 0x04, 0x10, 0x0d, 0x04, 0x14, 0x03, 0xf8,
  0xd5, 0xf0, 0xea, 0xed, 0xf4, 0x21, 0x0b, 0xef, 0xff, 0xf6, 0xee, 0xf9,
  0x0c, 0x12, 0x05, 0x24, 0x15, 0xf8, 0x11, 0xf7, 0x09, 0x22, 0x04, 0x01,
  0x0d, 0x0e, 0x07, 0x00, 0xfa, 0xfe, 0xea, 0x0f, 0x00, 0xfe, 0xf5, 0x1f,
  0x03, 0xee, 0x0d, 0xe4, 0xfd, 0xfc, 0xf6, 0xf7, 0x04, 0xf2, 0x03, 0x00,
  0x00, 0xfb, 0xfc, 0xf4, 0xfe, 0x02, 0xee, 0xfc, 0xfe, 0xf6, 0x1b, 0x05,
  0x01, 0x1d, 0x09, 0x04, 0xfe, 0x20, 0x29, 0x0d, 0x14, 0xfd, 0x0c, 0xfa,
  0x20, 0x0e, 0x05, 0x03, 0xfc, 0x06, 0xfa, 0x06, 0x07, 0x0f, 0x11, 0x04,
  0x0b, 0x09, 0x01, 0x0a, 0x01, 0x09, 0xfa, 0x06, 0x1f, 0xe9, 0xf1, 0x1c,
  0x17, 0x28, 0x18, 0x0c, 0x09, 0x00, 0x07, 0x01, 0xf7, 0xfe, 0x03, 0x02,
  0xf8, 0x09, 0x06, 0x0e, 0x01, 0x03, 0xf4, 0xfb, 0x0a, 0x03, 0xfe, 0x21,
  0xff, 0xfa, 0x4a, 0xf2, 0xe9, 0x16, 0x2a, 0x15, 0x22, 0xf5, 0x11, 0xff,
  0x02, 0x11, 0x09, 0x08, 0x09, 0x0a, 0xfd, 0x17, 0x06, 0x0d, 0x11, 0x08,
  0x00, 0x08, 0x0c, 0x0e, 0xfd, 0x01, 0x12, 0x06, 0xee, 0xfb, 0x06, 0x0b,
  0x0b, 0xff, 0x06, 0x06, 0x04, 0x09, 0xf6, 0xff, 0x06, 0xfc, 0x00, 0xef,
  0x03, 0x01, 0x0e, 0xfd, 0xfe, 0x05, 0xf3, 0xff, 0xfa, 0xff, 0xfb, 0xec,
  0x14, 0x0c, 0xe8, 0x10, 0xf7, 0xf4, 0x16, 0x1d, 0x00, 0x26, 0x16, 0x11,
  0x03, 0x12, 0x0b, 0xfd, 0x13, 0x05, 0xfe, 0x02, 0x05, 0x06, 0x00, 0x09,
  0x02, 0xf2, 0x0c, 0x01, 0xf6, 0x03, 0x25, 0x0f, 0x02, 0x25, 0xfb, 0xe7,
  0x23, 0x1e, 0x10, 0x14, 0x16, 0x17, 0x05, 0xf4, 0x07, 0xfb, 0xf6, 0xfc,
  0x05, 0x10, 0x08, 0x1b, 0x01, 0x08, 0xf7, 0xfc, 0x0b, 0xf2, 0x16, 0xfd,
  0x00, 0x0f, 0x09, 0x2f, 0xf2, 0xd1, 0x01, 0x0a, 0x05, 0x18, 0x10, 0x00,
  0x07, 0x0b, 0x07, 0x0e, 0x00, 0x07, 0x01, 0x01, 0x03, 0x06, 0x05, 0x09,
  0x08, 0x0c, 0x0d, 0x09, 0x1c, 0xf9, 0xf3, 0xf4, 0xc9, 0x1e, 0xce, 0xb4,
  0xf9, 0xed, 0xf0, 0xf1, 0xf7, 0x04, 0xfd, 0x0f, 0x03, 0x12, 0x13, 0x04,
  0xff, 0x03, 0xfc, 0x0e, 0x0a, 0x0c, 0x1b, 0x07, 0x08, 0x10, 0x03, 0xec,
  0xc2, 0xda, 0xad, 0xf8, 0xef, 0xc2, 0xec, 0xf8, 0xe9, 0xea, 0x0a, 0x05,
  0x08, 0x07, 0x0a, 0xf9, 0x11, 0x0a, 0xfa, 0x0e, 0x05, 0x01, 0x11, 0x0b,
  0x11, 0x06, 0x0f, 0xfc, 0x21, 0xee, 0xeb, 0xf2, 0xbc, 0xeb, 0xdb, 0xf0,
  0x05, 0xf3, 0xf2, 0x07, 0xff, 0x04, 0x08, 0x0c, 0x0c, 0x1a, 0x03, 0x09,
  0xff, 0x15, 0x0b, 0x13, 0x08, 0x0f, 0x19, 0x07, 0x0c, 0x10, 0x03, 0xda,
  0x09, 0xf8, 0xd8, 0xfb, 0xeb, 0xef, 0x01, 0xf6, 0xef, 0xf9, 0x02, 0xfe,
  0xfa, 0x0b, 0xfc, 0x02, 0x17, 0x0f, 0x17, 0x10, 0x10, 0x10, 0xff, 0x10,
  0xfe, 0x03, 0x0f, 0x04, 0x0a, 0xde, 0x20, 0x06, 0xfb, 0x01, 0x04, 0x00,
  0x0d, 0xea, 0xfb, 0xf5, 0xfa, 0x06, 0xff, 0xfa, 0xf6, 0xea, 0x01, 0x04,
  0x08, 0xf5, 0x07, 0x00, 0x02, 0x16, 0x04, 0xf9, 0x0b, 0xf6, 0xf6, 0xf3,
  0x26, 0x07, 0x04, 0x05, 0xf2, 0x06, 0x10, 0xf8, 0x0b, 0x21, 0xf6, 0x09,
  0xfe, 0xe7, 0xf5, 0xe6, 0x0c, 0x03, 0xf6, 0xeb, 0xfb, 0x06, 0xfe, 0x10,
  0x03, 0x0b, 0x05, 0x01, 0xf7, 0x10, 0x29, 0x0c, 0x1b, 0x0b, 0xff, 0xf8,
  0x1a, 0x13, 0x0b, 0x14, 0xfe, 0x0d, 0xfc, 0xf4, 0xfb, 0xf8, 0xfb, 0xfc,
  0xf0, 0xe2, 0xec, 0xf7, 0xf9, 0x00, 0x0b, 0xff, 0x0b, 0xfe, 0xf0, 0x27,
  0x36, 0x23, 0x0c, 0x1c, 0xf9, 0xe0, 0x11, 0x1a, 0x14, 0x1e, 0x27, 0x0e,
  0x02, 0xef, 0x03, 0xed, 0x06, 0x08, 0x01, 0xe6, 0xea, 0x17, 0x0d, 0x06,
  0x07, 0xf8, 0x0e, 0x06, 0xf5, 0x16, 0x05, 0x22, 0xed, 0x10, 0xf0, 0xc7,
  0x06, 0x0d, 0x14, 0x09, 0x27, 0x19, 0xfb, 0x07, 0x00, 0x08, 0x0e, 0x08,
  0xfe, 0xf6, 0xf3, 0xff, 0x05, 0x08, 0x04, 0x06, 0x10, 0xf6, 0x10, 0xf8,
  0xca, 0xf0, 0xac, 0x06, 0xd3, 0xad, 0xe6, 0xf7, 0xfd, 0xfa, 0x11, 0x17,
  0x08, 0x10, 0x03, 0x0c, 0x05, 0x03, 0x11, 0x07, 0xf8, 0x02, 0x08, 0x0c,
  0x17, 0x10, 0x09, 0x0a, 0x10, 0xde, 0xbe, 0xda, 0xa3, 0xe0, 0xd8, 0xb5,
  0xea, 0xe0, 0xe0, 0xf3, 0x07, 0x04, 0x17, 0xf6, 0x06, 0x11, 0x00, 0x04,
  0xfb, 0x11, 0x05, 0x11, 0x0f, 0x10, 0x0a, 0x01, 0x0b, 0xfb, 0x05, 0xdb,
  0xda, 0xe0, 0xd5, 0xe7, 0xfd, 0xe2, 0xf3, 0xc3, 0xe7, 0xe7, 0x11, 0xf4,
  0x00, 0xf0, 0x06, 0x1c, 0x01, 0xfe, 0x11, 0x05, 0xf4, 0x15, 0x1b, 0x14,
  0x13, 0x07, 0x08, 0x13, 0x04, 0xd5, 0x02, 0xef, 0xfb, 0xfc, 0xf1, 0xf7,
  0x0d, 0xdf, 0xf1, 0x09, 0xed, 0xf9, 0x18, 0xee, 0xfa, 0xfe, 0x0e, 0xf7,
  0x0d, 0x05, 0x0a, 0x0b, 0x10, 0x10, 0x17, 0x07, 0x0a, 0x06, 0xf6, 0xd7,
  0x24, 0xf3, 0x1b, 0xf6, 0xf8, 0xfe, 0x1e, 0xd8, 0xf1, 0xf7, 0xee, 0xf7,
  0x03, 0xfc, 0x07, 0x23, 0x0d, 0x01, 0x14, 0x02, 0x05, 0x21, 0x0e, 0x05,
  0x12, 0x03, 0x14, 0x19, 0xe9, 0xed, 0x36, 0x01, 0x24, 0x05, 0xf9, 0xf8,
  0x30, 0xdc, 0xfc, 0xef, 0xf6, 0xfd, 0x24, 0x07, 0x0d, 0x28, 0x01, 0x01,
  0x17, 0xe3, 0x03, 0x25, 0xfd, 0x0a, 0x26, 0x02, 0x01, 0x0d, 0xea, 0xf0,
  0x34, 0x03, 0x06, 0xf4, 0xfb, 0xfd, 0x2f, 0x0e, 0xf9, 0xf7, 0x06, 0x11,
  0x02, 0xff, 0x08, 0x18, 0xf3, 0xff, 0x08, 0xde, 0xf9, 0xfc, 0xe4, 0x09,
  0x09, 0xfa, 0x06, 0x02, 0xe9, 0xfc, 0x1c, 0x17, 0x05, 0x08, 0x14, 0xfc,
  0x15, 0x31, 0x15, 0x07, 0x19, 0x0a, 0x14, 0xf1, 0xff, 0x11, 0xfc, 0x05,
  0xe7, 0xe6, 0x03, 0xec, 0xf5, 0x03, 0x09, 0xe7, 0x0b, 0xfa, 0x07, 0xfa,
  0x0c, 0xfb, 0x1a, 0xfa, 0x17, 0xf0, 0x00, 0x12, 0x06, 0x0a, 0x0d, 0x10,
  0xf5, 0x00, 0x06, 0xf4, 0xfa, 0x02, 0xed, 0xfd, 0x02, 0x08, 0x01, 0xfb,
  0x00, 0xea, 0x05, 0x0d, 0xf5, 0xf9, 0xef, 0xf5, 0xfd, 0x05, 0x02, 0xea,
  0xed, 0x05, 0x04, 0xf4, 0xf0, 0x04, 0xfa, 0x03, 0x08, 0x05, 0xfc, 0xfb,
  0x15, 0x03, 0x03, 0xff, 0xef, 0x06, 0xfe, 0x07, 0x07, 0xeb, 0xf0, 0x05,
  0xd1, 0xdf, 0x0b, 0xeb, 0xfb, 0xf8, 0xf5, 0x04, 0x07, 0xfa, 0xf0, 0x03,
  0x0a, 0x02, 0x09, 0x01, 0xf7, 0x06, 0xf9, 0xfb, 0x05, 0x01, 0x0c, 0x0d,
  0xfc, 0xfa, 0xfc, 0xf6, 0x04, 0xfe, 0xf0, 0x00, 0xfe, 0xff, 0xfa, 0x00,
  0x00, 0xf9, 0x0a, 0x08, 0x08, 0x0b, 0x0d, 0x08, 0x05, 0x01, 0x06, 0x0b,
  0x05, 0x0a, 0x0e, 0x08, 0x07, 0x02, 0x05, 0x00, 0x05, 0x02, 0xf4, 0xf7,
  0x15, 0x06, 0xf8, 0xf4, 0xf8, 0xeb, 0x0f, 0x05, 0xfa, 0x02, 0xf4, 0x03,
  0x02, 0xfd, 0x01, 0x02, 0xfe, 0xf6, 0xf6, 0x00, 0x04, 0x00, 0xf5, 0x02,
  0x08, 0xfd, 0x06, 0x03, 0x09, 0x03, 0xf0, 0x05, 0xf8, 0xe4, 0x09, 0xf7,
  0x0d, 0x02, 0x02, 0x16, 0xf6, 0xfd, 0x0f, 0xed, 0x01, 0xfa, 0xff, 0xfd,
  0xea, 0x04, 0x03, 0xf9, 0xfa, 0xfa, 0x12, 0x05, 0xf8, 0x0a, 0x0a, 0x10,
  0x04, 0x05, 0x02, 0xe0, 0x07, 0xf3, 0xed, 0x07, 0xf6, 0x10, 0xee, 0x06,
  0x03, 0x0e, 0xf5, 0x00, 0xfb, 0xff, 0x03, 0xf1, 0xfd, 0x01, 0xf9, 0xfc,
  0x0d, 0xf7, 0xf7, 0x1b, 0x1a, 0x04, 0xf8, 0x0b, 0x12, 0xed, 0xff, 0xf1,
  0xe5, 0x0a, 0xea, 0xf4, 0x09, 0x08, 0xf9, 0xee, 0x08, 0x0b, 0x01, 0xfc,
  0x21, 0x01, 0xff, 0x01, 0xf4, 0xfc, 0xe9, 0xfe, 0xfa, 0x01, 0x13, 0x0d,
  0xf1, 0x0a, 0x03, 0x07, 0x0a, 0xfb, 0xea, 0x0c, 0xfa, 0xea, 0x03, 0xff,
  0x00, 0xf3, 0xff, 0x13, 0x03, 0x03, 0x12, 0x0d, 0x03, 0x07, 0xee, 0xfd,
  0x07, 0x09, 0xfa, 0xf6, 0x29, 0x0c, 0xd2, 0x08, 0x12, 0x1b, 0x12, 0xe9,
  0xd0, 0x0c, 0x1b, 0x06, 0xe9, 0xfe, 0xff, 0xf8, 0xf7, 0xfa, 0x07, 0x05,
  0x14, 0x14, 0x12, 0x13, 0x06, 0x03, 0xf8, 0x0b, 0x02, 0x0c, 0x14, 0x15,
  0xc5, 0x0c, 0x09, 0x22, 0x0a, 0x0e, 0xd2, 0xfa, 0x10, 0xf8, 0xe7, 0xfc,
  0xff, 0x0d, 0xfb, 0xfe, 0xf9, 0x10, 0x1e, 0x0c, 0x0c, 0xf3, 0xfe, 0x03,
  0xf9, 0xf9, 0x03, 0xfb, 0xbe, 0x0d, 0xc9, 0x05, 0x12, 0x1a, 0x16, 0x2c,
  0xf6, 0xfb, 0x18, 0xfc, 0xe9, 0xe8, 0xf5, 0x0d, 0x0d, 0xfc, 0xe7, 0x11,
  0x04, 0x12, 0x18, 0x02, 0xf8, 0xff, 0xf7, 0x09, 0xff, 0x04, 0xc1, 0x0e,
  0x1f, 0xdd, 0x1d, 0xf0, 0x0a, 0x28, 0xfe, 0xf2, 0x21, 0x0d, 0xd1, 0xfa,
  0xf4, 0x12, 0x0a, 0xff, 0x06, 0x16, 0x1a, 0x1a, 0x22, 0xf9, 0xff, 0x04,
  0xf5, 0x0a, 0x05, 0x15, 0xbb, 0xea, 0x27, 0xd3, 0xfc, 0xf2, 0xdc, 0x33,
  0x0c, 0xbd, 0x0c, 0xdf, 0xeb, 0xfc, 0xd2, 0xf0, 0x01, 0xf5, 0xf6, 0x14,
  0x10, 0x0a, 0x17, 0xf9, 0x07, 0x06, 0x03, 0xfe, 0xf8, 0x0e, 0xb9, 0xe3,
  0x3d, 0x24, 0xd8, 0x21, 0xcb, 0xe8, 0x18, 0xf3, 0xf3, 0xf8, 0x01, 0xf5,
  0xf0, 0xfd, 0x03, 0xfe, 0xfc, 0x11, 0xff, 0x14, 0x0e, 0xff, 0x0d, 0x05,
  0xff, 0xff, 0xf7, 0xf1, 0xbe, 0xec, 0x1d, 0x2b, 0xd8, 0x0e, 0xfd, 0x99,
  0x16, 0x07, 0xe8, 0x1e, 0x21, 0x0a, 0x10, 0x09, 0x00, 0x0a, 0x11, 0xfe,
  0x07, 0xfd, 0x13, 0x06, 0xfd, 0x05, 0xfb, 0x00, 0x00, 0x02, 0xcf, 0x08,
  0x01, 0x29, 0xf0, 0x01, 0x0e, 0xb6, 0x10, 0x21, 0xf4, 0x1a, 0x10, 0xf8,
  0x00, 0x0b, 0x02, 0xfd, 0x01, 0xfc, 0xf1, 0x09, 0x12, 0x0a, 0xff, 0xff,
  0xf4, 0x04, 0xfd, 0x00, 0xe8, 0x18, 0x12, 0x16, 0xfc, 0xfd, 0xf3, 0xce,
  0x1f, 0x2c, 0xfd, 0x13, 0x28, 0x02, 0xf3, 0x0b, 0x04, 0xfa, 0x14, 0x03,
  0x05, 0x09, 0x03, 0xff, 0x07, 0x00, 0xf6, 0x0a, 0xf6, 0xfd, 0x00, 0x1e,
  0x14, 0x06, 0xfe, 0xf6, 0xdd, 0xd0, 0x1f, 0x33, 0x02, 0x1f, 0x0c, 0x01,
  0x07, 0x08, 0xf9, 0xf9, 0x0c, 0x08, 0x0c, 0x1d, 0x19, 0xf2, 0x07, 0x03,
  0xf6, 0x00, 0x05, 0xff, 0xf7, 0x17, 0x02, 0x07, 0xf5, 0x08, 0xcc, 0xd1,
  0xf5, 0x2e, 0xfe, 0x13, 0x15, 0xf5, 0x10, 0x16, 0x08, 0x03, 0x01, 0x04,
  0x0b, 0x01, 0x0b, 0xf7, 0x06, 0xfb, 0xfb, 0x06, 0xf6, 0xfe, 0xff, 0x0c,
  0xf9, 0xdd, 0xf1, 0xd0, 0xde, 0xe4, 0xfb, 0x03, 0x02, 0x0a, 0x03, 0x02,
  0xfc, 0x00, 0x06, 0x07, 0x05, 0xfc, 0x00, 0xfc, 0x0f, 0xfa, 0xfe, 0x0a,
  0xf7, 0xfc, 0xff, 0x00, 0xfa, 0x0a, 0xf3, 0xd8, 0xf8, 0xdf, 0xf6, 0xf1,
  0xee, 0xe8, 0xfa, 0xec, 0xfc, 0xfd, 0xf1, 0xff, 0x02, 0xfb, 0x04, 0x05,
  0x04, 0x00, 0x04, 0x08, 0xfd, 0x09, 0x09, 0xfe, 0xfe, 0x08, 0xfa, 0xf0,
  0xef, 0xff, 0xea, 0xe9, 0xfe, 0x07, 0xf5, 0x08, 0xfd, 0x06, 0xfe, 0x02,
  0xe9, 0x07, 0x06, 0xf8, 0x15, 0x00, 0x02, 0x03, 0x04, 0xfc, 0x01, 0x07,
  0x00, 0x07, 0xfe, 0x11, 0xfd, 0xed, 0xea, 0xf4, 0xf5, 0xfb, 0x07, 0x0c,
  0x01, 0x13, 0x0c, 0x13, 0x0c, 0x00, 0x07, 0x19, 0x08, 0x12, 0x06, 0x09,
  0xf8, 0x12, 0x06, 0xf6, 0x02, 0x05, 0xf5, 0x0c, 0x03, 0xfd, 0xfe, 0xfc,
  0xf1, 0xfe, 0x01, 0x07, 0xfa, 0xf9, 0xff, 0x03, 0xfc, 0x0b, 0x04, 0xfa,
  0x0a, 0x02, 0x07, 0xf9, 0xfd, 0xfd, 0xf4, 0x0d, 0x0e, 0xe9, 0x05, 0x07,
  0xfb, 0x05, 0x07, 0xfa, 0x06, 0xf7, 0x01, 0xf9, 0xf9, 0xf2, 0x0a, 0xfe,
  0xf8, 0xfc, 0xfa, 0xf3, 0xfe, 0xfa, 0xfa, 0xff, 0x00, 0xf7, 0x09, 0x03,
  0x00, 0x07, 0x03, 0x06, 0x0b, 0x01, 0x0b, 0x07, 0xfd, 0x00, 0x09, 0xf3,
  0xf5, 0xfc, 0x09, 0xf2, 0x15, 0xf6, 0xfd, 0x14, 0xff, 0x02, 0x02, 0x0c,
  0x09, 0x05, 0xff, 0x06, 0x04, 0x02, 0x03, 0x02, 0x05, 0xfd, 0x08, 0x03,
  0x0d, 0x01, 0xff, 0xfe, 0xf2, 0x05, 0x1a, 0xf5, 0xfe, 0xef, 0x01, 0xf7,
  0x09, 0x04, 0x06, 0x0c, 0x04, 0xf5, 0xfe, 0x01, 0x01, 0x05, 0x04, 0x10,
  0x05, 0x03, 0x11, 0x07, 0x06, 0x06, 0x05, 0x06, 0xfc, 0x09, 0xeb, 0xd9,
  0x1f, 0xfc, 0xdc, 0xfb, 0xf8, 0xfb, 0xfe, 0x05, 0x06, 0xfc, 0x0b, 0x02,
  0x00, 0x0d, 0x09, 0x0c, 0x05, 0xfd, 0x0a, 0x00, 0x03, 0x0c, 0x0a, 0x02,
  0x06, 0x04, 0x05, 0xef, 0xe4, 0xdd, 0xed, 0x0e, 0xe7, 0xe9, 0xee, 0xfc,
  0xee, 0xfe, 0x02, 0x0f, 0x00, 0x02, 0x0d, 0x08, 0x07, 0xf9, 0x0c, 0xff,
  0x06, 0xfa, 0x07, 0xfd, 0x02, 0x02, 0x0b, 0x00, 0x00, 0x11, 0x21, 0xfc,
  0x00, 0x06, 0xea, 0xf5, 0xf9, 0xf5, 0x03, 0xfe, 0x00, 0x11, 0xff, 0x00,
  0x14, 0x02, 0x06, 0x04, 0xfe, 0x03, 0x01, 0x08, 0x0a, 0x08, 0x05, 0xfe,
  0x19, 0xff, 0x05, 0x15, 0xe8, 0xe3, 0x05, 0x08, 0xf8, 0xee, 0xf2, 0xe5,
  0xf9, 0x02, 0x05, 0x00, 0x11, 0x08, 0xf7, 0xf9, 0x06, 0xfa, 0x00, 0x09,
  0xff, 0xfb, 0x08, 0xf2, 0xfd, 0x03, 0xf0, 0x05, 0xfb, 0x06, 0x0a, 0xfb,
  0xf8, 0xea, 0xed, 0xd6, 0xf0, 0xee, 0xfb, 0xf6, 0x04, 0x10, 0x05, 0x04,
  0xef, 0xfd, 0x06, 0x05, 0x07, 0x04, 0x12, 0x0c, 0x02, 0xfd, 0xff, 0x04,
  0x21, 0x0a, 0xf9, 0x00, 0x11, 0x09, 0xec, 0xcb, 0xfc, 0xe5, 0xf5, 0xf7,
  0x00, 0xed, 0xfe, 0x11, 0x01, 0xf7, 0x04, 0xfd, 0x03, 0x08, 0x08, 0x03,
  0x19, 0x06, 0x07, 0x01, 0x08, 0xfe, 0x05, 0x0a, 0xfd, 0xfa, 0xf6, 0x00,
  0xf0, 0xd4, 0xf5, 0xe7, 0xeb, 0xf5, 0x04, 0xfd, 0x04, 0x0e, 0x06, 0xfc,
  0xfa, 0xfb, 0x00, 0xfc, 0x04, 0xf9, 0xfe, 0x05, 0xfd, 0x04, 0x07, 0xfc,
  0xff, 0x08, 0xfd, 0xfb, 0x1a, 0x06, 0xfd, 0xf8, 0xf8, 0xf0, 0xfe, 0xfc,
  0xf5, 0xff, 0xfc, 0xf2, 0x16, 0x0a, 0x00, 0xfe, 0xfe, 0x10, 0x07, 0xff,
  0x0b, 0xfa, 0xf7, 0xfa, 0x07, 0xfd, 0x02, 0xfa, 0x00, 0x05, 0xfa, 0xe6,
  0xfe, 0xfa, 0x09, 0xea, 0xe9, 0x00, 0xeb, 0xeb, 0xf3, 0xec, 0x2f, 0x05,
  0x35, 0x28, 0x00, 0xe7, 0x05, 0xf9, 0xfa, 0x04, 0x04, 0xf2, 0x06, 0xff,
  0x03, 0x17, 0x06, 0xfc, 0x05, 0xfc, 0xfb, 0xed, 0x0d, 0x01, 0xfe, 0xf8,
  0xf7, 0x02, 0xfb, 0xf0, 0xf0, 0xfa, 0x0c, 0x0e, 0xfd, 0xf0, 0x07, 0xf6,
  0x07, 0x06, 0x06, 0x24, 0x09, 0xfd, 0x13, 0xf7, 0xf6, 0x22, 0x0a, 0x01,
  0x16, 0xfc, 0xe3, 0xd2, 0xfe, 0x03, 0xfe, 0x04, 0xf7, 0xf6, 0xee, 0xf2,
  0xeb, 0xed, 0xfb, 0xed, 0x0e, 0xf7, 0xf9, 0x03, 0xfe, 0xfe, 0xfd, 0x00,
  0x01, 0xfc, 0xff, 0x04, 0x1b, 0x07, 0xfe, 0xfb, 0x07, 0xf9, 0xee, 0xff,
  0xdd, 0x04, 0x02, 0xf6, 0xf5, 0xfd, 0xfa, 0xf7, 0xf8, 0xef, 0x06, 0x00,
  0xf7, 0xf6, 0xfd, 0x0a, 0xfc, 0xff, 0x16, 0x00, 0x01, 0x2c, 0x0c, 0x16,
  0xec, 0x06, 0x06, 0x10, 0x0c, 0xe8, 0xac, 0xf7, 0xf9, 0xd6, 0xf3, 0x04,
  0x05, 0xf2, 0x05, 0xee, 0xfd, 0x04, 0xf8, 0xf8, 0x02, 0xfe, 0xff, 0xfc,
  0x05, 0x00, 0x06, 0x03, 0x2f, 0x0e, 0xde, 0x0e, 0x06, 0x13, 0x0e, 0xf6,
  0xaa, 0xed, 0x03, 0xd1, 0xec, 0x0c, 0xfe, 0x03, 0x0d, 0x03, 0xf4, 0x03,
  0x0c, 0xf3, 0x00, 0xf8, 0xfc, 0x01, 0x00, 0x0f, 0x06, 0x06, 0x03, 0x05,
  0xbe, 0x04, 0x0a, 0x0b, 0x0c, 0x1a, 0xe2, 0xef, 0x0f, 0xef, 0x01, 0xfb,
  0x0f, 0xfa, 0xe8, 0xe4, 0x06, 0x04, 0xef, 0xea, 0xfd, 0xf9, 0xf6, 0xf6,
  0xfc, 0x09, 0x01, 0xfa, 0xd8, 0x06, 0xee, 0x09, 0x15, 0xff, 0x14, 0x37,
  0xfa, 0xf5, 0x20, 0xf2, 0xdd, 0xf1, 0x03, 0xf8, 0xf9, 0xfb, 0x0f, 0x19,
  0x15, 0xfd, 0xfc, 0x04, 0x01, 0xf8, 0x03, 0x09, 0x00, 0x0d, 0xf0, 0x01,
  0x25, 0xd5, 0x0b, 0xe4, 0x00, 0x31, 0x02, 0xca, 0x0e, 0x03, 0xdb, 0xe0,
  0xdd, 0x04, 0x08, 0xf5, 0x12, 0x05, 0x0b, 0xfe, 0xfe, 0xfa, 0x09, 0xfc,
  0xec, 0xfa, 0x01, 0xf7, 0xe4, 0xed, 0x2d, 0xc8, 0xf6, 0xec, 0xd6, 0x18,
  0x0a, 0xc7, 0x05, 0xdc, 0xf4, 0xed, 0xe4, 0xf9, 0x00, 0xfc, 0x08, 0xfc,
  0x0d, 0x01, 0xfb, 0x01, 0xf7, 0xff, 0x13, 0x17, 0x08, 0x0f, 0xd5, 0xdc,
  0x34, 0x24, 0xc9, 0xec, 0xd5, 0xd2, 0x27, 0xee, 0xf7, 0xef, 0x0e, 0xfc,
  0xff, 0x06, 0x09, 0x06, 0x14, 0x05, 0xfd, 0x04, 0x04, 0x03, 0xfd, 0x03,
  0x0f, 0x01, 0x02, 0x03, 0xfe, 0xfb, 0x28, 0x22, 0xec, 0xfa, 0x01, 0xcc,
  0x1d, 0x0a, 0xf0, 0x13, 0x12, 0xfa, 0x00, 0x0a, 0x06, 0x05, 0x06, 0x01,
  0xff, 0x00, 0x00, 0xfb, 0x05, 0x06, 0x06, 0x03, 0xf6, 0xf8, 0x12, 0x18,
  0x29, 0x23, 0xe3, 0x03, 0xfb, 0xcc, 0x12, 0x1e, 0xeb, 0x10, 0x1d, 0xf9,
  0x11, 0x0e, 0x0a, 0xfb, 0x12, 0x05, 0xfa, 0xf9, 0x00, 0x04, 0x0c, 0x03,
  0x00, 0x09, 0x00, 0x04, 0x1e, 0x29, 0x0c, 0x27, 0xe8, 0x11, 0xef, 0xe8,
  0x12, 0x07, 0xf8, 0x22, 0x02, 0xf2, 0x12, 0xfe, 0x00, 0xfd, 0x04, 0x01,
  0xfc, 0x05, 0xfe, 0x06, 0x05, 0x09, 0x0f, 0x07, 0x10, 0x0d, 0x42, 0x15,
  0xdf, 0xff, 0x02, 0xe5, 0x41, 0x1c, 0xd3, 0xf9, 0x05, 0x11, 0xfe, 0x00,
  0x10, 0xfb, 0x02, 0x02, 0x02, 0x00, 0x10, 0x0f, 0x06, 0x00, 0x04, 0xf2,
  0xfc, 0x0b, 0x08, 0x08, 0xdc, 0xff, 0xfa, 0xf7, 0xe6, 0xfd, 0x00, 0xfe,
  0x01, 0x03, 0xfa, 0x05, 0x05, 0xfe, 0x04, 0x05, 0xf5, 0x07, 0x0c, 0xfc,
  0x02, 0x06, 0xfa, 0x09, 0x0a, 0xfc, 0x0f, 0x02, 0x0b, 0x05, 0xdd, 0xfb,
  0xff, 0xe7, 0xda, 0xee, 0xfa, 0xf6, 0xe8, 0xf0, 0xfe, 0xf2, 0xfe, 0x02,
  0xf8, 0x08, 0x01, 0x01, 0xfd, 0x04, 0xfd, 0x09, 0x07, 0x06, 0x0b, 0x04,
  0x0c, 0x05, 0x02, 0x03, 0xe4, 0xed, 0x14, 0xf6, 0xde, 0xf9, 0xf8, 0x00,
  0x05, 0xfb, 0x01, 0xfc, 0x06, 0xff, 0x00, 0x0a, 0x03, 0x16, 0x09, 0x02,
  0xff, 0x01, 0x00, 0xff, 0x04, 0x06, 0x06, 0x08, 0xfb, 0xfb, 0xeb, 0xf3,
  0x00, 0xf5, 0xe4, 0xf3, 0x00, 0x02, 0x11, 0xfb, 0xfa, 0x18, 0x0e, 0x02,
  0x02, 0xef, 0x07, 0xfd, 0x0d, 0xfc, 0x03, 0xfa, 0x01, 0x0c, 0x0b, 0xfc,
  0x0b, 0xf4, 0x03, 0xfb, 0xe4, 0xe9, 0x0f, 0x0d, 0xdf, 0xe3, 0x03, 0x00,
  0x17, 0x06, 0xfe, 0xfe, 0x00, 0x06, 0xe9, 0xfa, 0x08, 0xf5, 0xf5, 0xfd,
  0xf4, 0x03, 0x05, 0xfc, 0xff, 0xfe, 0x02, 0x0c, 0xfe, 0xf4, 0xfa, 0xf7,
  0x11, 0xf9, 0xf3, 0xd5, 0xea, 0x09, 0x10, 0x02, 0xfb, 0x11, 0x03, 0xff,
  0x02, 0x09, 0xf7, 0x0c, 0xf9, 0x03, 0xfa, 0x04, 0x02, 0x09, 0xfd, 0x07,
  0x04, 0xfa, 0xfe, 0x08, 0x1d, 0xfe, 0x1c, 0xfd, 0xed, 0xc7, 0xeb, 0xee,
  0xf5, 0x03, 0xfc, 0xf9, 0xf7, 0x09, 0xfc, 0xff, 0x01, 0xfe, 0x15, 0xfc,
  0x08, 0x0b, 0x05, 0x02, 0xf7, 0x06, 0xf5, 0x04, 0x04, 0x04, 0x27, 0x0f,
  0xf7, 0x0a, 0x0f, 0xf0, 0xf3, 0xdf, 0xe1, 0xf6, 0xfb, 0xe4, 0xfa, 0xfe,
  0xf6, 0xfa, 0xf9, 0xf4, 0x00, 0x08, 0xfd, 0xf6, 0xfd, 0x01, 0x08, 0x00,
  0xfb, 0x0f, 0xfe, 0xfd, 0x1e, 0x09, 0xdf, 0x16, 0x14, 0x13, 0xf7, 0xe7,
  0xcc, 0xfa, 0x02, 0xed, 0xfa, 0x0b, 0x0c, 0x01, 0x05, 0x02, 0x02, 0x11,
  0x04, 0x09, 0xfa, 0x13, 0x04, 0x00, 0x16, 0x18, 0x0c, 0x0d, 0x39, 0x1f,
  0xcc, 0x11, 0x16, 0x0c, 0x0c, 0x05, 0xc0, 0xef, 0x14, 0xfc, 0xdc, 0xfe,
  0xfe, 0x07, 0x0a, 0x00, 0x05, 0xfb, 0xf8, 0xfe, 0x01, 0x01, 0x00, 0x02,
  0x05, 0x08, 0x0e, 0x07, 0x29, 0x10, 0xb5, 0x09, 0x1e, 0x0e, 0x15, 0x2e,
  0xc2, 0xf3, 0x08, 0xf5, 0xe4, 0x06, 0xf3, 0xf2, 0x02, 0xf1, 0x04, 0xff,
  0x00, 0xfd, 0x02, 0xfd, 0x07, 0xff, 0x03, 0x08, 0x0e, 0x0b, 0xce, 0x08,
  0xd0, 0x07, 0x1c, 0x25, 0x17, 0x29, 0xe1, 0xf8, 0x2e, 0xe8, 0xed, 0x01,
  0x01, 0x0d, 0x04, 0xec, 0xff, 0x0a, 0xfa, 0x08, 0x04, 0x03, 0x0d, 0x00,
  0x08, 0x10, 0x06, 0x17, 0xe1, 0xf8, 0x02, 0xe1, 0x0e, 0x06, 0x16, 0x29,
  0xf7, 0xe8, 0x1a, 0x05, 0xe7, 0xf2, 0xd3, 0xf6, 0x00, 0xf0, 0xff, 0x04,
  0x04, 0xf6, 0x00, 0x0b, 0x01, 0xff, 0x05, 0xfc, 0xfd, 0x00, 0xc8, 0xe1,
  0x26, 0xc4, 0x00, 0xfd, 0xf5, 0x3c, 0x16, 0xda, 0x10, 0xe3, 0xe3, 0x01,
  0xd5, 0x02, 0x02, 0x04, 0xfe, 0xf8, 0x09, 0xfa, 0xfa, 0xfe, 0x04, 0xfd,
  0x0a, 0xfc, 0xfb, 0x17, 0xca, 0xd9, 0x42, 0x17, 0xec, 0xfd, 0xd4, 0xff,
  0x1f, 0xd9, 0xea, 0x06, 0xf5, 0xe8, 0xf6, 0xf9, 0xeb, 0x10, 0x02, 0xf8,
  0xf7, 0x01, 0xf5, 0xfe, 0x09, 0x05, 0x17, 0x03, 0x02, 0x0b, 0xdc, 0xef,
  0x19, 0x28, 0xdf, 0x03, 0xed, 0xb4, 0x22, 0x0e, 0xeb, 0x12, 0x16, 0xe9,
  0xf1, 0xf6, 0xfb, 0xed, 0x01, 0xfe, 0x02, 0x00, 0x05, 0x0a, 0x00, 0x01,
  0x03, 0x04, 0xfd, 0x01, 0xff, 0x05, 0x10, 0x29, 0xec, 0xf7, 0xf5, 0xb5,
  0x14, 0x0f, 0xfe, 0x24, 0x2c, 0xfd, 0x04, 0x0b, 0xf7, 0xfe, 0x09, 0xfd,
  0xf0, 0xf6, 0x01, 0xfc, 0x0c, 0x06, 0xf2, 0x0a, 0xfb, 0x04, 0x24, 0x21,
  0x01, 0x34, 0xee, 0xfc, 0xf6, 0xca, 0x1f, 0x2b, 0xf3, 0x05, 0x25, 0xef,
  0xf9, 0xf7, 0xf1, 0xfd, 0x04, 0x07, 0xf6, 0x04, 0x0c, 0xfb, 0xf4, 0xff,
  0xf7, 0x08, 0xfc, 0xfd, 0x38, 0x22, 0xf9, 0x0c, 0xfa, 0x11, 0x03, 0xd1,
  0x0c, 0x1e, 0xf3, 0xf2, 0x1d, 0x02, 0x07, 0xf2, 0xe9, 0xfb, 0xf9, 0x05,
  0xe9, 0x12, 0x03, 0x07, 0x04, 0xfc, 0x02, 0x08, 0x02, 0xfe, 0x19, 0x1b,
  0xe9, 0xff, 0xef, 0x0a, 0x1f, 0xee, 0xfb, 0x00, 0xfd, 0xe9, 0x05, 0xf1,
  0xf3, 0xfa, 0xf8, 0xf3, 0x0f, 0x0a, 0xfd, 0xfd, 0x02, 0xf6, 0x05, 0xfe,
  0x03, 0xfd, 0xff, 0x10, 0x1e, 0x17, 0xf3, 0xf0, 0x14, 0xf4, 0x0c, 0x1d,
  0x01, 0x00, 0xf6, 0x0b, 0x00, 0xed, 0xea, 0x0f, 0xfc, 0x01, 0x0a, 0x09,
  0x03, 0x04, 0x06, 0xf1, 0x02, 0x07, 0xfa, 0xfd, 0x07, 0xf9, 0x26, 0x09,
  0xda, 0xe5, 0x1b, 0xfc, 0x13, 0x15, 0xfd, 0xf0, 0xfb, 0xfb, 0x0e, 0xf6,
  0x11, 0x0d, 0xff, 0xfb, 0x07, 0x07, 0x04, 0x02, 0x03, 0xf6, 0xf8, 0x00,
  0x07, 0xfc, 0xff, 0xfc, 0xf1, 0xfd, 0xee, 0x05, 0x12, 0x1d, 0xfe, 0x29,
  0x09, 0xef, 0xfa, 0xf1, 0x0c, 0xfa, 0x08, 0xf8, 0x02, 0x01, 0xf8, 0x03,
  0x06, 0xfd, 0x01, 0xfd, 0x04, 0x03, 0xf8, 0xff, 0xff, 0xfd, 0xef, 0xf0,
  0x20, 0xf4, 0x14, 0x15, 0x2a, 0x1f, 0xed, 0x0d, 0xf9, 0x24, 0x0c, 0x07,
  0x0f, 0x09, 0xfe, 0x03, 0x08, 0x02, 0xff, 0x08, 0x02, 0x08, 0x01, 0xfc,
  0x0c, 0x0f, 0xfd, 0x06, 0xee, 0xf1, 0x18, 0x17, 0xfd, 0x08, 0xfc, 0x18,
  0x2e, 0x0f, 0xf6, 0x04, 0x04, 0x0f, 0x16, 0xfc, 0x09, 0x0d, 0x09, 0x11,
  0x08, 0xff, 0x10, 0x08, 0x02, 0x03, 0x07, 0x04, 0x12, 0x07, 0xdb, 0xf1,
  0x2a, 0x0b, 0x18, 0x06, 0xec, 0xe6, 0x33, 0xfd, 0xf7, 0x0a, 0xfb, 0x0d,
  0xf1, 0xf1, 0x05, 0x09, 0xf7, 0x03, 0xed, 0x05, 0xfe, 0x05, 0x06, 0x05,
  0x0e, 0xf4, 0x04, 0x1c, 0xd5, 0xf3, 0x1e, 0x08, 0x19, 0x03, 0xf6, 0xf5,
  0x1b, 0x11, 0xf1, 0x08, 0x15, 0x0e, 0xfe, 0x0e, 0x07, 0x00, 0xfe, 0xff,
  0x02, 0x0b, 0xfb, 0x02, 0xf6, 0x0a, 0x0c, 0xf6, 0x0f, 0x0e, 0xcf, 0xf6,
  0x15, 0x05, 0x1a, 0x0a, 0x01, 0xff, 0x19, 0x19, 0xf6, 0x00, 0x08, 0x0c,
  0x13, 0x03, 0x0f, 0xfd, 0x0b, 0xfc, 0xf9, 0x08, 0x0c, 0x10, 0x02, 0x05,
  0xfe, 0xfb, 0x0c, 0x04, 0xd5, 0xff, 0x1d, 0x01, 0x27, 0x08, 0x0e, 0x02,
  0xf9, 0x16, 0x07, 0xf3, 0x1f, 0x0a, 0xf6, 0x04, 0xf3, 0xfe, 0xfb, 0xfb,
  0x0c, 0x02, 0xff, 0x18, 0xfb, 0x00, 0xf1, 0xf1, 0x07, 0xf2, 0xe0, 0x02,
  0x12, 0xfb, 0x32, 0x0b, 0x0b, 0x04, 0x07, 0x1a, 0x0f, 0x16, 0x21, 0x19,
  0xf7, 0x09, 0xec, 0xda, 0x0c, 0xf7, 0xf6, 0x0b, 0x05, 0xf5, 0x05, 0x01,
  0xf4, 0xf2, 0x02, 0xf3, 0x0a, 0x0d, 0xd9, 0xee, 0x23, 0xe2, 0x0e, 0x03,
  0xd8, 0x0a, 0x00, 0xd9, 0x04, 0x14, 0x04, 0x0d, 0xf6, 0xec, 0x07, 0xf5,
  0x10, 0x13, 0x00, 0x01, 0x02, 0xfb, 0xef, 0xfd, 0x04, 0xf4, 0xf4, 0xf3,
  0xd1, 0xe1, 0x2e, 0xf6, 0x22, 0x11, 0xec, 0x07, 0x14, 0xe8, 0xfe, 0x08,
  0xf1, 0x03, 0x02, 0xe1, 0x04, 0x01, 0x0e, 0x00, 0x0b, 0x01, 0xfa, 0xfd,
  0xf1, 0x01, 0x01, 0xfa, 0x10, 0x05, 0xba, 0xc6, 0x1d, 0xf4, 0x24, 0x0f,
  0xd9, 0x04, 0x1a, 0xe2, 0xf8, 0x14, 0xd8, 0x0c, 0x01, 0xf1, 0x0a, 0xfd,
  0x11, 0x11, 0x04, 0xf5, 0xfd, 0x08, 0xf4, 0xf8, 0xff, 0x01, 0x23, 0xfd,
  0xc4, 0xb1, 0x12, 0xf9, 0x1a, 0x01, 0xdf, 0xf5, 0x0d, 0xdb, 0xed, 0x09,
  0xe2, 0xfb, 0x0b, 0x06, 0x02, 0x09, 0x0c, 0x08, 0x00, 0x0b, 0xfe, 0x00,
  0xf9, 0x03, 0x06, 0x02, 0xf7, 0xfc, 0xde, 0xa7, 0xf2, 0xdb, 0xf2, 0xe3,
  0xe8, 0xef, 0xf8, 0xf4, 0xef, 0x0a, 0xff, 0x05, 0xfd, 0xf6, 0xfb, 0x06,
  0xff, 0xfb, 0x02, 0x06, 0xf2, 0x02, 0x09, 0xf8, 0x09, 0xfd, 0x01, 0xf6,
  0xcb, 0xb3, 0xe8, 0xd9, 0xe5, 0xcc, 0xdb, 0xde, 0xe4, 0xf0, 0xfb, 0x05,
  0xf3, 0x0a, 0xfb, 0x11, 0x05, 0x05, 0x05, 0x0d, 0x0e, 0x0c, 0x0a, 0x01,
  0x07, 0xfc, 0x0e, 0x07, 0x14, 0xf9, 0xcc, 0xd3, 0xfd, 0xd7, 0xe6, 0xdb,
  0xe7, 0xd1, 0xe5, 0xe6, 0x02, 0x0b, 0x27, 0x06, 0x01, 0x0d, 0x03, 0x03,
  0x05, 0x0f, 0xfd, 0x00, 0x09, 0x03, 0x04, 0x0b, 0x08, 0x02, 0x16, 0xf6,
  0xec, 0xc8, 0xdf, 0xd0, 0xf2, 0xe4, 0xde, 0xdb, 0xee, 0x04, 0x09, 0x00,
  0x20, 0x0f, 0x00, 0x13, 0xf0, 0xfa, 0x0e, 0xf9, 0xfc, 0x10, 0xf9, 0x0e,
  0x0f, 0x04, 0xfe, 0xfc, 0x06, 0x0d, 0xe3, 0xea, 0xc9, 0xd4, 0x00, 0xfb,
  0xe7, 0xf7, 0xfd, 0xe1, 0xe2, 0x06, 0xe6, 0x02, 0xff, 0xf4, 0xfd, 0x04,
  0x00, 0x12, 0x04, 0xfc, 0x08, 0x09, 0xfa, 0x05, 0x10, 0x03, 0x0a, 0x0e,
  0xfb, 0x09, 0xcb, 0xda, 0xfa, 0xf8, 0x2b, 0x03, 0x04, 0xe7, 0xf7, 0xf9,
  0xf5, 0x14, 0x09, 0xf2, 0x13, 0x06, 0xff, 0x17, 0x02, 0x03, 0x14, 0x09,
  0xfa, 0x09, 0x07, 0x0d, 0xf3, 0xf5, 0x21, 0x29, 0xcd, 0xc4, 0xeb, 0xf1,
  0x22, 0x11, 0x02, 0xf8, 0x0e, 0xf8, 0x02, 0x03, 0x0a, 0x09, 0x13, 0x04,
  0xf8, 0x1f, 0x02, 0x1c, 0x05, 0x0c, 0x0d, 0x00, 0xfc, 0x11, 0xea, 0x11,
  0x0d, 0x2d, 0xc1, 0xf9, 0xed, 0xd8, 0x51, 0x0c, 0x03, 0x01, 0x0e, 0x0f,
  0x00, 0xfc, 0x02, 0x0e, 0x00, 0x07, 0x01, 0x0c, 0x05, 0x19, 0x08, 0x02,
  0x07, 0x08, 0x03, 0x05, 0xed, 0xf7, 0x17, 0x25, 0xe1, 0xf9, 0xdb, 0xdc,
  0x29, 0x1d, 0x16, 0x15, 0x05, 0x15, 0x0a, 0x00, 0x08, 0x0d, 0xfc, 0xf9,
  0xf1, 0x00, 0x01, 0x02, 0x01, 0x00, 0x04, 0xfd, 0x08, 0x06, 0xf9, 0xe8,
  0x0b, 0x17, 0xe5, 0xeb, 0xcf, 0xce, 0x1f, 0x28, 0x09, 0xf9, 0x10, 0x1e,
  0x11, 0x03, 0x08, 0xfc, 0x03, 0xfa, 0xef, 0xfd, 0xff, 0x00, 0x02, 0x01,
  0xfa, 0x01, 0x0f, 0xfe, 0x04, 0xfe, 0x0d, 0x0c, 0xef, 0xfe, 0xf5, 0xc7,
  0x16, 0x1b, 0x0a, 0x00, 0x17, 0x1b, 0x0b, 0xfa, 0x00, 0x06, 0xfe, 0xf5,
  0xf2, 0x06, 0x01, 0x08, 0x00, 0x0d, 0x07, 0x02, 0x0a, 0x03, 0x15, 0x03,
  0x09, 0x0e, 0x06, 0x01, 0xee, 0xde, 0xf9, 0x1a, 0x13, 0x2b, 0x0c, 0x1a,
  0x0d, 0x0a, 0x08, 0x10, 0x04, 0x07, 0xfc, 0xfd, 0xfb, 0x01, 0xfc, 0x07,
  0x04, 0x01, 0x02, 0x15, 0xf8, 0x02, 0x19, 0x0e, 0x02, 0xfa, 0x07, 0xf1,
  0xf6, 0xf8, 0x09, 0x17, 0x19, 0x11, 0x04, 0x17, 0x0b, 0x01, 0x00, 0x09,
  0xf8, 0x14, 0x0b, 0x1d, 0x08, 0x04, 0xfe, 0xfd, 0x07, 0x03, 0xf9, 0x09,
  0x0f, 0xee, 0xe4, 0xfa, 0xf1, 0xee, 0x04, 0xfa, 0x01, 0xe1, 0x05, 0xfe,
  0x0d, 0x24, 0x08, 0x10, 0x12, 0x03, 0x07, 0x00, 0x01, 0x0e, 0x0f, 0x06,
  0x19, 0xfc, 0x02, 0x0c, 0x1b, 0x01, 0x05, 0xfb, 0xfe, 0xfa, 0x00, 0x03,
  0x02, 0xfc, 0xfe, 0xff, 0x02, 0x08, 0x08, 0x01, 0xff, 0x0d, 0xf9, 0xfb,
  0x0a, 0xff, 0x0b, 0x09, 0x03, 0x05, 0xfe, 0x05, 0xfa, 0x01, 0x05, 0x0f,
  0xf1, 0xff, 0x0c, 0xd8, 0xf3, 0xf8, 0xf2, 0xf5, 0xf6, 0xef, 0xfc, 0x01,
  0xf4, 0xf4, 0x04, 0xfe, 0x03, 0x06, 0x13, 0x09, 0x05, 0x0b, 0x0c, 0x03,
  0x06, 0x0c, 0xfe, 0x04, 0x0b, 0x00, 0x06, 0xf2, 0xee, 0xef, 0xef, 0xd7,
  0x00, 0xf7, 0xec, 0xf8, 0x03, 0x03, 0xf3, 0x01, 0x03, 0xf2, 0xf1, 0x08,
  0x00, 0x10, 0x0e, 0x00, 0x08, 0x06, 0xf5, 0x0d, 0x05, 0xfa, 0x21, 0x12,
  0x04, 0xf4, 0xee, 0xe6, 0xf0, 0xd1, 0xf1, 0xfb, 0xee, 0xdf, 0xf7, 0x01,
  0xf8, 0x00, 0xff, 0xff, 0x01, 0x03, 0xf4, 0x09, 0x00, 0x03, 0x09, 0x08,
  0xf9, 0x05, 0x09, 0x11, 0x24, 0x10, 0xfb, 0xda, 0xdc, 0xe0, 0xe9, 0xe7,
  0xe8, 0xf3, 0xeb, 0xe5, 0xf1, 0xf8, 0xf1, 0x15, 0xfd, 0x0d, 0x08, 0x04,
  0xfd, 0x0f, 0x03, 0xfd, 0x10, 0x0b, 0x07, 0x09, 0x07, 0xfe, 0x08, 0xe2,
  0xe8, 0xed, 0xb0, 0xc4, 0xef, 0xdb, 0xe9, 0xec, 0xf3, 0xf9, 0xf8, 0xf0,
  0x14, 0x03, 0xfd, 0x1b, 0x0e, 0x06, 0xfd, 0x0f, 0xfe, 0x0d, 0x0f, 0x07,
  0x1f, 0x0a, 0x02, 0x1f, 0xe1, 0xda, 0xef, 0x19, 0xa4, 0xe0, 0xef, 0xf1,
  0x2a, 0x0a, 0xfe, 0x05, 0x10, 0xfb, 0x05, 0xfc, 0xf5, 0x02, 0xfe, 0x05,
  0xf6, 0x0c, 0xfb, 0x0b, 0x0f, 0x09, 0x0a, 0x08, 0xfe, 0x0c, 0xe1, 0xe7,
  0x17, 0x09, 0xe0, 0x1e, 0xe7, 0xe4, 0x3e, 0x11, 0xe9, 0x09, 0x08, 0xfb,
  0xf5, 0xf5, 0xfa, 0x1d, 0x02, 0x08, 0xf9, 0x12, 0x02, 0x04, 0x07, 0x04,
  0x1d, 0x02, 0x07, 0x09, 0xd4, 0xe6, 0x2f, 0x00, 0x06, 0x2f, 0xef, 0xd1,
  0x3b, 0x0d, 0xeb, 0x21, 0xfa, 0xf8, 0x03, 0xe8, 0xf3, 0xff, 0x01, 0xed,
  0x07, 0x00, 0xfb, 0x11, 0x07, 0xfd, 0x04, 0xfd, 0x10, 0x04, 0xe9, 0xdc,
  0x31, 0xfd, 0x0e, 0x1b, 0xe9, 0xcd, 0x2c, 0x1a, 0xf2, 0x30, 0xff, 0x07,
  0xf6, 0xf1, 0x04, 0x12, 0x15, 0xf6, 0x03, 0xfa, 0xef, 0x0a, 0x09, 0x01,
  0x0f, 0x04, 0x07, 0x0a, 0xee, 0xd8, 0x1b, 0x0e, 0xfd, 0xff, 0xe8, 0xea,
  0x1c, 0x23, 0xf3, 0x20, 0x17, 0x0d, 0x02, 0xf9, 0x07, 0x11, 0x13, 0xfa,
  0x0c, 0xfb, 0xf1, 0x10, 0x0b, 0x0c, 0x1a, 0x0b, 0x06, 0x07, 0xf4, 0xe9,
  0x0b, 0x1a, 0x05, 0xfb, 0x0a, 0xf5, 0x07, 0x26, 0x0b, 0x11, 0x1e, 0x16,
  0xfb, 0x09, 0xf6, 0x11, 0xfd, 0xf9, 0x09, 0xf6, 0xf7, 0x0e, 0xf5, 0x07,
  0x01, 0xf2, 0xff, 0x01, 0xfe, 0x07, 0xff, 0x04, 0x24, 0xf8, 0x0c, 0xfd,
  0x08, 0x21, 0x13, 0xfa, 0x10, 0x11, 0xff, 0xf9, 0xf1, 0xfe, 0xf7, 0xfe,
  0x0f, 0x09, 0x09, 0x10, 0xf1, 0x09, 0x01, 0x0f, 0x07, 0xfe, 0x1b, 0x12,
  0x06, 0xfc, 0x1e, 0xf5, 0x12, 0x0b, 0xe6, 0x0e, 0x0b, 0xf9, 0x02, 0x07,
  0xf7, 0x06, 0x02, 0xf9, 0x11, 0xfd, 0xf5, 0xf9, 0x02, 0xf1, 0x00, 0x09,
  0xf2, 0x06, 0x04, 0xf8, 0x10, 0x1d, 0x0a, 0xf4, 0x2f, 0xdc, 0x0c, 0x0a,
  0xd8, 0x15, 0x3b, 0xeb, 0x00, 0x10, 0xe9, 0xf8, 0x15, 0xf5, 0x08, 0x0c,
  0x03, 0xf7, 0x07, 0xf3, 0x04, 0x07, 0xf1, 0xfe, 0x00, 0x0d, 0x06, 0x18,
  0xe3, 0xec, 0x39, 0xcf, 0x0d, 0x08, 0xd0, 0xed, 0x19, 0xd1, 0xee, 0x1a,
  0xd7, 0x1a, 0x0a, 0xfc, 0x03, 0x06, 0xed, 0xf9, 0xf8, 0x11, 0xfe, 0x09,
  0x13, 0xf4, 0x04, 0x00, 0x06, 0x0a, 0xd7, 0xdd, 0x17, 0xf9, 0x1c, 0x0c,
  0xd8, 0xdc, 0x03, 0xd0, 0xf7, 0x0a, 0xef, 0xfc, 0x0e, 0xfe, 0x0c, 0x07,
  0x0f, 0x00, 0xfe, 0x0a, 0x01, 0x08, 0x0d, 0xfd, 0x11, 0x0b, 0xfe, 0x01,
  0xdb, 0xab, 0xee, 0xf6, 0x2e, 0x0a, 0xe7, 0xfd, 0x1a, 0xdc, 0xeb, 0x0d,
  0xef, 0xf9, 0x08, 0x00, 0xff, 0x07, 0x06, 0x0d, 0x06, 0x0b, 0x0b, 0x0b,
  0x05, 0x02, 0x0b, 0xfc, 0x0b, 0xf4, 0xd2, 0x87, 0xe4, 0xf1, 0xf6, 0x03,
  0xed, 0xf5, 0x06, 0xf1, 0xf3, 0x05, 0x05, 0xfa, 0xfb, 0x0f, 0x02, 0x09,
  0x06, 0x12, 0x09, 0x11, 0x15, 0x0a, 0x0a, 0x09, 0x02, 0x0a, 0x25, 0xed,
  0xc7, 0xa7, 0xde, 0xeb, 0xe9, 0xf1, 0xf7, 0xe9, 0x08, 0x02, 0xf7, 0xfa,
  0x20, 0x0b, 0x03, 0x21, 0x12, 0x0b, 0x16, 0xfb, 0x05, 0x13, 0xfb, 0x03,
  0xfe, 0xfd, 0x03, 0xf8, 0x1e, 0xee, 0xcb, 0xae, 0xdb, 0xfc, 0xe2, 0xf3,
  0xf3, 0xdd, 0x04, 0xf1, 0xec, 0x01, 0x02, 0x0a, 0x02, 0xef, 0x0b, 0x0e,
  0x01, 0x03, 0x05, 0x19, 0x05, 0x09, 0x12, 0xfc, 0xff, 0x0a, 0x1a, 0xf7,
  0xde, 0xc6, 0xe0, 0x01, 0x05, 0xf9, 0x00, 0xff, 0x07, 0xf3, 0xfe, 0xf7,
  0x0c, 0x07, 0x05, 0x17, 0xf9, 0x08, 0x17, 0x0d, 0x09, 0x1a, 0x0a, 0x00,
  0x07, 0xfa, 0xfe, 0x0f, 0x10, 0xf3, 0xf5, 0xe2, 0xf4, 0x15, 0xfb, 0x05,
  0xf9, 0xfd, 0x08, 0xf4, 0xfb, 0xfb, 0x03, 0xf9, 0xfc, 0x1f, 0x02, 0x02,
  0x1a, 0x06, 0x05, 0x1f, 0xfa, 0x01, 0x00, 0xfb, 0x08, 0xfe, 0x18, 0xf1,
  0x0f, 0xef, 0xdf, 0x10, 0x04, 0x12, 0x08, 0xf7, 0x06, 0x0b, 0x08, 0xff,
  0xf7, 0xfc, 0x03, 0xfd, 0x02, 0x08, 0xfa, 0xfe, 0x02, 0xfa, 0x01, 0x0b,
  0x0c, 0x05, 0xfa, 0x06, 0x0a, 0x07, 0x04, 0xf5, 0x23, 0x14, 0x04, 0x0f,
  0x12, 0x01, 0x0a, 0x0d, 0x05, 0x01, 0x0b, 0xf5, 0x04, 0xff, 0x09, 0x05,
  0x07, 0x02, 0x0c, 0xfe, 0x09, 0xff, 0x03, 0x01, 0xf9, 0xfd, 0x08, 0x1c,
  0x0f, 0x03, 0x12, 0xfd, 0xf5, 0xf7, 0xe6, 0x00, 0x05, 0xd8, 0x08, 0x14,
  0xf0, 0x10, 0x03, 0x06, 0x06, 0x03, 0x0b, 0x0c, 0xfe, 0x03, 0xf4, 0x07,
  0xf4, 0x02, 0x0a, 0xfd, 0xf7, 0x1d, 0x10, 0xee, 0x01, 0x09, 0x0a, 0xde,
  0xf6, 0xf6, 0xfe, 0xf5, 0x0b, 0x1c, 0xfc, 0xf8, 0x00, 0xf6, 0xf8, 0x01,
  0x1a, 0x0b, 0x06, 0x15, 0xfd, 0x05, 0xe3, 0x00, 0x19, 0xef, 0xf2, 0x15,
  0x32, 0x16, 0x0b, 0x0b, 0x15, 0xe1, 0xff, 0x0b, 0x1e, 0x01, 0x16, 0x10,
  0xfa, 0x0f, 0x00, 0xfb, 0x00, 0x04, 0xe8, 0xf8, 0x06, 0xe8, 0xff, 0x04,
  0xea, 0xfc, 0x0d, 0xef, 0xfe, 0x1f, 0x0c, 0x25, 0xfc, 0x03, 0xf9, 0xd5,
  0x06, 0x06, 0x12, 0x13, 0xf7, 0x09, 0x12, 0x09, 0x02, 0xea, 0x0f, 0x06,
  0x03, 0xfa, 0xf9, 0x04, 0x04, 0x07, 0x0f, 0x07, 0x12, 0x10, 0xfa, 0xfd,
  0xe8, 0xf8, 0xcd, 0x02, 0xdb, 0xd1, 0x01, 0xf8, 0xfb, 0xe0, 0xef, 0x01,
  0xf8, 0x02, 0xfe, 0xe9, 0x0c, 0x07, 0xee, 0xf1, 0xfb, 0xec, 0xf1, 0x02,
  0xfb, 0xfa, 0x06, 0x07, 0x14, 0xf2, 0xcf, 0xe1, 0x8d, 0xe9, 0xe7, 0xc3,
  0xdf, 0xd5, 0xf2, 0xe0, 0xf9, 0x04, 0xf3, 0x05, 0x03, 0x09, 0x08, 0xfd,
  0xf4, 0x11, 0xfe, 0xf9, 0x06, 0xfd, 0x07, 0x0e, 0x10, 0x01, 0xfe, 0xe2,
  0xcc, 0xd6, 0xbd, 0xf7, 0xef, 0xce, 0xf5, 0xe3, 0xf6, 0xe6, 0x02, 0xfa,
  0x04, 0x11, 0x07, 0x1c, 0x0c, 0x0e, 0x10, 0x0d, 0x06, 0x04, 0x12, 0x0d,
  0x04, 0x0e, 0x0b, 0xfd, 0x04, 0xd1, 0xd7, 0xc5, 0xc5, 0xfa, 0xe5, 0xe5,
  0x07, 0xf3, 0xef, 0xef, 0xed, 0xf8, 0xff, 0xfb, 0xfe, 0x06, 0x08, 0x03,
  0x15, 0x09, 0x12, 0x0e, 0x13, 0x0c, 0x1d, 0x0a, 0x09, 0xf0, 0x05, 0xe5,
  0xe2, 0xfa, 0xe4, 0x00, 0x05, 0xf1, 0x1f, 0x05, 0x03, 0xfb, 0x0c, 0x01,
  0x01, 0xff, 0x00, 0x1f, 0x03, 0xfe, 0x07, 0xef, 0x01, 0x22, 0x0b, 0x04,
  0x15, 0xe6, 0xfc, 0xfb, 0xf8, 0xea, 0x09, 0x05, 0xfc, 0x13, 0xf5, 0xf4,
  0x2e, 0x05, 0x13, 0x06, 0x15, 0x10, 0xfd, 0xf6, 0x10, 0x05, 0x02, 0x09,
  0x04, 0xfb, 0xfc, 0x12, 0xfe, 0x06, 0x00, 0x02, 0x0d, 0xd7, 0xfa, 0xe8,
  0x19, 0x02, 0x10, 0x19, 0xec, 0xf2, 0x1e, 0x06, 0x04, 0xf2, 0x14, 0xfa,
  0xe4, 0xf3, 0x06, 0x0f, 0x03, 0x01, 0x02, 0xfd, 0xfb, 0x16, 0x11, 0x0b,
  0x13, 0x14, 0x08, 0x0d, 0xe6, 0xe9, 0x32, 0x0a, 0x0c, 0x11, 0xf1, 0xe1,
  0x26, 0x0a, 0xfd, 0x12, 0x24, 0xfb, 0xef, 0xfe, 0xf4, 0xfa, 0x0e, 0x05,
  0x06, 0x02, 0xfc, 0x1c, 0x09, 0x0a, 0x09, 0x03, 0x12, 0x03, 0xf9, 0xf1,
  0x23, 0x10, 0x0c, 0x19, 0xed, 0xe8, 0x21, 0x0f, 0x14, 0x30, 0x1b, 0x04,
  0x0b, 0xef, 0xe9, 0x00, 0x01, 0x0d, 0x18, 0x0a, 0xf4, 0x15, 0xf8, 0x05,
  0xf8, 0x06, 0xf5, 0xfc, 0x08, 0x0f, 0x19, 0x18, 0xf5, 0x24, 0xea, 0xd5,
  0x20, 0x15, 0xff, 0x30, 0x24, 0x12, 0xfe, 0xfb, 0xf7, 0x00, 0xfd, 0x07,
  0x0e, 0x0b, 0x04, 0xfe, 0x08, 0x06, 0x01, 0xf8, 0x04, 0xf7, 0x11, 0x1c,
  0x06, 0x12, 0xdc, 0x17, 0xdb, 0xb5, 0x09, 0x03, 0x0e, 0x35, 0x29, 0x1a,
  0xf0, 0x0c, 0x0e, 0xf6, 0x15, 0x09, 0xf7, 0x19, 0x09, 0x16, 0x01, 0x0b,
  0x04, 0x15, 0x0f, 0xfe, 0x23, 0x10, 0xf9, 0xfd, 0xda, 0x17, 0xd0, 0xc2,
  0x09, 0xf9, 0x12, 0x2d, 0x16, 0x20, 0x10, 0x05, 0x0f, 0x13, 0x10, 0x0c,
  0x0c, 0x0b, 0x09, 0x0d, 0x10, 0x0c, 0x0e, 0xf7, 0x14, 0x0c, 0x15, 0xf2,
  0xf0, 0xe8, 0xae, 0x06, 0xca, 0xbd, 0xfb, 0xdb, 0x10, 0x1b, 0x21, 0x11,
  0xf9, 0x06, 0x0b, 0x2a, 0x0d, 0x12, 0x00, 0x0d, 0x03, 0xfe, 0x17, 0x0e,
  0x07, 0x04, 0x0d, 0x10, 0x08, 0xf4, 0x06, 0xff, 0xdd, 0xf8, 0xd9, 0xbd,
  0xf6, 0xd9, 0x07, 0x11, 0x0d, 0xff, 0x14, 0xf5, 0x01, 0x0e, 0x12, 0x11,
  0x06, 0x00, 0x03, 0x20, 0x13, 0x10, 0x0d, 0x0d, 0x00, 0x02, 0x1a, 0xf3,
  0x23, 0x04, 0xda, 0xf5, 0xee, 0xfa, 0x00, 0xd5, 0xf7, 0xf0, 0x18, 0x0a,
  0x27, 0xf8, 0xfb, 0x1a, 0x00, 0x0d, 0x1a, 0xf9, 0xfb, 0x1e, 0x0f, 0x0c,
  0x14, 0x10, 0x10, 0x0f, 0x05, 0xf9, 0x1b, 0x10, 0xf2, 0xfb, 0x0a, 0x00,
  0x0d, 0xf0, 0x11, 0xf9, 0x09, 0x09, 0x1c, 0x09, 0xfa, 0x03, 0x13, 0x19,
  0x11, 0xf7, 0x08, 0x0a, 0xfd, 0x0a, 0x06, 0x05, 0x11, 0xfc, 0x05, 0xfe,
  0x34, 0x19, 0xef, 0x02, 0x02, 0x08, 0x1f, 0x09, 0x0e, 0xff, 0xf9, 0x17,
  0x1b, 0x13, 0x09, 0x1d, 0x17, 0x0c, 0x19, 0x05, 0x00, 0x12, 0x0f, 0x07,
  0x02, 0xfd, 0x08, 0x01, 0xf6, 0xf2, 0x28, 0x1e, 0xf8, 0x0c, 0x03, 0xf0,
  0x19, 0x0c, 0x1d, 0x12, 0x0b, 0x0c, 0xfa, 0x24, 0x09, 0x11, 0x08, 0x0c,
  0xf8, 0x06, 0x08, 0xfd, 0x01, 0x01, 0xfd, 0x08, 0x04, 0x15, 0xf9, 0xf9,
  0x34, 0x09, 0x10, 0x16, 0xeb, 0xe8, 0x1e, 0x11, 0x11, 0xfe, 0x0e, 0x12,
  0x0f, 0x25, 0x07, 0x21, 0x0c, 0x09, 0x19, 0x01, 0x08, 0x0f, 0x06, 0x08,
  0x0f, 0xfa, 0x11, 0xfc, 0x1e, 0xff, 0xfb, 0xdc, 0xf6, 0xe5, 0xf0, 0xf1,
  0xfb, 0x00, 0xf9, 0xfb, 0x04, 0x00, 0x04, 0x03, 0xf7, 0xfe, 0x02, 0x05,
  0x01, 0x0b, 0x00, 0x0c, 0xff, 0xfa, 0x0b, 0x00, 0xf3, 0x01, 0x14, 0x0b,
  0x19, 0xf4, 0x06, 0xda, 0xec, 0xf6, 0xf6, 0xea, 0xf5, 0xfd, 0xf7, 0xfd,
  0xfc, 0xf0, 0x02, 0x01, 0x03, 0xfe, 0x01, 0xef, 0x00, 0xf1, 0xf4, 0xfe,
  0x00, 0x03, 0x0a, 0xfe, 0x16, 0x11, 0xfe, 0x12, 0x04, 0xfe, 0xfb, 0xe6,
  0xd8, 0xf4, 0xf3, 0xff, 0xea, 0xfa, 0xfe, 0xfc, 0xfb, 0xf7, 0xf6, 0xfe,
  0xfd, 0xf7, 0x01, 0xf5, 0xf9, 0xf8, 0xfd, 0x01, 0xf9, 0xfa, 0x23, 0x1a,
  0xe8, 0x10, 0x08, 0x0f, 0x0e, 0xe9, 0xb4, 0xf2, 0xf9, 0xdd, 0xf9, 0xfb,
  0xfe, 0xf6, 0xf6, 0xfc, 0xfa, 0x04, 0xff, 0x08, 0xfd, 0xf1, 0xfd, 0xfe,
  0xf3, 0xfc, 0xfb, 0x00, 0x2f, 0x0a, 0xc9, 0x0d, 0x0c, 0x13, 0x14, 0xf0,
  0xbf, 0xf4, 0xfd, 0xe6, 0xf9, 0xf6, 0x0f, 0xfe, 0x04, 0xee, 0x02, 0x02,
  0x02, 0xfd, 0x09, 0xfd, 0x0c, 0xff, 0xf4, 0x04, 0xf9, 0x03, 0x12, 0x0d,
  0xbb, 0x0f, 0x12, 0x25, 0x0c, 0x22, 0xeb, 0xf7, 0x05, 0xec, 0xf6, 0xf4,
  0x17, 0x0b, 0x0f, 0xef, 0xf3, 0x0b, 0xfe, 0x0d, 0x08, 0x01, 0xf8, 0x09,
  0xff, 0x01, 0xfe, 0xff, 0xd8, 0x02, 0xd0, 0x05, 0x15, 0x1d, 0x11, 0x1a,
  0xf6, 0xf8, 0x20, 0x07, 0xdc, 0xf6, 0xf9, 0x0e, 0x08, 0x04, 0x04, 0x11,
  0x0d, 0x0a, 0x0c, 0x04, 0x04, 0x02, 0x1d, 0x05, 0xfb, 0x19, 0xd4, 0xfb,
  0x0e, 0xe1, 0x14, 0xfb, 0xfd, 0x26, 0x1a, 0xd3, 0x18, 0xfb, 0xd4, 0xea,
  0xd4, 0xf8, 0x05, 0xf2, 0x06, 0x05, 0x03, 0x0f, 0xfc, 0x08, 0x08, 0xff,
  0x01, 0xf8, 0x04, 0x08, 0xb6, 0xe9, 0x36, 0xdc, 0x12, 0xf9, 0xe4, 0x26,
  0x31, 0xce, 0xf5, 0xe3, 0xe1, 0xe9, 0xe1, 0xf9, 0x06, 0xf4, 0x09, 0x08,
  0x00, 0x07, 0x08, 0x00, 0x05, 0xfa, 0x01, 0x04, 0x08, 0x13, 0xc3, 0xd6,
  0x41, 0x09, 0xd5, 0xef, 0xd3, 0xd8, 0x2c, 0xed, 0xe2, 0x02, 0xeb, 0xf1,
  0x03, 0xfb, 0x0a, 0x0d, 0x04, 0xfb, 0xf7, 0xf2, 0x06, 0x08, 0x01, 0xfa,
  0x0a, 0x05, 0x04, 0xfc, 0xd1, 0xeb, 0x2f, 0x23, 0xce, 0xf6, 0xf1, 0xa6,
  0x32, 0x1a, 0xde, 0x1f, 0x13, 0xf2, 0x02, 0x03, 0xee, 0xfa, 0x09, 0xfe,
  0xee, 0xfd, 0x03, 0x01, 0xfb, 0x04, 0xfc, 0xfd, 0xfe, 0x0a, 0xce, 0xfe,
  0x1b, 0x26, 0xdf, 0xf8, 0xfd, 0xb4, 0x25, 0x0d, 0xed, 0x11, 0x2a, 0xff,
  0xf5, 0x0a, 0x02, 0xff, 0x14, 0x00, 0xfb, 0x05, 0x07, 0xfb, 0xfa, 0xfe,
  0xee, 0xf5, 0xfd, 0xf4, 0xf5, 0x17, 0x05, 0x26, 0xf2, 0xff, 0xfe, 0xc3,
  0x16, 0x22, 0xf3, 0xfc, 0x13, 0xfd, 0xe3, 0x01, 0x04, 0xf7, 0xfa, 0xfa,
  0xf6, 0x02, 0x09, 0xfe, 0xfb, 0xf8, 0xf9, 0x05, 0xfc, 0xf7, 0x0c, 0x0c,
  0x0d, 0x09, 0xf4, 0xe9, 0xdf, 0xe7, 0x13, 0x29, 0x10, 0x0c, 0x0c, 0x01,
  0xd7, 0xf4, 0xf6, 0xed, 0x01, 0xff, 0xee, 0x01, 0x07, 0xf7, 0x01, 0xfd,
  0xf7, 0x01, 0xfb, 0xfc, 0x2b, 0x14, 0xe6, 0x08, 0xf4, 0xff, 0xfc, 0xce,
  0xe1, 0x11, 0x0c, 0xf5, 0x13, 0x04, 0xfc, 0x01, 0xfc, 0xee, 0x09, 0xff,
  0x01, 0x05, 0x02, 0xef, 0x04, 0xfe, 0xfe, 0xff, 0xf6, 0xfe, 0x2a, 0x16,
  0xc9, 0xf8, 0x02, 0x16, 0x02, 0xda, 0xda, 0x05, 0xee, 0xe7, 0x00, 0x1b,
  0x03, 0x12, 0xf8, 0x03, 0xfe, 0x01, 0xff, 0x0c, 0xff, 0x0c, 0xff, 0xfd,
  0x21, 0xfe, 0x08, 0xfe, 0x32, 0x0b, 0xc4, 0x05, 0x03, 0x06, 0x05, 0x01,
  0xcc, 0x05, 0x00, 0xf6, 0xfd, 0x03, 0x06, 0xff, 0x0a, 0x00, 0x01, 0x06,
  0x06, 0x0d, 0xfa, 0xf0, 0x05, 0xf5, 0x0a, 0x17, 0xf1, 0x0b, 0x06, 0x00,
  0xc5, 0x13, 0x0d, 0x12, 0x1c, 0x15, 0xdd, 0x01, 0x16, 0xfb, 0xe5, 0x0a,
  0xf1, 0xef, 0x03, 0xe1, 0x04, 0x05, 0xf8, 0x0e, 0x00, 0xf0, 0xfa, 0xff,
  0x03, 0xf6, 0xf5, 0xff, 0xe7, 0xfe, 0xe4, 0xf6, 0x19, 0x19, 0x06, 0x34,
  0xe9, 0xe8, 0x0f, 0xf5, 0xe6, 0xff, 0xfe, 0x0f, 0xf7, 0x07, 0x03, 0x23,
  0x16, 0x03, 0x00, 0xfe, 0x03, 0x07, 0xfa, 0x03, 0x06, 0x05, 0xf5, 0xfc,
  0xf8, 0xd2, 0x0c, 0x03, 0xe0, 0x2f, 0x19, 0xe7, 0x14, 0xe7, 0x0d, 0x01,
  0xf8, 0x09, 0xfa, 0xf5, 0x01, 0x26, 0x17, 0x1f, 0xff, 0xf6, 0x01, 0x05,
  0x01, 0x06, 0x04, 0x00, 0xcc, 0xd5, 0x13, 0xe6, 0xe3, 0x10, 0xcf, 0x06,
  0xfb, 0xd0, 0xf9, 0xf4, 0xf9, 0x16, 0xfc, 0x09, 0x05, 0x02, 0x01, 0x05,
  0x07, 0xfe, 0xfe, 0x00, 0x0b, 0xfc, 0x0a, 0x03, 0xf8, 0x04, 0xf6, 0xd8,
  0x13, 0x2b, 0xf6, 0xf7, 0xef, 0x0a, 0x15, 0x07, 0x04, 0x0c, 0x0e, 0x1b,
  0xfd, 0x00, 0x07, 0xea, 0xfb, 0x04, 0xf7, 0x09, 0xfc, 0x02, 0xfb, 0x05,
  0xfa, 0xfb, 0xfc, 0xfc, 0xe5, 0xea, 0x33, 0x33, 0xf8, 0xe9, 0x03, 0x0c,
  0x14, 0x14, 0x11, 0x0c, 0xfe, 0x0b, 0x14, 0x1e, 0x0d, 0x11, 0x02, 0x02,
  0xfd, 0xf1, 0xfc, 0xf8, 0x07, 0x03, 0xfb, 0x12, 0x0a, 0xff, 0xdd, 0x13,
  0x1c, 0x15, 0xf1, 0x10, 0xe9, 0xfe, 0x10, 0x1d, 0x0d, 0x29, 0x05, 0x06,
  0xfc, 0xfb, 0x03, 0xff, 0xf9, 0x02, 0xfc, 0x06, 0xff, 0xee, 0xf6, 0xfa,
  0xfb, 0x0b, 0x06, 0x03, 0xff, 0x0b, 0x0c, 0x04, 0xf2, 0xe0, 0xf0, 0xfb,
  0xfc, 0xf7, 0x00, 0x09, 0x02, 0x0c, 0x04, 0xfa, 0xfc, 0xfe, 0xf7, 0x01,
  0xfc, 0x00, 0x07, 0xfd, 0xfa, 0x0d, 0xf5, 0xfe, 0x08, 0xff, 0x10, 0x0c,
  0xfe, 0x02, 0xc4, 0xc3, 0xc9, 0xd6, 0xf1, 0xf6, 0xfb, 0x02, 0xf9, 0x07,
  0xff, 0x13, 0x06, 0x0d, 0x13, 0x03, 0x17, 0x11, 0x03, 0x02, 0x13, 0xfe,
  0x16, 0x03, 0x05, 0x0a, 0xff, 0xff, 0x00, 0x1c, 0xc2, 0xc3, 0xe4, 0xcf,
  0x0e, 0xfe, 0xf9, 0xfd, 0x0f, 0x12, 0x16, 0x10, 0x0b, 0x0d, 0x13, 0x05,
  0xff, 0x00, 0x03, 0x14, 0x08, 0x07, 0x10, 0x00, 0x04, 0x06, 0x00, 0x07,
  0x0e, 0x28, 0xd7, 0xeb, 0xf3, 0xce, 0x34, 0x0b, 0x09, 0x1e, 0x1c, 0x0e,
  0x0b, 0x09, 0xfa, 0x14, 0x10, 0x04, 0xfe, 0x0b, 0xfe, 0x25, 0x09, 0x08,
  0x20, 0x0b, 0x0a, 0x0c, 0xf2, 0x04, 0x1a, 0x0f, 0xf7, 0xf0, 0xf0, 0xd2,
  0x33, 0xfc, 0xfe, 0x18, 0x1e, 0x10, 0x06, 0xff, 0xfa, 0x1b, 0x05, 0xf9,
  0x0d, 0xfd, 0xf8, 0x1f, 0x07, 0x11, 0x0f, 0xff, 0x0d, 0x05, 0xfe, 0xff,
  0x0e, 0x10, 0x0e, 0x03, 0xfd, 0xd9, 0x1d, 0x03, 0xfc, 0x23, 0x1c, 0x14,
  0x0c, 0xfe, 0xfb, 0x13, 0xfb, 0xfb, 0xfa, 0x14, 0xfc, 0x09, 0x0e, 0x05,
  0x10, 0xfe, 0x19, 0x13, 0x07, 0x04, 0x15, 0x0f, 0x0e, 0xfd, 0x07, 0xe6,
  0x21, 0x18, 0x12, 0x19, 0x22, 0x1e, 0xf5, 0x0a, 0x0c, 0x07, 0x08, 0xf4,
  0x15, 0xf8, 0x0a, 0x0b, 0xfa, 0xfe, 0xff, 0xf5, 0x0c, 0xf5, 0xfd, 0x18,
  0x06, 0x1f, 0x22, 0xfa, 0x0b, 0xe9, 0x12, 0x0b, 0x15, 0x16, 0x21, 0x1c,
  0x09, 0x1c, 0xf5, 0xff, 0x05, 0xfb, 0x06, 0xf8, 0x0b, 0x02, 0x04, 0xfd,
  0x01, 0x00, 0x0a, 0x09, 0x17, 0x2d, 0xf4, 0x10, 0x1f, 0x05, 0x09, 0xe6,
  0x14, 0x2b, 0x1e, 0x22, 0x0e, 0x2b, 0x06, 0x02, 0xf4, 0xf3, 0x10, 0x04,
  0x0a, 0xfb, 0x03, 0x04, 0xfc, 0x0e, 0x05, 0xf7, 0x0d, 0x00, 0x01, 0x28,
  0xe5, 0xfb, 0x1c, 0x0b, 0x10, 0xd6, 0xfc, 0x27, 0x1e, 0x11, 0xf5, 0x2c,
  0xfd, 0xee, 0x07, 0x04, 0x0b, 0x0e, 0x11, 0x01, 0xfd, 0x11, 0xfc, 0x03,
  0x10, 0xfd, 0x02, 0x03, 0x01, 0x13, 0xc2, 0xef, 0xf2, 0x1b, 0xfc, 0xa7,
  0xe3, 0xf5, 0x0a, 0xf8, 0x0a, 0x24, 0x06, 0x0c, 0x0a, 0x03, 0x01, 0x05,
  0xfe, 0xf4, 0xf2, 0xf8, 0xed, 0xfb, 0xfa, 0xfe, 0xfa, 0xfc, 0xf7, 0xf8,
  0xa7, 0xbf, 0xd6, 0x00, 0xfa, 0xa3, 0xec, 0xf6, 0x05, 0xee, 0x0a, 0x12,
  0xec, 0xfc, 0x02, 0x05, 0xf8, 0x0c, 0x01, 0x02, 0xfb, 0x04, 0x04, 0x03,
  0x07, 0xfc, 0x09, 0x01, 0xdb, 0xf8, 0xad, 0xb9, 0xe2, 0xd9, 0xcd, 0xc1,
  0xec, 0xdc, 0x03, 0xf6, 0xf5, 0x14, 0x10, 0x07, 0xfd, 0x10, 0x00, 0x0b,
  0xf3, 0x0a, 0xf5, 0x13, 0x0d, 0x0f, 0x05, 0x13, 0x11, 0x18, 0x0f, 0xea,
  0xa7, 0xb5, 0xd0, 0xeb, 0xf9, 0xd6, 0xea, 0xe1, 0x01, 0xe2, 0x02, 0x04,
  0x05, 0x11, 0x08, 0x1b, 0x06, 0x05, 0x0a, 0x06, 0xfc, 0x0d, 0x05, 0x04,
  0x12, 0x0b, 0x01, 0x04, 0x02, 0xe0, 0xc5, 0xda, 0xd7, 0x05, 0xee, 0xfb,
  0xfe, 0xfa, 0x00, 0xfa, 0x13, 0xfb, 0x0a, 0x02, 0x02, 0x16, 0xf4, 0x00,
  0xfa, 0x17, 0x09, 0x09, 0x0b, 0x02, 0x0a, 0x00, 0x0d, 0xfd, 0xf4, 0xe8,
  0xc8, 0xf7, 0xe7, 0x13, 0xf2, 0xf6, 0x26, 0xfa, 0xfc, 0xfd, 0xcd, 0xfb,
  0x08, 0xf4, 0x06, 0x14, 0x06, 0xff, 0x11, 0x06, 0x00, 0x22, 0x03, 0x0d,
  0x13, 0x07, 0x0f, 0x0e, 0x09, 0xf7, 0x17, 0xfe, 0xf9, 0x27, 0xe9, 0xe4,
  0x34, 0xf6, 0xf8, 0x00, 0x03, 0xf6, 0xf9, 0xd6, 0xfb, 0x1c, 0xfc, 0xfb,
  0x03, 0x08, 0x01, 0x17, 0x08, 0x0d, 0x18, 0xfe, 0x0c, 0x09, 0xeb, 0xf5,
  0x06, 0x0c, 0xda, 0x21, 0xf5, 0xd4, 0x27, 0x1b, 0x00, 0x1a, 0x05, 0x02,
  0xf3, 0xe3, 0xfd, 0x0e, 0xec, 0xfb, 0xfd, 0x05, 0x03, 0x13, 0xfc, 0x04,
  0x12, 0x08, 0x0e, 0x18, 0xec, 0xea, 0x0d, 0x05, 0xd7, 0x13, 0xf7, 0xe0,
  0x16, 0x27, 0x07, 0x2a, 0x02, 0x09, 0xfc, 0xf8, 0xf8, 0x03, 0xf7, 0xf7,
  0x02, 0xf4, 0x02, 0xee, 0xf3, 0xfb, 0x15, 0xf8, 0xf5, 0x0b, 0xf7, 0xfb,
  0x32, 0x1b, 0xf9, 0x28, 0xf2, 0xd8, 0x25, 0x1d, 0x14, 0x02, 0x1c, 0x1e,
  0xf9, 0xfa, 0x02, 0x13, 0xfe, 0xf1, 0xf9, 0xf0, 0xfe, 0x09, 0x00, 0x04,
  0x08, 0xf0, 0x09, 0x06, 0xfb, 0x01, 0x04, 0x2e, 0x05, 0x06, 0xf8, 0xd8,
  0x00, 0x1a, 0x17, 0x02, 0x1d, 0x24, 0x0c, 0xfa, 0x0a, 0x03, 0x0e, 0xf6,
  0x00, 0xf4, 0x04, 0x02, 0xff, 0x04, 0xf6, 0xf3, 0x03, 0x00, 0x04, 0x18,
  0x08, 0x04, 0x0c, 0xec, 0xfd, 0xe8, 0xf3, 0xfa, 0x1b, 0x10, 0x09, 0x1d,
  0x05, 0x0d, 0x01, 0xf1, 0xfb, 0x03, 0xf7, 0xf4, 0xfb, 0x03, 0xfc, 0x01,
  0xf3, 0xf6, 0xfd, 0xfe, 0x0c, 0xf6, 0xeb, 0xf1, 0x09, 0xd6, 0x16, 0xec,
  0xf0, 0x03, 0x09, 0xff, 0x03, 0x11, 0xf6, 0x10, 0xff, 0x03, 0x03, 0xfd,
  0x02, 0x02, 0x04, 0x05, 0xf5, 0xff, 0x02, 0xec, 0xfd, 0xff, 0xf0, 0xf6,
  0xf3, 0xd8, 0x0d, 0xf8, 0xe8, 0xf6, 0xf7, 0x02, 0x0b, 0xe8, 0x02, 0x08,
  0x05, 0x10, 0x04, 0x01, 0x07, 0x01, 0x0d, 0x04, 0x01, 0xfa, 0xf9, 0x00,
  0xf2, 0xfa, 0x06, 0xec, 0xf2, 0xf5, 0xee, 0x02, 0xf7, 0x00, 0x00, 0xfa,
  0x06, 0x0b, 0xfc, 0x13, 0x07, 0x00, 0x18, 0x09, 0xfe, 0x08, 0x04, 0xfb,
  0x0b, 0x02, 0xe9, 0x08, 0x08, 0x0b, 0x0c, 0xff, 0x02, 0x06, 0x00, 0xf4,
  0x13, 0xf2, 0xf0, 0xf7, 0xee, 0x02, 0x1d, 0x02, 0x00, 0x2d, 0x06, 0xfb,
  0x2f, 0x08, 0x01, 0x0d, 0xfd, 0x03, 0xf9, 0x0a, 0x05, 0x07, 0x09, 0xff,
  0x11, 0x04, 0x06, 0x11, 0x01, 0xee, 0x12, 0xfe, 0xe1, 0xf9, 0xfd, 0x05,
  0x1c, 0xfd, 0x04, 0xfe, 0x0b, 0xf6, 0x06, 0x0a, 0x02, 0x0c, 0x0e, 0xfe,
  0xf2, 0x07, 0x02, 0x05, 0x05, 0x03, 0x12, 0x0c, 0x01, 0x06, 0xf2, 0xf7,
  0xf8, 0xf8, 0xfb, 0x0b, 0xfd, 0xfb, 0x19, 0x04, 0xfd, 0x0a, 0x07, 0xfc,
  0x09, 0x0a, 0x06, 0x0b, 0x0a, 0x00, 0x0b, 0x05, 0x03, 0x01, 0x0a, 0xfe,
  0x04, 0x05, 0xfa, 0x02, 0xf9, 0xfc, 0x03, 0xf4, 0xec, 0xf9, 0xed, 0xf0,
  0x09, 0x0e, 0x00, 0x06, 0x02, 0x08, 0x09, 0xf9, 0x00, 0x08, 0xfe, 0xfc,
  0x0b, 0x03, 0x08, 0x0b, 0x06, 0xfb, 0x05, 0x05, 0x06, 0x05, 0x04, 0xfa,
  0xf8, 0xf9, 0xf3, 0xf2, 0xf7, 0xf8, 0xf9, 0xfc, 0x01, 0x09, 0x00, 0x06,
  0xf5, 0x0c, 0x04, 0xf5, 0xf1, 0xff, 0xf9, 0xfc, 0xfe, 0x0d, 0x00, 0x02,
  0x07, 0x05, 0x07, 0x01, 0x00, 0xed, 0xf4, 0xf9, 0xf4, 0xea, 0xfc, 0x00,
  0x02, 0x06, 0x02, 0xfa, 0xfc, 0x03, 0xf7, 0x06, 0x05, 0x09, 0x05, 0x01,
  0xf2, 0xf9, 0x01, 0x04, 0xfb, 0x00, 0xff, 0x07, 0x02, 0x01, 0x0b, 0xf9,
  0xfc, 0xed, 0xfd, 0xd3, 0xf5, 0x04, 0x03, 0xf1, 0xfd, 0xf9, 0xf2, 0xff,
  0xf1, 0xfe, 0x00, 0xfe, 0xfc, 0xfd, 0x07, 0x05, 0x00, 0x09, 0xfe, 0xff,
  0x02, 0x0a, 0xff, 0x0a, 0x14, 0x01, 0x06, 0xff, 0x0b, 0xd0, 0x08, 0x02,
  0xe6, 0xf9, 0x05, 0xf7, 0x03, 0xfe, 0xee, 0xf8, 0xff, 0x17, 0x12, 0x09,
  0x01, 0x07, 0x07, 0x00, 0xf2, 0x04, 0x07, 0x07, 0x11, 0x0f, 0x16, 0x0b,
  0xf1, 0x0e, 0x17, 0xfc, 0xfb, 0xf8, 0xd0, 0xff, 0xf6, 0x0b, 0x09, 0xf6,
  0xe9, 0xf5, 0xfc, 0x00, 0xe6, 0x01, 0xfe, 0xfc, 0x02, 0x04, 0xf2, 0x00,
  0xff, 0x08, 0x02, 0xf7, 0x1b, 0x15, 0xde, 0x10, 0x0e, 0x0c, 0x10, 0xe2,
  0xc6, 0x03, 0xfc, 0xf1, 0x0a, 0x19, 0x0e, 0x05, 0x00, 0x0a, 0x01, 0xf9,
  0xf2, 0xf7, 0x03, 0x03, 0x01, 0x04, 0x0a, 0xfd, 0x00, 0x00, 0x2c, 0x15,
  0xde, 0x0e, 0x0f, 0x14, 0x12, 0x04, 0xc1, 0xf4, 0x0d, 0xf8, 0x00, 0x0b,
  0x0b, 0x01, 0xf8, 0xef, 0x09, 0xff, 0x0b, 0x06, 0x05, 0xf9, 0xfe, 0xfd,
  0x07, 0x1f, 0x04, 0x0c, 0x0b, 0x12, 0xbd, 0x0e, 0x18, 0x1c, 0x06, 0x21,
  0xd5, 0xed, 0x0e, 0xfe, 0xe3, 0x03, 0xf9, 0x05, 0x0a, 0xf8, 0x01, 0x08,
  0xfa, 0xfe, 0x06, 0xed, 0x0b, 0x02, 0xfa, 0xfc, 0x00, 0x03, 0xde, 0x0b,
  0xe7, 0xfd, 0x20, 0x1a, 0x0d, 0x2d, 0xf8, 0xeb, 0x1c, 0xf6, 0xfa, 0x0a,
  0xe9, 0x0a, 0x06, 0xe4, 0x07, 0x0e, 0x1e, 0xfe, 0x02, 0xef, 0x08, 0xfd,
  0x05, 0x08, 0x0e, 0x16, 0xc0, 0xf6, 0x15, 0xce, 0x0a, 0xf6, 0x05, 0x2d,
  0x05, 0xe0, 0x1d, 0xfb, 0xe2, 0x09, 0xee, 0xfa, 0x05, 0xf2, 0x07, 0x03,
  0xfd, 0xfa, 0xff, 0xeb, 0xf7, 0xf7, 0x08, 0x0f, 0x05, 0x0f, 0xbc, 0xf1,
  0x3d, 0xcf, 0xfa, 0x08, 0xd1, 0x19, 0x06, 0xcd, 0xf4, 0xd7, 0xe5, 0xe9,
  0xf3, 0xea, 0xfd, 0xef, 0x04, 0xfb, 0xff, 0xef, 0x04, 0xfb, 0x06, 0xfb,
  0x06, 0xf9, 0x01, 0x02, 0xaa, 0xdb, 0x44, 0x1e, 0xda, 0x03, 0xda, 0xd3,
  0x21, 0xf5, 0xdf, 0x04, 0xf7, 0x08, 0xf4, 0x09, 0xfc, 0x08, 0x01, 0xfc,
  0xf4, 0x02, 0x00, 0xfd, 0x09, 0xfb, 0x01, 0x0f, 0xfc, 0x0f, 0xb4, 0xf4,
  0x35, 0x2c, 0xdb, 0x09, 0x03, 0xa1, 0x2c, 0x1f, 0xf0, 0x31, 0x19, 0x00,
  0x04, 0x1b, 0xfd, 0xf7, 0x14, 0x09, 0xfc, 0xff, 0x05, 0xff, 0x01, 0xfa,
  0x0c, 0x0e, 0x01, 0x11, 0xd1, 0x13, 0x19, 0x26, 0xf0, 0x0f, 0x00, 0xca,
  0x19, 0x33, 0x0a, 0x1e, 0x38, 0x09, 0x0a, 0x26, 0x04, 0x04, 0xfd, 0x06,
  0x02, 0x05, 0x08, 0xeb, 0xf9, 0xfd, 0x07, 0x04, 0x05, 0x01, 0x0f, 0x1d,
  0x08, 0x1d, 0xf3, 0x1b, 0xf0, 0xe0, 0x04, 0x34, 0xf5, 0x12, 0x15, 0xf4,
  0x01, 0x08, 0xf6, 0x04, 0xfe, 0xff, 0xf7, 0x0f, 0x07, 0x02, 0x08, 0x0b,
  0x04, 0x08, 0xfd, 0x06, 0xfe, 0x1a, 0xf4, 0x11, 0xef, 0xff, 0xe2, 0xe1,
  0x03, 0x2d, 0x04, 0x06, 0x1b, 0xfc, 0x06, 0x09, 0x02, 0xe7, 0x02, 0xf7,
  0xfc, 0xfd, 0x07, 0x01, 0x06, 0x07, 0x0e, 0x0a, 0x03, 0x07, 0x1c, 0x0e,
  0xda, 0xe5, 0x02, 0xf4, 0xfa, 0xe8, 0xfb, 0x0a, 0x0b, 0xfb, 0x0d, 0x09,
  0xf3, 0x08, 0xfa, 0xfc, 0x04, 0xfc, 0x03, 0x00, 0xff, 0x0a, 0xf7, 0x08,
  0x01, 0x03, 0x04, 0x11, 0x02, 0x0f, 0xec, 0xe7, 0xf2, 0xf5, 0xf8, 0xee,
  0xfd, 0x14, 0x0c, 0x0c, 0xff, 0x09, 0xf7, 0x11, 0x02, 0xf8, 0xfa, 0xff,
  0x00, 0xf4, 0x00, 0x01, 0x05, 0x05, 0xfc, 0x06, 0x06, 0xf9, 0xd6, 0xf9,
  0xf9, 0xe7, 0xf6, 0xf2, 0xfd, 0xfa, 0x07, 0x10, 0xf9, 0xfd, 0x08, 0x09,
  0x07, 0x04, 0x01, 0x1a, 0x11, 0x03, 0xfe, 0x0a, 0x0a, 0x02, 0xfe, 0x01,
  0x0a, 0x04, 0xfa, 0x09, 0x2f, 0x18, 0xf7, 0x0b, 0x16, 0x16, 0x09, 0xf2,
  0xf5, 0x06, 0x09, 0x05, 0xfa, 0xf9, 0x04, 0x0d, 0x08, 0x0c, 0x04, 0x01,
  0x02, 0x06, 0xfc, 0x09, 0x03, 0x03, 0x09, 0x05, 0x0a, 0x0a, 0x26, 0x1d,
  0xcb, 0x15, 0x17, 0x30, 0x16, 0x1b, 0xdc, 0xf6, 0x21, 0xe8, 0xfb, 0xfa,
  0xfb, 0xfc, 0x00, 0xe1, 0x15, 0x10, 0x01, 0xf8, 0x0c, 0xf6, 0x02, 0x09,
  0x02, 0x04, 0x08, 0x07, 0xe1, 0x0b, 0xcc, 0x0d, 0x09, 0x21, 0x18, 0x34,
  0xe7, 0xe0, 0x0a, 0xeb, 0xf5, 0x09, 0xfb, 0x02, 0x02, 0xfa, 0x0f, 0x0b,
  0x05, 0xf9, 0x05, 0xf9, 0xff, 0x01, 0xfe, 0xfa, 0xfc, 0x03, 0xd2, 0xec,
  0x0d, 0xf2, 0x0c, 0xf9, 0x16, 0x2b, 0x06, 0xff, 0x13, 0xf5, 0xe5, 0xf0,
  0xf6, 0x12, 0x0a, 0xfe, 0x04, 0x02, 0x02, 0xf9, 0x03, 0xf2, 0xf9, 0x07,
  0xf9, 0xff, 0x03, 0xfa, 0xd4, 0x06, 0x3a, 0xe5, 0xfa, 0xf1, 0xe8, 0x31,
  0x2b, 0xf6, 0xfd, 0xf7, 0x03, 0xf1, 0xfc, 0x0a, 0x00, 0x0d, 0xfb, 0x02,
  0xf6, 0xfb, 0x09, 0xf4, 0xfc, 0x03, 0xfd, 0x00, 0xfc, 0x09, 0xb9, 0xda,
  0x33, 0xf8, 0xe3, 0xfe, 0xc7, 0x1f, 0x20, 0xea, 0xf0, 0xf7, 0xff, 0xfd,
  0xff, 0xfb, 0x0b, 0x04, 0xf8, 0x06, 0xf9, 0xf1, 0x05, 0x05, 0x01, 0x09,
  0x0c, 0xff, 0x00, 0xff, 0xcd, 0xe2, 0x24, 0x18, 0xd7, 0x06, 0xd4, 0xb2,
  0x19, 0xfd, 0xf8, 0x09, 0x18, 0x01, 0xf8, 0xf9, 0x03, 0xff, 0x0d, 0xfd,
  0xf1, 0xf8, 0x07, 0x05, 0x09, 0x0d, 0xfe, 0x01, 0x08, 0x04, 0xd8, 0xfd,
  0x0a, 0x0f, 0xdc, 0xea, 0x05, 0xd0, 0x15, 0x23, 0xf7, 0x1a, 0x29, 0x01,
  0xfc, 0x03, 0xff, 0x12, 0x14, 0x08, 0xf6, 0x06, 0x03, 0x05, 0x05, 0x12,
  0xfa, 0x03, 0x0c, 0x07, 0xf9, 0x0c, 0xf4, 0x19, 0xfd, 0xef, 0xf8, 0xc9,
  0x3c, 0x26, 0xf8, 0x13, 0x14, 0x02, 0x12, 0xf8, 0xfe, 0xfc, 0x0c, 0x0a,
  0x00, 0x0d, 0x03, 0xff, 0x02, 0x09, 0x0d, 0x03, 0xfd, 0x08, 0x00, 0xff,
  0x09, 0x1a, 0xed, 0xec, 0xf6, 0xdc, 0x29, 0x27, 0xf6, 0x0f, 0x14, 0xff,
  0xe6, 0xf6, 0xfb, 0x03, 0x04, 0xfc, 0xf8, 0x00, 0x08, 0x03, 0xfe, 0x0f,
  0x08, 0x09, 0x03, 0xec, 0x1b, 0x12, 0x02, 0x09, 0xf3, 0xee, 0xdf, 0xdb,
  0x0b, 0x1c, 0xf3, 0x05, 0x12, 0x01, 0xeb, 0x07, 0xff, 0xfe, 0x01, 0xfc,
  0xec, 0x01, 0x05, 0xfc, 0x02, 0x04, 0x04, 0x01, 0x06, 0x01, 0x22, 0x0f,
  0xec, 0x11, 0xff, 0x07, 0xfe, 0xeb, 0xd6, 0xe8, 0xe9, 0xe4, 0xf3, 0xe9,
  0xf0, 0xe8, 0x06, 0xea, 0xf9, 0x02, 0xf6, 0xf0, 0x03, 0xf6, 0xf8, 0x07,
  0x01, 0x06, 0x07, 0x07, 0x25, 0x0e, 0xd2, 0x0c, 0xfd, 0x13, 0x09, 0xf5,
  0xbf, 0x01, 0xf5, 0xe6, 0xfe, 0xf9, 0xf5, 0x00, 0x01, 0xf2, 0x08, 0xfe,
  0xe1, 0xf3, 0x04, 0xfe, 0xff, 0x05, 0xf9, 0xfe, 0x08, 0xfb, 0x29, 0x05,
  0xd3, 0x07, 0x0e, 0x15, 0x17, 0x15, 0xd0, 0xf5, 0xfa, 0xfa, 0xf4, 0x09,
  0x06, 0xf7, 0xf3, 0xe5, 0xfc, 0x0d, 0x0a, 0xf0, 0x08, 0xf8, 0x0c, 0xfc,
  0x03, 0x0b, 0x0e, 0x10, 0xee, 0xfc, 0xbe, 0x07, 0x1c, 0x1a, 0x0e, 0x34,
  0xd9, 0xf8, 0x0e, 0xe9, 0xe4, 0x15, 0xf9, 0xf8, 0xff, 0xee, 0x08, 0x07,
  0x07, 0x0b, 0x01, 0x0b, 0x02, 0x08, 0x09, 0x04, 0x01, 0x05, 0xd5, 0x02,
  0xf7, 0xea, 0x12, 0xfc, 0x12, 0x2a, 0x0c, 0xf8, 0x17, 0xe9, 0xcf, 0xe0,
  0xe6, 0xe7, 0xfa, 0x0b, 0xf8, 0x0e, 0x09, 0x07, 0x0a, 0xf2, 0xfe, 0xfd,
  0x00, 0x07, 0xf8, 0x06, 0xcd, 0xf7, 0x33, 0xd4, 0x12, 0xec, 0xdd, 0x38,
  0xff, 0xd6, 0xf9, 0xe6, 0xdc, 0xec, 0xd3, 0xee, 0xfa, 0xed, 0xf3, 0x0f,
  0x08, 0xfc, 0x05, 0xfa, 0xf5, 0xfa, 0x09, 0xff, 0xf7, 0x06, 0xcd, 0xe1,
  0x2f, 0xee, 0xe5, 0x18, 0xd4, 0x05, 0x1a, 0xde, 0xe7, 0xed, 0xef, 0xff,
  0xe0, 0x06, 0x0b, 0xf7, 0xf9, 0x01, 0x0b, 0xfb, 0x04, 0x12, 0xfa, 0x02,
  0x0d, 0xff, 0x0c, 0x09, 0xe6, 0xd4, 0x1c, 0x25, 0xc1, 0x0f, 0xf8, 0xae,
  0x0c, 0x10, 0xf6, 0x08, 0x18, 0x03, 0x0b, 0x0e, 0x0f, 0x06, 0x06, 0xfd,
  0x07, 0xfc, 0x09, 0x06, 0x01, 0x09, 0x04, 0x0e, 0x11, 0x04, 0xf7, 0x02,
  0x0f, 0x30, 0xf4, 0xfa, 0x05, 0xc6, 0x05, 0x1d, 0xfc, 0x16, 0x19, 0xff,
  0x08, 0x13, 0x07, 0x01, 0xef, 0xfd, 0xf1, 0xfb, 0x01, 0x16, 0x08, 0x12,
  0x14, 0x01, 0x08, 0x04, 0xe8, 0x13, 0x04, 0x20, 0xf2, 0x0d, 0xf3, 0xd9,
  0x1e, 0x31, 0x04, 0x0f, 0x18, 0xff, 0xfe, 0x07, 0x04, 0x02, 0xfc, 0xef,
  0xf0, 0x08, 0x04, 0x04, 0x05, 0x05, 0xfc, 0x0c, 0x08, 0x06, 0xec, 0x16,
  0x03, 0x1a, 0xe6, 0xfe, 0xe5, 0xce, 0x0b, 0x11, 0x01, 0x0b, 0x0d, 0x01,
  0xfa, 0x01, 0x08, 0x04, 0xfe, 0x04, 0xee, 0xfe, 0x03, 0x06, 0x10, 0x09,
  0xff, 0x11, 0x0e, 0x08, 0x02, 0x04, 0xea, 0xe6, 0xea, 0xe2, 0x07, 0xe7,
  0x1b, 0x13, 0x05, 0x03, 0x0b, 0x08, 0x04, 0xfc, 0x09, 0x03, 0x09, 0x0a,
  0x02, 0x03, 0x07, 0xfd, 0x0c, 0x0c, 0x14, 0x02, 0x02, 0x01, 0xf5, 0x00,
  0xfb, 0xe8, 0xed, 0xd8, 0x03, 0xec, 0x07, 0x02, 0x05, 0xfe, 0x08, 0x08,
  0xfd, 0x01, 0x07, 0x16, 0x07, 0x0c, 0x19, 0x13, 0x05, 0x0b, 0xf9, 0x0a,
  0xfe, 0x07, 0x03, 0x04, 0x11, 0x06, 0x0e, 0x0a, 0xfc, 0xee, 0xf6, 0x03,
  0x03, 0x02, 0x0e, 0xfb, 0x00, 0xf4, 0x00, 0xfd, 0x11, 0x0e, 0xf9, 0x03,
  0x0b, 0x02, 0xf9, 0x07, 0x01, 0xf9, 0x08, 0x09, 0xfa, 0x04, 0x09, 0x02,
  0xfa, 0xef, 0xe8, 0xca, 0xde, 0x01, 0x0f, 0x1b, 0x04, 0xf0, 0x07, 0x0b,
  0xf5, 0xfd, 0x02, 0x05, 0x08, 0x04, 0x0d, 0x09, 0x01, 0x0e, 0x16, 0x09,
  0x09, 0x0f, 0x0e, 0x05, 0xf6, 0xf1, 0xf0, 0xf5, 0xbb, 0xf2, 0xf0, 0xe7,
  0xf5, 0x1d, 0x05, 0x01, 0x15, 0x0e, 0x04, 0x04, 0x04, 0x07, 0x06, 0x03,
  0xf8, 0x0e, 0x07, 0x1c, 0x0d, 0x0e, 0x0d, 0x0c, 0x07, 0x0a, 0xef, 0xdc,
  0x10, 0xea, 0xbf, 0x0e, 0xf2, 0xfb, 0x30, 0x29, 0x16, 0x13, 0x22, 0x0c,
  0x1b, 0xff, 0xf9, 0x01, 0x05, 0x00, 0xfc, 0x0b, 0x01, 0x04, 0x0d, 0x0c,
  0x18, 0x08, 0x05, 0x1c, 0xf2, 0x07, 0x42, 0x10, 0xee, 0x27, 0xef, 0xec,
  0x28, 0x1b, 0x15, 0x20, 0x24, 0x0a, 0x0a, 0x01, 0x09, 0x14, 0x0b, 0xfb,
  0xeb, 0x07, 0xf7, 0x10, 0x0a, 0x0c, 0x0d, 0x01, 0x03, 0x01, 0x09, 0x15,
  0x42, 0x0b, 0xfa, 0x17, 0xce, 0xc7, 0x1f, 0x16, 0x00, 0x35, 0x0c, 0x13,
  0xfc, 0x07, 0xf8, 0x13, 0x15, 0xfb, 0xfd, 0xfd, 0xec, 0x19, 0x1a, 0x06,
  0x05, 0x0b, 0x02, 0x07, 0x0f, 0x15, 0x12, 0x12, 0xdc, 0xdf, 0xd1, 0xca,
  0x09, 0xf5, 0xff, 0x0e, 0x0e, 0x06, 0x03, 0x03, 0xfb, 0x10, 0x0a, 0x02,
  0xfa, 0x0a, 0xf2, 0x11, 0x12, 0x0d, 0x16, 0x15, 0x07, 0x10, 0x05, 0xf8,
  0x01, 0x14, 0xce, 0xb6, 0xdb, 0xbd, 0x0f, 0xfa, 0xfc, 0x17, 0x08, 0x0c,
  0x17, 0x01, 0xfd, 0x15, 0x00, 0xfd, 0xf0, 0x06, 0xf7, 0x00, 0x06, 0x02,
  0x09, 0x06, 0x0e, 0x01, 0xf0, 0x00, 0x19, 0x12, 0xd7, 0xdc, 0xe4, 0xce,
  0x2e, 0x00, 0xf0, 0xf6, 0x06, 0x0d, 0x1b, 0xf2, 0xf9, 0x0c, 0xfd, 0xf4,
  0xef, 0xfb, 0xf8, 0x12, 0x0e, 0x06, 0x1c, 0x09, 0x0f, 0x12, 0xe9, 0xef,
  0x29, 0x10, 0xf0, 0x00, 0x08, 0xe4, 0x2a, 0xf2, 0xe7, 0x16, 0xeb, 0x11,
  0x12, 0xdf, 0x02, 0x11, 0x06, 0xf6, 0x00, 0x0e, 0xeb, 0x10, 0x0b, 0x07,
  0x08, 0xf2, 0xff, 0x16, 0xde, 0xf5, 0x43, 0x05, 0x16, 0x0f, 0xf5, 0xf7,
  0x25, 0xfe, 0xe8, 0x0e, 0x01, 0x0d, 0xf9, 0xfe, 0x10, 0x1e, 0xf8, 0xfc,
  0xf4, 0xff, 0xee, 0x04, 0x00, 0x00, 0x00, 0x03, 0xff, 0x01, 0xd5, 0xef,
  0x40, 0x06, 0x20, 0xfe, 0xfa, 0x01, 0x1b, 0x0b, 0xdb, 0x02, 0xf9, 0x10,
  0x04, 0xf3, 0xf8, 0x1c, 0xea, 0xfa, 0xed, 0xf5, 0xfc, 0x07, 0x01, 0x07,
  0xf5, 0xf3, 0x05, 0xff, 0xc8, 0xdf, 0x21, 0x01, 0x27, 0xf5, 0xf5, 0x05,
  0x0f, 0x2b, 0x01, 0xf5, 0x03, 0x18, 0xfe, 0xff, 0xfe, 0x01, 0xfb, 0x01,
  0xf7, 0xee, 0xf9, 0xf9, 0xf9, 0x05, 0x03, 0x07, 0x04, 0x01, 0xc7, 0xeb,
  0x09, 0x0a, 0x1e, 0x06, 0x0b, 0x0c, 0x0d, 0x13, 0xfb, 0xf5, 0x04, 0x0f,
  0x00, 0xfe, 0x16, 0x03, 0x0e, 0xfe, 0xe5, 0x02, 0xfb, 0x07, 0xfb, 0x06,
  0xfb, 0xfd, 0x02, 0x03, 0xec, 0xf9, 0xeb, 0xf3, 0x27, 0xfe, 0x0a, 0x0e,
  0x08, 0x22, 0x0e, 0xcf, 0xf6, 0x17, 0xec, 0x10, 0x23, 0xee, 0xfc, 0x05,
  0x04, 0xfa, 0x0a, 0x04, 0xfc, 0xfe, 0xe0, 0xf5, 0x06, 0xf0, 0x0f, 0x05,
  0xe2, 0xdd, 0x29, 0x05, 0x1a, 0x02, 0xe2, 0x13, 0x16, 0xea, 0x0a, 0x25,
  0xee, 0x11, 0x0f, 0xf0, 0xee, 0xfe, 0xfe, 0x01, 0xfe, 0xee, 0xfb, 0x06,
  0xed, 0xf6, 0x07, 0x08, 0x0f, 0x01, 0xc7, 0xd7, 0x27, 0xe2, 0x14, 0x14,
  0xdd, 0x1a, 0x18, 0xeb, 0x09, 0x23, 0xfb, 0xfe, 0x09, 0xe1, 0xff, 0xfc,
  0x05, 0x00, 0xfe, 0xfa, 0xfc, 0x06, 0xf7, 0xf7, 0x08, 0xfa, 0x0f, 0x00,
  0xd7, 0xcd, 0x2e, 0xe1, 0x17, 0x26, 0xd5, 0x0b, 0x16, 0xe2, 0xe9, 0x06,
  0xe3, 0x07, 0x0c, 0x14, 0xf4, 0xf9, 0xf4, 0xf6, 0x01, 0xf4, 0xfe, 0x05,
  0xf7, 0x05, 0x04, 0xf6, 0x1b, 0xfc, 0xcc, 0xbe, 0x2b, 0xdb, 0x24, 0x16,
  0xde, 0xf6, 0x08, 0xc9, 0xdc, 0xfb, 0xee, 0xfa, 0x08, 0x02, 0x11, 0xeb,
  0xf4, 0xf9, 0x0a, 0xe8, 0x0d, 0x05, 0xe6, 0xf1, 0x00, 0xf7, 0x09, 0x03,
  0xd5, 0xc2, 0x09, 0xea, 0x28, 0x0b, 0xd6, 0xe8, 0x16, 0xdf, 0xe9, 0xf2,
  0xf4, 0xf9, 0x06, 0x1c, 0x17, 0xf7, 0x0b, 0xf6, 0x06, 0x10, 0x03, 0x02,
  0x00, 0x02, 0x0a, 0xfb, 0x1d, 0x00, 0xda, 0xd0, 0xf2, 0xf7, 0x04, 0x02,
  0xf7, 0xe3, 0x09, 0xfa, 0xe2, 0xf2, 0xfc, 0x00, 0x03, 0xf5, 0x02, 0xff,
  0x02, 0x03, 0xfd, 0x03, 0x02, 0x03, 0xfd, 0xf8, 0xf7, 0x0d, 0x1d, 0x07,
  0xda, 0xe8, 0xe2, 0xd5, 0xf6, 0x02, 0xf9, 0xef, 0xfa, 0xe2, 0xe8, 0xe8,
  0x03, 0xfb, 0xfd, 0x0d, 0xe9, 0xfe, 0x03, 0x00, 0x06, 0x06, 0x05, 0xff,
  0x06, 0xfb, 0xfd, 0x01, 0xfa, 0x04, 0xef, 0xf5, 0xf5, 0x0c, 0xed, 0xfb,
  0xf5, 0xf9, 0x00, 0xf2, 0xf5, 0xf4, 0x06, 0xf3, 0xfb, 0x0c, 0xfb, 0x00,
  0xfb, 0x00, 0xfe, 0x09, 0x05, 0xfe, 0xf2, 0xf4, 0x04, 0xf5, 0x0b, 0xf5,
  0x09, 0x00, 0xf6, 0xf7, 0xff, 0x03, 0xf5, 0xee, 0x00, 0xf7, 0x02, 0xf9,
  0x04, 0xf7, 0x02, 0xfa, 0x04, 0x01, 0xf8, 0xf9, 0x02, 0xfe, 0x08, 0x05,
  0x03, 0xf8, 0xfe, 0xfb, 0x13, 0x04, 0x0e, 0x07, 0xf5, 0xf5, 0xf9, 0xef,
  0x01, 0xfb, 0x1e, 0x03, 0x00, 0x10, 0xfd, 0x03, 0x0c, 0x10, 0x06, 0xf1,
  0x12, 0x04, 0xfb, 0x13, 0x0b, 0xfe, 0x0f, 0x10, 0x07, 0x0a, 0x15, 0xf2,
  0xeb, 0xee, 0xf3, 0xea, 0xe9, 0xda, 0xe0, 0xf5, 0xf3, 0xd6, 0x02, 0x08,
  0xd5, 0xfa, 0x03, 0xec, 0x06, 0x09, 0x0c, 0x06, 0x06, 0x08, 0x09, 0x0d,
  0x04, 0xfc, 0x13, 0xfa, 0x1b, 0xfa, 0xfa, 0xe9, 0xf4, 0x00, 0xe6, 0xda,
  0xed, 0xe4, 0xe8, 0xd5, 0x06, 0xfd, 0xe2, 0xff, 0x00, 0xf9, 0x10, 0x08,
  0x0b, 0x0e, 0x08, 0x02, 0x09, 0x10, 0xf3, 0x0b, 0x09, 0xf6, 0x0b, 0xf4,
  0xef, 0xea, 0xd5, 0xee, 0xe1, 0xdd, 0xe6, 0xf1, 0xf8, 0xd4, 0x02, 0xfd,
  0xfa, 0x0e, 0x05, 0x02, 0x0d, 0x07, 0x07, 0x18, 0x07, 0x0d, 0x16, 0x08,
  0xf5, 0x11, 0x0c, 0xf5, 0xf2, 0xeb, 0x04, 0xeb, 0xc1, 0xef, 0xec, 0xf5,
  0x08, 0x10, 0x0c, 0xfc, 0x0e, 0xf0, 0xf5, 0xf9, 0x03, 0xf7, 0x10, 0x06,
  0xfb, 0x0b, 0x02, 0x18, 0x1a, 0x10, 0xff, 0xfc, 0x10, 0xfc, 0xe7, 0xd7,
  0x21, 0x06, 0xdd, 0x14, 0xf2, 0xf9, 0x2c, 0x1d, 0x1c, 0x01, 0x14, 0xfe,
  0xe6, 0xf7, 0xfd, 0x04, 0x08, 0x0c, 0xf4, 0xe9, 0xfe, 0x0c, 0x0b, 0x04,
  0x16, 0x09, 0x13, 0x0f, 0xdf, 0xf8, 0x2e, 0x11, 0xf7, 0x20, 0xee, 0xeb,
  0x35, 0x24, 0xff, 0x22, 0x17, 0x01, 0xfb, 0xfe, 0xfa, 0x0c, 0x1c, 0x0f,
  0xf3, 0xf6, 0xf6, 0x00, 0x02, 0x02, 0x0b, 0x09, 0x09, 0x09, 0xee, 0x03,
  0x31, 0x03, 0xf1, 0x1e, 0xd7, 0xdb, 0x16, 0x19, 0x03, 0x26, 0x0c, 0x07,
  0x02, 0x02, 0x00, 0xf7, 0x15, 0x0e, 0xf6, 0x06, 0xfe, 0x04, 0x10, 0x05,
  0x06, 0x10, 0x08, 0x06, 0xf7, 0xfd, 0x23, 0x16, 0xd2, 0x0e, 0xdd, 0xb5,
  0x21, 0x0e, 0x0e, 0x17, 0x0c, 0xfe, 0x07, 0xec, 0x00, 0xf1, 0x27, 0x05,
  0x00, 0xfd, 0xf3, 0x19, 0x18, 0x11, 0x08, 0x0c, 0x0d, 0xef, 0x06, 0x01,
  0x14, 0x12, 0xb5, 0xff, 0xf0, 0xb5, 0x1a, 0x2c, 0x02, 0x25, 0x09, 0xff,
  0xfd, 0xfc, 0x02, 0x04, 0x23, 0xfe, 0xfa, 0xf9, 0xec, 0x06, 0x21, 0x11,
  0x0d, 0x10, 0x0d, 0x0e, 0x07, 0xfd, 0x0c, 0x17, 0xab, 0x09, 0xec, 0xc4,
  0x19, 0xfd, 0x0a, 0x1e, 0x0e, 0x09, 0x10, 0xee, 0xf6, 0x08, 0x14, 0x05,
  0xfd, 0x06, 0xed, 0x12, 0x16, 0x10, 0x23, 0x18, 0x0b, 0x00, 0x06, 0xf6,
  0x1c, 0x0b, 0xcb, 0xf5, 0xdf, 0xb2, 0x19, 0xed, 0xf3, 0x1c, 0x22, 0xfa,
  0x08, 0xf3, 0xf3, 0x1b, 0x09, 0xfe, 0x20, 0x0d, 0xeb, 0x24, 0x1d, 0x10,
  0x0e, 0x02, 0x10, 0x14, 0xf3, 0xf6, 0x2e, 0x14, 0xd6, 0xe9, 0xfa, 0xd4,
  0x12, 0xeb, 0xef, 0x14, 0x04, 0xfe, 0x11, 0xf9, 0x06, 0x23, 0x13, 0x14,
  0x12, 0xfe, 0xf9, 0x17, 0x0f, 0x05, 0x0e, 0x0d, 0x17, 0x15, 0xec, 0xf5,
  0x25, 0x13, 0xf4, 0xe4, 0xe9, 0xde, 0x28, 0xf9, 0xda, 0x0f, 0x0a, 0x0c,
  0x01, 0xed, 0x07, 0x0d, 0x12, 0x0a, 0x10, 0x03, 0xfc, 0x13, 0x1a, 0x0b,
  0x20, 0x03, 0x06, 0x13, 0xdc, 0xf6, 0x30, 0x10, 0x07, 0xe2, 0xe1, 0xe0,
  0x14, 0xef, 0xec, 0x17, 0x06, 0x0f, 0x07, 0xeb, 0x06, 0x1b, 0x07, 0x09,
  0xfb, 0xf1, 0xfa, 0x10, 0x13, 0x06, 0x1e, 0x0a, 0x0e, 0x10, 0xd4, 0xed,
  0x4c, 0x1d, 0x03, 0xd5, 0x05, 0xf0, 0x11, 0xee, 0xe7, 0xfd, 0x1d, 0x0b,
  0x05, 0xe1, 0xff, 0xfa, 0xf7, 0xfc, 0xfa, 0xf2, 0xf2, 0x0e, 0x02, 0x0e,
  0x0f, 0xf8, 0x05, 0x0b, 0xea, 0xf2, 0x50, 0x13, 0x0d, 0xdb, 0x0b, 0x09,
  0x18, 0x1d, 0x04, 0xe6, 0xf9, 0x1d, 0x1d, 0xf4, 0xe3, 0x03, 0xf1, 0xf8,
  0x09, 0x01, 0xfd, 0x02, 0xfa, 0x09, 0x0d, 0xf3, 0x10, 0xf8, 0xdb, 0x08,
  0x28, 0x18, 0x22, 0xf8, 0xfa, 0xfd, 0x1d, 0x26, 0x16, 0xee, 0x0a, 0x14,
  0x05, 0xf0, 0x00, 0xff, 0xfa, 0xf5, 0xee, 0xe2, 0xf5, 0x07, 0x0c, 0x06,
  0x0f, 0x05, 0x1a, 0x04, 0xec, 0x06, 0x10, 0x0d, 0x28, 0xf0, 0x01, 0x0b,
  0x0c, 0x0f, 0x1c, 0xd9, 0xf0, 0x05, 0x13, 0xf1, 0x0a, 0x05, 0x11, 0xe3,
  0xf1, 0xea, 0x02, 0x06, 0xfd, 0x07, 0x0c, 0xf2, 0x06, 0x01, 0xf2, 0xf6,
  0xe1, 0x08, 0x2e, 0xf0, 0x0e, 0xfe, 0x0d, 0x25, 0x0e, 0xe7, 0xe9, 0x07,
  0xe5, 0xe6, 0xfc, 0x00, 0xfa, 0xee, 0xf6, 0xdd, 0xf7, 0x05, 0xfa, 0xfd,
  0x08, 0xf7, 0x0b, 0x08, 0xf1, 0xff, 0xe5, 0xf3, 0x31, 0xe5, 0x10, 0xf9,
  0x06, 0x18, 0x0e, 0xdb, 0xeb, 0xfa, 0xfd, 0xfe, 0x04, 0xf4, 0x04, 0x03,
  0xf8, 0xf6, 0x01, 0x07, 0x0c, 0x06, 0x12, 0xf5, 0x0c, 0x12, 0x0b, 0xf9,
  0xdb, 0xe9, 0x10, 0xeb, 0x03, 0xfc, 0xf2, 0x07, 0x02, 0xfe, 0xea, 0xec,
  0xee, 0xfd, 0x00, 0x0e, 0x0c, 0x03, 0xf1, 0x00, 0x06, 0x10, 0x02, 0x05,
  0x12, 0xf9, 0x00, 0x0f, 0x1b, 0x01, 0xef, 0xf0, 0x0c, 0xec, 0x05, 0xe3,
  0xe1, 0xf9, 0xfd, 0x05, 0xf5, 0xee, 0xf9, 0xe4, 0x01, 0xf9, 0x04, 0x06,
  0x08, 0x06, 0x00, 0x05, 0xff, 0x08, 0x0b, 0x11, 0x08, 0x09, 0x08, 0xf6,
  0xdc, 0xd9, 0xff, 0xd2, 0x14, 0xf8, 0xf7, 0xf0, 0xfd, 0xea, 0xfb, 0xfb,
  0xff, 0xfc, 0x00, 0x00, 0xfd, 0x06, 0x01, 0xfc, 0x05, 0x0d, 0x0a, 0x06,
  0x10, 0x00, 0x02, 0x13, 0x03, 0xf0, 0xf2, 0xfd, 0xf9, 0x02, 0xf8, 0x1a,
  0x00, 0x01, 0x00, 0x08, 0x09, 0xf9, 0x06, 0x03, 0xff, 0xf8, 0x05, 0x0e,
  0x01, 0x0a, 0x05, 0xff, 0x06, 0xf5, 0x07, 0x04, 0xf8, 0xff, 0xee, 0xf2,
  0x04, 0xf9, 0xf6, 0xf8, 0xf9, 0xfa, 0xfe, 0xed, 0xfa, 0xee, 0xff, 0x01,
  0xff, 0x08, 0x04, 0x03, 0x03, 0xfd, 0xee, 0x00, 0x0a, 0xf8, 0x02, 0x01,
  0x07, 0x01, 0xfd, 0x06, 0x02, 0xf8, 0x0a, 0xf1, 0xe0, 0xdc, 0xec, 0xee,
  0xfa, 0x02, 0xfe, 0xf8, 0xf8, 0x0b, 0xfb, 0xf5, 0x04, 0xf1, 0xfb, 0x01,
  0xfa, 0x01, 0xfd, 0x01, 0xff, 0xfd, 0x02, 0xfa, 0x00, 0xf8, 0x2a, 0x04,
  0x02, 0x11, 0x04, 0xd6, 0xe4, 0xe5, 0xed, 0x0a, 0xf7, 0xf4, 0xf7, 0x06,
  0xf6, 0xfc, 0xf5, 0xf6, 0xfc, 0xfc, 0xfc, 0x02, 0x01, 0x05, 0xff, 0x01,
  0x0b, 0xfd, 0xfb, 0x0d, 0x14, 0x1a, 0xcf, 0x21, 0x00, 0x11, 0x08, 0xe1,
  0xbe, 0xff, 0xe8, 0xe0, 0x08, 0x09, 0x0d, 0xf5, 0x08, 0xe0, 0xff, 0xfc,
  0xfa, 0xfe, 0x00, 0xf9, 0xf8, 0xfa, 0xf1, 0x00, 0x04, 0xf8, 0x30, 0x0c,
  0xe5, 0x17, 0x10, 0x0c, 0x02, 0xeb, 0xaa, 0xe3, 0xf0, 0xf1, 0xef, 0xfe,
  0x01, 0xef, 0x04, 0xef, 0xe2, 0xff, 0xf7, 0xfb, 0xfd, 0x01, 0xf6, 0x07,
  0x03, 0x06, 0x00, 0xfd, 0x2b, 0x1b, 0xce, 0x14, 0x09, 0x03, 0x16, 0x3e,
  0xbe, 0xee, 0xf2, 0xf2, 0xe5, 0xed, 0xf7, 0xf9, 0xf3, 0xec, 0x15, 0xfe,
  0xfa, 0xef, 0xfe, 0x15, 0xfd, 0x08, 0x07, 0x04, 0xff, 0xfc, 0x32, 0x16,
  0xeb, 0x0f, 0x17, 0x16, 0x14, 0x1b, 0xd3, 0xfc, 0xf4, 0xea, 0xf6, 0xf7,
  0x00, 0x06, 0x00, 0xfc, 0x02, 0x05, 0x17, 0x06, 0xfe, 0x01, 0xf1, 0x01,
  0xf4, 0x0f, 0x07, 0x07, 0x31, 0x14, 0xf8, 0xfd, 0x04, 0x26, 0x0a, 0xfa,
  0xe2, 0xdb, 0xfd, 0xf1, 0xee, 0xec, 0x0d, 0x0d, 0xfe, 0xf7, 0xfd, 0x0c,
  0x0d, 0x0a, 0x03, 0x02, 0xfd, 0xfa, 0xfa, 0x14, 0x08, 0xfc, 0xf9, 0xfb,
  0xca, 0x02, 0x0a, 0x2a, 0x0f, 0x17, 0xea, 0xfb, 0x1b, 0xe8, 0xe5, 0xf6,
  0xfc, 0x00, 0xfc, 0x02, 0xf9, 0x0d, 0x09, 0x0c, 0x0c, 0x02, 0xf9, 0x02,
  0x00, 0x12, 0x04, 0x07, 0xb7, 0xf6, 0x09, 0xff, 0x02, 0x20, 0x10, 0x19,
  0x0d, 0xdc, 0x0b, 0x0c, 0xe6, 0xf8, 0xfb, 0x03, 0xf4, 0x03, 0x06, 0x16,
  0x0a, 0x0e, 0x1a, 0x05, 0x0f, 0x04, 0x13, 0xf9, 0xfc, 0x0e, 0xc9, 0xf4,
  0x2c, 0xfc, 0xff, 0xe6, 0xfe, 0x2c, 0x1b, 0xd8, 0x1b, 0x0b, 0xd9, 0xf0,
  0xe9, 0x0e, 0xff, 0x09, 0x06, 0x19, 0x05, 0x14, 0x14, 0x1f, 0x07, 0xfa,
  0x08, 0x05, 0xfe, 0x07, 0xc3, 0xef, 0x42, 0xfe, 0xf7, 0x0b, 0xec, 0x2a,
  0x1e, 0xe1, 0xf6, 0xf2, 0xe7, 0xda, 0xec, 0x01, 0x00, 0xfa, 0x02, 0x06,
  0xf5, 0xf3, 0x0b, 0x02, 0x0e, 0x00, 0x10, 0x01, 0xff, 0x02, 0xd4, 0xe8,
  0x31, 0x1e, 0xd8, 0x12, 0xf4, 0xbd, 0x3c, 0xfb, 0xfe, 0x0c, 0x0b, 0x0c,
  0xf8, 0x00, 0x05, 0x02, 0x00, 0xfb, 0xf4, 0x06, 0x06, 0x11, 0x0c, 0x03,
  0x0a, 0x05, 0xf9, 0x08, 0xd9, 0xf8, 0x0c, 0x20, 0xd7, 0x08, 0xfb, 0xad,
  0x10, 0x11, 0xed, 0x1f, 0x27, 0x01, 0x10, 0x25, 0xf9, 0x14, 0x0e, 0x04,
  0x02, 0xf0, 0xf5, 0x0a, 0x07, 0x03, 0x0f, 0x03, 0xfa, 0x1b, 0xe6, 0x05,
  0x0f, 0x2b, 0xee, 0x0d, 0xf5, 0xd7, 0x19, 0x23, 0xfc, 0x0a, 0x16, 0x05,
  0x06, 0x07, 0x02, 0xed, 0x07, 0x00, 0x0c, 0x0c, 0x06, 0x02, 0x09, 0x04,
  0xf2, 0xff, 0xf6, 0xf1, 0xd1, 0x14, 0x0d, 0x14, 0xf5, 0x14, 0xe2, 0xbe,
  0x29, 0x39, 0xf9, 0x19, 0x1f, 0xf3, 0xfc, 0x07, 0xfa, 0x05, 0xff, 0x02,
  0xf9, 0x19, 0x0c, 0xfd, 0x10, 0x04, 0xf4, 0x22, 0x05, 0x07, 0xde, 0x07,
  0xf7, 0xfc, 0xfe, 0xf8, 0xd2, 0xdd, 0x01, 0x29, 0x12, 0x15, 0x1b, 0xf4,
  0xf8, 0xff, 0xfe, 0x0e, 0xfb, 0x02, 0xfb, 0x0c, 0x0e, 0xfb, 0x05, 0x05,
  0x06, 0xfe, 0xf5, 0x06, 0xee, 0x07, 0xf1, 0xef, 0x0d, 0xe8, 0xe7, 0xf1,
  0xf5, 0x0c, 0x0e, 0xf3, 0xfe, 0x08, 0xf8, 0x0d, 0x00, 0xf6, 0xf6, 0x01,
  0xf6, 0xf7, 0x05, 0xf5, 0xf5, 0x05, 0xfa, 0x03, 0xf9, 0xfb, 0x15, 0x09,
  0xe6, 0xd1, 0xfc, 0xe5, 0xe4, 0xf2, 0xf1, 0xfb, 0xfa, 0xf7, 0xf9, 0xfd,
  0xf6, 0x06, 0x08, 0xfd, 0x02, 0x03, 0xfa, 0x07, 0x06, 0xfd, 0x01, 0x06,
  0x03, 0x02, 0xfb, 0xff, 0xfb, 0x03, 0xe2, 0xdd, 0xf5, 0xe9, 0xfa, 0xf8,
  0xfe, 0xfc, 0xff, 0xf4, 0x04, 0x03, 0xf3, 0x04, 0x01, 0x08, 0x07, 0x03,
  0x08, 0x03, 0x05, 0xfb, 0x07, 0x02, 0x05, 0x0b, 0x08, 0x09, 0xfa, 0xed,
  0xe5, 0xf3, 0xed, 0xfa, 0x04, 0xec, 0xff, 0x01, 0xfa, 0xf2, 0x0a, 0xfc,
  0xfb, 0xfb, 0x04, 0x00, 0x0e, 0x02, 0xfe, 0x02, 0x00, 0x03, 0xfc, 0x02,
  0x01, 0x03, 0x02, 0xfe, 0xf9, 0xf1, 0xed, 0xf2, 0x00, 0xe5, 0x02, 0x00,
  0x05, 0x04, 0xf8, 0xf5, 0x06, 0x04, 0xfd, 0xfd, 0x03, 0xf2, 0x07, 0x05,
  0x07, 0x01, 0x04, 0x03, 0x01, 0xff, 0x01, 0x07, 0x02, 0x07, 0x17, 0xf0,
  0xfc, 0xee, 0xfe, 0xf6, 0x11, 0xfc, 0xf1, 0x11, 0xf1, 0xf1, 0xfc, 0x10,
  0xfa, 0x06, 0xff, 0xf7, 0x05, 0xfd, 0xfe, 0x09, 0x03, 0xf3, 0xfe, 0x00,
  0x17, 0x06, 0x05, 0x03, 0x0a, 0xff, 0xf2, 0x00, 0x1d, 0xf7, 0x20, 0x15,
  0x09, 0x0e, 0x10, 0x07, 0x0b, 0x04, 0x0b, 0xfa, 0x0e, 0x10, 0x04, 0x00,
  0x07, 0x05, 0x02, 0x02, 0xff, 0x0b, 0x01, 0x04, 0x07, 0x08, 0xf8, 0xfc,
  0xf2, 0xf8, 0xfc, 0x17, 0xfb, 0xfa, 0x00, 0x1e, 0xff, 0x0f, 0x08, 0x05,
  0xf4, 0xfe, 0x09, 0x07, 0x00, 0x07, 0x0b, 0x0a, 0xff, 0x0d, 0x00, 0xff,
  0xfd, 0x04, 0x04, 0x01, 0xfc, 0x01, 0x0d, 0xed, 0xf7, 0x28, 0xf2, 0xe3,
  0x0d, 0x12, 0x05, 0x08, 0x12, 0x06, 0xf9, 0xfe, 0x0a, 0xed, 0xfe, 0x0d,
  0x00, 0x11, 0x0b, 0x04, 0x0b, 0x05, 0xfa, 0x06, 0x02, 0xe6, 0x11, 0x0a,
  0xfe, 0x03, 0xd6, 0x0e, 0xe3, 0xe7, 0x03, 0xff, 0x00, 0xf9, 0x05, 0xfc,
  0xeb, 0x0f, 0x03, 0xff, 0x04, 0x09, 0xfb, 0x06, 0x03, 0xf5, 0x09, 0x03,
  0xff, 0x09, 0x06, 0x06, 0xef, 0xff, 0xf9, 0xe9, 0xcf, 0xd9, 0xd3, 0xe6,
  0xf0, 0xf4, 0xf5, 0xf2, 0xdf, 0xf9, 0xf2, 0x0a, 0x03, 0xed, 0xfc, 0xfe,
  0xf2, 0x0b, 0x01, 0xfe, 0x15, 0x05, 0x0a, 0x0a, 0x01, 0xf9, 0xf3, 0xf0,
  0xee, 0xfd, 0xd3, 0xe8, 0xf1, 0xec, 0xef, 0xf3, 0xf1, 0xe8, 0xf9, 0xfc,
  0xfb, 0x15, 0x02, 0xf2, 0x07, 0xfd, 0xed, 0xf1, 0xfd, 0x06, 0x07, 0x0b,
  0xfe, 0x0d, 0xfc, 0x05, 0x09, 0xfd, 0xf3, 0xfc, 0xe7, 0xd1, 0xe0, 0xf4,
  0xdc, 0xf1, 0xf0, 0xd8, 0xfa, 0xff, 0xe8, 0x0b, 0xfc, 0xf6, 0x14, 0xfc,
  0xef, 0xf5, 0xf3, 0xfd, 0x06, 0x0c, 0x12, 0x07, 0x05, 0x11, 0xff, 0x11,
  0x00, 0x03, 0xe3, 0xd0, 0xe8, 0xea, 0x0b, 0xf6, 0xe8, 0xf2, 0x02, 0x03,
  0x07, 0x0a, 0x05, 0x04, 0x11, 0xff, 0xf8, 0x0d, 0x01, 0x0f, 0x23, 0x0a,
  0x1b, 0x16, 0x12, 0x14, 0xff, 0x0c, 0x06, 0x1b, 0xe0, 0xb5, 0xe9, 0xfc,
  0x16, 0xf9, 0xfa, 0xfc, 0xe7, 0x02, 0x03, 0x02, 0xfe, 0xef, 0x12, 0x02,
  0xe6, 0x01, 0xf5, 0x16, 0x14, 0x0e, 0x0d, 0x17, 0x0e, 0x01, 0xf2, 0x17,
  0x05, 0x0f, 0xcb, 0xad, 0xdf, 0xdb, 0x19, 0x03, 0xf4, 0xf7, 0xed, 0x06,
  0xfc, 0x08, 0x04, 0x13, 0x0b, 0x05, 0x06, 0xff, 0xe6, 0x1d, 0x14, 0x09,
  0x16, 0x19, 0x03, 0x0d, 0xf3, 0x09, 0xfe, 0x1d, 0xce, 0xb3, 0xe5, 0xdf,
  0x2e, 0xf6, 0xe7, 0xfb, 0x0b, 0x09, 0x10, 0x04, 0x03, 0x0c, 0x02, 0xfb,
  0xf0, 0xfc, 0xee, 0x0a, 0x16, 0x0d, 0x17, 0x19, 0x0d, 0x0a, 0xf8, 0xfc,
  0x05, 0x28, 0xe0, 0xcd, 0xf4, 0xde, 0x39, 0x12, 0xf7, 0x14, 0x14, 0xfa,
  0x00, 0x06, 0x05, 0x0b, 0x08, 0xf8, 0xf6, 0x06, 0xf2, 0x0b, 0x1e, 0x0e,
  0x0f, 0x06, 0x10, 0x0d, 0xf3, 0x08, 0x02, 0x28, 0x03, 0xe6, 0xf6, 0xe3,
  0x12, 0x0e, 0xff, 0x03, 0x17, 0x21, 0x0c, 0x09, 0x06, 0x10, 0xfc, 0x00,
  0xff, 0x02, 0x05, 0x22, 0x02, 0x0a, 0x10, 0x0b, 0x08, 0x04, 0xfa, 0xfb,
  0x0a, 0x22, 0xff, 0xf1, 0x0d, 0xdd, 0x15, 0x0b, 0x01, 0x29, 0x14, 0x1f,
  0x06, 0xfa, 0x00, 0xfd, 0x1c, 0xfa, 0x07, 0xfc, 0xff, 0x0d, 0x02, 0x03,
  0x0a, 0xfe, 0xfd, 0xfd, 0xfb, 0x02, 0x14, 0x13, 0x07, 0xef, 0x05, 0xf4,
  0x0c, 0x2a, 0x0b, 0x05, 0x23, 0x10, 0x05, 0x0a, 0x08, 0x10, 0x09, 0x07,
  0x0c, 0x01, 0x0c, 0x09, 0x0a, 0x05, 0x07, 0xfd, 0x07, 0x00, 0x00, 0x15,
  0x01, 0x14, 0x0f, 0x04, 0xfd, 0xe4, 0x1a, 0x1c, 0x17, 0x08, 0x12, 0x1f,
  0x0a, 0x00, 0x01, 0x0e, 0xfb, 0xff, 0x14, 0xf9, 0xf6, 0x03, 0x05, 0x06,
  0xf3, 0xf9, 0x09, 0x09, 0x0d, 0x21, 0xde, 0x06, 0x12, 0xf8, 0x02, 0xd7,
  0x2b, 0x1b, 0x15, 0xea, 0x0a, 0x28, 0xdc, 0xea, 0xf5, 0xfe, 0x00, 0x09,
  0xfb, 0xfc, 0x03, 0xfa, 0x05, 0x0b, 0xef, 0x07, 0x0d, 0x16, 0xed, 0x10,
  0xce, 0xe4, 0x0e, 0xf3, 0xe4, 0xc6, 0x17, 0x28, 0x2b, 0xe4, 0x0e, 0x12,
  0xe5, 0xf6, 0xf9, 0x03, 0x0e, 0x08, 0x14, 0x01, 0xfa, 0x0e, 0xfc, 0x04,
  0x0c, 0x05, 0x15, 0xff, 0x0e, 0x02, 0xb7, 0xea, 0x0c, 0xde, 0xf1, 0xc3,
  0xe2, 0xf8, 0x1d, 0xdc, 0xee, 0xf1, 0xe0, 0xe7, 0xf3, 0xf2, 0x08, 0xf6,
  0x00, 0x03, 0x06, 0xfd, 0x0a, 0x0d, 0x06, 0xfd, 0x0c, 0x00, 0x24, 0xf1,
  0xb5, 0xdf, 0x1f, 0x04, 0xe7, 0xc2, 0xdd, 0xe6, 0xfd, 0xbf, 0xf3, 0xea,
  0xe6, 0xf8, 0x0e, 0x17, 0x05, 0xfe, 0x14, 0x04, 0x03, 0x0d, 0x06, 0xff,
  0x17, 0x03, 0x0b, 0x11, 0x11, 0xf8, 0xb3, 0xba, 0x3d, 0xf4, 0xe6, 0xdf,
  0xf3, 0xda, 0x00, 0xe1, 0xe8, 0xe9, 0x11, 0x0a, 0x07, 0xff, 0x10, 0x0e,
  0x14, 0x05, 0x0b, 0x03, 0x06, 0x07, 0x06, 0xfe, 0x0c, 0x12, 0x00, 0xe9,
  0xd4, 0xca, 0x2e, 0x08, 0xf9, 0xf1, 0xf1, 0xee, 0xfa, 0xed, 0xe6, 0xe6,
  0xf1, 0x07, 0x07, 0x19, 0x07, 0x06, 0x05, 0x0c, 0x10, 0x09, 0x14, 0x03,
  0x0f, 0x07, 0x0b, 0x03, 0x1d, 0xe9, 0xdc, 0xda, 0x1c, 0xf7, 0x08, 0xf4,
  0xfa, 0xf2, 0xf9, 0xe6, 0xe9, 0xf6, 0xe8, 0xf1, 0xff, 0x12, 0xfc, 0x01,
  0xfb, 0x12, 0x03, 0x02, 0x06, 0x05, 0x0a, 0x0c, 0x0a, 0x04, 0x04, 0xdf,
  0xf3, 0xde, 0xf6, 0xef, 0x14, 0xf2, 0xef, 0xff, 0xfc, 0xef, 0x03, 0xfe,
  0x0d, 0x0e, 0x07, 0x0e, 0x0c, 0x0a, 0x09, 0xf9, 0x04, 0x11, 0x0d, 0x0c,
  0x09, 0x0c, 0x02, 0x00, 0x0c, 0xf5, 0x12, 0x05, 0x08, 0xff, 0x05, 0x06,
  0x11, 0x08, 0x06, 0x0a, 0xfd, 0x10, 0x08, 0xf8, 0x0a, 0x07, 0x01, 0xfb,
  0x08, 0x03, 0x13, 0x06, 0x04, 0x0b, 0x04, 0x00, 0xfd, 0x04, 0xfc, 0xec,
  0x18, 0x04, 0x0f, 0xfe, 0xfa, 0xee, 0x11, 0xf6, 0xfd, 0xfa, 0x09, 0x10,
  0xf6, 0xfa, 0x09, 0x17, 0xf1, 0x09, 0xff, 0x1c, 0x04, 0x0f, 0xf8, 0x0a,
  0xfd, 0xfe, 0x06, 0xfc, 0x05, 0x02, 0xfb, 0x0c, 0x0f, 0xea, 0x04, 0xe4,
  0xff, 0x00, 0x09, 0x01, 0x0a, 0x10, 0x02, 0x0e, 0x07, 0xf8, 0x02, 0x00,
  0x10, 0x1a, 0x05, 0x03, 0xfa, 0x05, 0xf8, 0x0d, 0x09, 0xfe, 0x09, 0xfa,
  0xfb, 0xff, 0x0c, 0xef, 0x11, 0x00, 0xf8, 0xf7, 0x11, 0x07, 0x25, 0x13,
  0xfe, 0x14, 0x07, 0xf9, 0x0a, 0x04, 0x07, 0x1a, 0x07, 0xfe, 0x06, 0x05,
  0xff, 0x0e, 0x0a, 0xf8, 0xfb, 0x12, 0x09, 0x02, 0x13, 0xf7, 0x05, 0xfb,
  0x0c, 0x1f, 0x18, 0x13, 0x17, 0xff, 0x09, 0x03, 0x04, 0x00, 0x10, 0x05,
  0x07, 0x08, 0x02, 0xf1, 0x04, 0x05, 0x01, 0x08, 0x09, 0x02, 0xef, 0x23,
  0xf9, 0x0f, 0x1b, 0x12, 0x0d, 0xeb, 0xfa, 0x0c, 0x19, 0x15, 0x10, 0x0a,
  0x10, 0x15, 0x05, 0xf3, 0x19, 0x02, 0x01, 0xfa, 0x03, 0x13, 0x04, 0x00,
  0x00, 0xfc, 0xfd, 0x0f, 0xfe, 0x1a, 0xd5, 0xdf, 0xfb, 0x12, 0xf0, 0xd4,
  0xea, 0xf4, 0x0e, 0xfc, 0xfe, 0x06, 0xe9, 0x02, 0xf7, 0xfb, 0x0f, 0x02,
  0x0d, 0x0a, 0xf8, 0x06, 0xff, 0x0a, 0x03, 0x03, 0xfe, 0x09, 0x02, 0xfa,
  0xc1, 0xd8, 0xbd, 0xf8, 0xe7, 0xb1, 0xd7, 0xdb, 0xfa, 0xd9, 0xfe, 0x0d,
  0xfb, 0xfa, 0x05, 0x01, 0xf6, 0x05, 0xfc, 0x05, 0x0e, 0x08, 0x0e, 0x05,
  0xf6, 0x03, 0x0b, 0xfe, 0x16, 0xe2, 0xba, 0xcd, 0xbc, 0xe7, 0xe5, 0xc0,
  0xe4, 0xd9, 0xf1, 0xda, 0xfa, 0x0a, 0xfb, 0x0d, 0xfe, 0xfa, 0x02, 0x05,
  0x00, 0x17, 0x0e, 0x10, 0x1d, 0x08, 0x0a, 0x0d, 0x0e, 0x0a, 0xe0, 0xdc,
  0xaa, 0xd0, 0xc8, 0x02, 0xfb, 0xe2, 0xee, 0xef, 0xf9, 0xeb, 0xf0, 0x01,
  0xe5, 0xfd, 0x03, 0x09, 0x06, 0x13, 0xfa, 0x0c, 0x03, 0x10, 0x2b, 0x0a,
  0x0d, 0x17, 0x06, 0x19, 0xf1, 0xe2, 0xc4, 0xdd, 0xcb, 0xf4, 0xf4, 0x06,
  0xfc, 0xeb, 0xfb, 0xf4, 0x00, 0x04, 0x0f, 0x07, 0x04, 0x13, 0x01, 0x01,
  0x0e, 0x1f, 0x08, 0x18, 0x1b, 0x0d, 0x27, 0xfe, 0x07, 0x0f, 0xf9, 0xe0,
  0x0f, 0xf1, 0xe9, 0x14, 0xeb, 0x1f, 0x24, 0xef, 0xfa, 0x02, 0xf7, 0x00,
  0xf4, 0xe9, 0xff, 0x11, 0xfa, 0xfd, 0x12, 0x23, 0x0b, 0x19, 0x23, 0x08,
  0x14, 0x01, 0x0f, 0x1c, 0xe9, 0xf7, 0x1b, 0xfd, 0x04, 0x2a, 0xf4, 0xf4,
  0x31, 0xe9, 0xf6, 0x0b, 0xf9, 0xfb, 0xef, 0xeb, 0x07, 0x24, 0xf8, 0x05,
  0x11, 0x09, 0x0c, 0x12, 0x03, 0x0a, 0x0d, 0x0b, 0x09, 0x07, 0xf7, 0xec,
  0x13, 0xfa, 0xfd, 0x03, 0xd8, 0xdb, 0x25, 0x04, 0xda, 0x20, 0xfe, 0xf8,
  0xe8, 0xf2, 0x02, 0x03, 0x06, 0x06, 0x14, 0x0a, 0x08, 0x25, 0x0e, 0x0a,
  0xfb, 0x05, 0x02, 0xf2, 0xf2, 0xd3, 0x16, 0x08, 0xf5, 0xfa, 0xf0, 0xeb,
  0x23, 0x0c, 0xe5, 0x10, 0x1c, 0x11, 0xf9, 0x12, 0x06, 0x17, 0xf0, 0x05,
  0x0e, 0x08, 0x09, 0xfe, 0xff, 0xfa, 0x14, 0xf3, 0x04, 0x0d, 0xfc, 0xef,
  0x1e, 0x11, 0x16, 0xe8, 0x13, 0xff, 0x1b, 0x0f, 0xfe, 0x08, 0x10, 0x21,
  0x02, 0x02, 0x0f, 0x0a, 0x05, 0xfd, 0x04, 0x12, 0x00, 0xff, 0xfb, 0x04,
  0xef, 0xef, 0xfd, 0x0c, 0xe6, 0x0c, 0x12, 0x1b, 0x33, 0xe6, 0xfe, 0x05,
  0x0d, 0x13, 0xec, 0x0f, 0x0e, 0x2d, 0xed, 0x07, 0x09, 0xee, 0xfd, 0xf6,
  0xf6, 0xfb, 0x07, 0x0e, 0xfd, 0x06, 0xe8, 0xe6, 0x0c, 0xef, 0xf1, 0x1a,
  0x08, 0x1b, 0x1d, 0xec, 0xff, 0x01, 0xfa, 0x14, 0x00, 0xf5, 0x11, 0x0f,
  0x02, 0x01, 0x09, 0x01, 0x02, 0xfe, 0x00, 0x02, 0x08, 0x07, 0x04, 0x05,
  0x0d, 0x04, 0x09, 0xff, 0xff, 0x14, 0xfa, 0xeb, 0x1d, 0xde, 0x18, 0x17,
  0xe5, 0x23, 0x13, 0x0a, 0x15, 0x13, 0x05, 0xff, 0x12, 0xf5, 0x07, 0x06,
  0xeb, 0x04, 0x06, 0xf4, 0x01, 0x08, 0xf2, 0x03, 0x03, 0x01, 0x16, 0x10,
  0xd3, 0xd6, 0x1e, 0xe5, 0x18, 0xf7, 0xe9, 0x13, 0x14, 0xf5, 0xf3, 0x0a,
  0xf4, 0x0e, 0x0d, 0x00, 0x07, 0x0d, 0xf8, 0x00, 0xfe, 0x02, 0xfc, 0xfe,
  0xfe, 0x01, 0x03, 0x06, 0x1c, 0x14, 0xc4, 0xb9, 0xfc, 0xde, 0x04, 0xf6,
  0xef, 0xf7, 0x0b, 0xec, 0xf5, 0xf8, 0x05, 0x0d, 0x04, 0xfa, 0x08, 0x08,
  0x04, 0x01, 0x06, 0x17, 0xf1, 0x06, 0xfb, 0xfe, 0x00, 0x05, 0x1a, 0x11,
  0xb8, 0xb3, 0x02, 0xe7, 0xf6, 0xf0, 0xd6, 0xf0, 0x06, 0xe7, 0xe9, 0xf5,
  0xdc, 0xfe, 0x06, 0x04, 0xf9, 0x0b, 0x00, 0xfe, 0x01, 0xf5, 0x08, 0x01,
  0xed, 0xfe, 0xfc, 0xf9, 0x23, 0x13, 0xb2, 0xca, 0xf8, 0xe6, 0xf0, 0xf3,
  0xf3, 0xe9, 0x01, 0xf0, 0xef, 0xfa, 0xee, 0xf2, 0x01, 0xf6, 0xfe, 0xfe,
  0xf6, 0x07, 0xfe, 0x05, 0xf4, 0x01, 0xe7, 0x02, 0xff, 0xf7, 0xf3, 0xef,
  0xc8, 0xbb, 0xd6, 0xce, 0xfe, 0x00, 0xd7, 0xe3, 0x01, 0xe1, 0x03, 0xfe,
  0x13, 0x03, 0xff, 0x01, 0x0b, 0x04, 0x15, 0xfc, 0x03, 0x0d, 0x07, 0x01,
  0x0f, 0xfc, 0x00, 0x0e, 0x27, 0x0e, 0x0c, 0xfe, 0xf4, 0xd1, 0xe8, 0x00,
  0xf9, 0xfc, 0xf9, 0xf9, 0xfd, 0xf9, 0x06, 0x02, 0x10, 0x02, 0x00, 0xf9,
  0x02, 0xfd, 0xfb, 0x05, 0x00, 0xff, 0x0c, 0xfd, 0x01, 0x05, 0x20, 0x1c,
  0x06, 0x14, 0x18, 0xfe, 0xee, 0xd7, 0xd4, 0xfc, 0xf3, 0xf1, 0xed, 0xf4,
  0xfa, 0xee, 0x00, 0xfe, 0x03, 0xf5, 0xfe, 0xfb, 0x02, 0x00, 0xf7, 0xff,
  0xfe, 0xfd, 0x04, 0xff, 0x28, 0x11, 0xeb, 0x0e, 0x11, 0x1c, 0x06, 0xd7,
  0xdc, 0xf8, 0x04, 0xfd, 0xec, 0xfe, 0xfe, 0xf0, 0xf5, 0xed, 0xe9, 0xfb,
  0x09, 0xe7, 0x03, 0xee, 0xf8, 0xfd, 0xe6, 0xf3, 0xf3, 0xff, 0x1f, 0x14,
  0xc5, 0x09, 0x16, 0x24, 0x0e, 0x09, 0xe8, 0xfb, 0x0d, 0x02, 0xec, 0xf9,
  0x15, 0x06, 0xf5, 0xf1, 0xfb, 0x02, 0x01, 0x0d, 0x03, 0xf5, 0x05, 0xf6,
  0xf9, 0xfd, 0x00, 0x00, 0xe6, 0x00, 0xc8, 0x08, 0x0e, 0x20, 0x11, 0x2f,
  0xfb, 0xf0, 0x0b, 0xfd, 0xdf, 0x03, 0xf8, 0x07, 0xff, 0x08, 0xfb, 0x16,
  0x0b, 0x17, 0x14, 0xee, 0x05, 0xfa, 0xf8, 0x0a, 0xf3, 0x0b, 0xde, 0x04,
  0x0b, 0xe3, 0x14, 0xf8, 0x0d, 0x1e, 0xf9, 0xf2, 0x25, 0x05, 0xed, 0xf8,
  0xd5, 0x05, 0x0b, 0xfb, 0xf1, 0x14, 0x11, 0x26, 0x11, 0xff, 0x05, 0x01,
  0xf4, 0xf4, 0xfe, 0xf2, 0xc1, 0xfa, 0x2f, 0xde, 0x04, 0xff, 0xc6, 0x29,
  0x17, 0xd1, 0xfa, 0xde, 0xd8, 0xf4, 0xdf, 0x05, 0x01, 0xf0, 0x00, 0x1a,
  0x10, 0x0b, 0x12, 0xfd, 0x0a, 0x01, 0xf7, 0xfd, 0xfd, 0x15, 0xc4, 0xe6,
  0x43, 0x06, 0xe5, 0x19, 0xd2, 0xfb, 0x15, 0xe3, 0xf4, 0xe7, 0x05, 0xf8,
  0xf2, 0xfb, 0xff, 0x04, 0xfe, 0x09, 0x09, 0x04, 0x02, 0x0b, 0x0c, 0xfa,
  0x02, 0x08, 0xfe, 0xfa, 0xb8, 0xe9, 0x20, 0x23, 0xcd, 0x04, 0x05, 0xb1,
  0x13, 0x0d, 0x01, 0x22, 0x08, 0x0c, 0x19, 0x0e, 0x0d, 0x09, 0xeb, 0x0b,
  0xfc, 0x0f, 0x0e, 0xfe, 0xf9, 0xfa, 0x06, 0x03, 0xfe, 0x00, 0xd7, 0xfb,
  0x10, 0x1d, 0xea, 0x03, 0xf2, 0xb9, 0x28, 0x30, 0xf8, 0x36, 0x0f, 0xfd,
  0x05, 0xff, 0xfc, 0xfd, 0x04, 0xf8, 0x08, 0x23, 0x18, 0xe7, 0x0a, 0xfc,
  0x0b, 0x03, 0xff, 0xf6, 0xed, 0x1c, 0x0e, 0x24, 0xe9, 0x16, 0xe6, 0xca,
  0x27, 0x27, 0xf5, 0x1f, 0x12, 0xec, 0xfd, 0x18, 0xf6, 0x17, 0xff, 0xf5,
  0x00, 0x16, 0x1b, 0xf3, 0xfa, 0xfe, 0xfc, 0x01, 0xf8, 0x07, 0xeb, 0x12,
  0x07, 0x0e, 0xf4, 0xf9, 0xed, 0xd9, 0x16, 0x1e, 0x05, 0x14, 0x20, 0xff,
  0xed, 0x1d, 0x0b, 0x00, 0xfd, 0x0a, 0x08, 0x1f, 0x1c, 0xf6, 0xfe, 0xfb,
  0x0b, 0xf9, 0xf4, 0xf5, 0xda, 0x18, 0xea, 0x01, 0xf9, 0xe5, 0xd6, 0xd0,
  0xe9, 0x23, 0x1d, 0x1c, 0x10, 0x03, 0xf4, 0x10, 0x10, 0x0a, 0xfe, 0x07,
  0x11, 0x1d, 0x1c, 0x04, 0x02, 0xfb, 0xec, 0xf4, 0xf5, 0xf1, 0xf6, 0x05,
  0xeb, 0x00, 0xfc, 0x02, 0xe9, 0xdd, 0xf9, 0x08, 0x1c, 0xfa, 0x09, 0x08,
  0xf2, 0x06, 0x0f, 0x07, 0x01, 0x06, 0xff, 0x1f, 0x1d, 0xf9, 0x06, 0xfb,
  0x01, 0xfd, 0x02, 0x0c, 0x00, 0x02, 0xf4, 0xf6, 0xed, 0xe7, 0x00, 0xe0,
  0xe9, 0xf4, 0xfa, 0xfb, 0xfe, 0xf8, 0x0a, 0x07, 0x10, 0x13, 0xf2, 0x01,
  0x12, 0x08, 0x11, 0x0a, 0xfd, 0xfd, 0x01, 0xfc, 0xf6, 0xf9, 0xfc, 0xf9,
  0xfc, 0xf8, 0xf4, 0xeb, 0xe9, 0xef, 0xf0, 0x03, 0xfe, 0x02, 0x08, 0x07,
  0x03, 0x01, 0xf7, 0x18, 0xfc, 0x06, 0x23, 0xfc, 0xfd, 0xf5, 0x04, 0xff,
  0x09, 0xf8, 0xfd, 0x13, 0xf0, 0xeb, 0x0c, 0x01, 0xf5, 0xe9, 0x0f, 0xfc,
  0xfd, 0x06, 0x02, 0x0f, 0x0a, 0x05, 0xfb, 0x0f, 0xfe, 0x0c, 0x03, 0xfc,
  0x0b, 0x14, 0x08, 0xfd, 0x04, 0xf8, 0x03, 0x14, 0xfa, 0xfe, 0xf5, 0xe5,
  0x05, 0xfb, 0x06, 0xe9, 0xf5, 0xfa, 0xfc, 0x0a, 0x04, 0x01, 0x0b, 0x01,
  0xfe, 0x0c, 0xfe, 0x00, 0xf9, 0xf7, 0x1c, 0x12, 0x0c, 0xf5, 0xfd, 0xfe,
  0x03, 0xf9, 0xf9, 0x00, 0xfc, 0xea, 0xf9, 0x00, 0x09, 0xfa, 0xf4, 0x0f,
  0x00, 0x12, 0x0a, 0x16, 0x08, 0x09, 0x08, 0x0e, 0x10, 0xfe, 0xff, 0x07,
  0x0c, 0x05, 0x06, 0x0a, 0xfa, 0xfa, 0xf6, 0xfe, 0xf0, 0xfb, 0x09, 0xf3,
  0xfd, 0x0c, 0x05, 0xfc, 0xfd, 0x0a, 0x01, 0x0d, 0x05, 0x04, 0x13, 0x01,
  0x06, 0x18, 0x0c, 0x18, 0xff, 0xfb, 0x10, 0x11, 0x08, 0x05, 0x01, 0xfa,
  0x00, 0xfd, 0xfd, 0xfc, 0x0c, 0x01, 0xf5, 0xfc, 0x03, 0x04, 0xfe, 0xfa,
  0x05, 0x04, 0x00, 0x00, 0xff, 0x02, 0x02, 0x09, 0x0b, 0x04, 0x02, 0x06,
  0x0c, 0x07, 0x01, 0x04, 0x0a, 0xfe, 0x02, 0x01, 0xf9, 0xfe, 0x18, 0xef,
  0xfc, 0xf2, 0xf5, 0xf5, 0x0b, 0xf1, 0x09, 0x00, 0xfd, 0xf5, 0xfb, 0xfb,
  0x03, 0x09, 0x03, 0xfa, 0x0a, 0xfb, 0xfb, 0x08, 0x04, 0xfc, 0x04, 0xff,
  0x0b, 0x0f, 0xfc, 0x04, 0x00, 0xe2, 0xf0, 0xf8, 0xff, 0xf9, 0xf7, 0xf9,
  0xf3, 0xf6, 0xfd, 0xf3, 0x00, 0x01, 0x02, 0xfc, 0xff, 0x05, 0xfb, 0x04,
  0xfd, 0x0a, 0x02, 0x03, 0x08, 0x00, 0x07, 0x00, 0xfb, 0xf3, 0xfe, 0xef,
  0xeb, 0xf5, 0xf8, 0x04, 0xf5, 0xfc, 0x08, 0x07, 0x03, 0xf2, 0xfe, 0x01,
  0xff, 0xef, 0xfb, 0x02, 0xf8, 0x00, 0x08, 0xf8, 0x02, 0x07, 0x05, 0xfd,
  0x02, 0x04, 0x03, 0x16, 0xe9, 0xdf, 0x36, 0xff, 0x03, 0x11, 0xfb, 0x26,
  0x33, 0x12, 0xfe, 0x11, 0x0f, 0x1c, 0x19, 0x02, 0x0b, 0x10, 0x10, 0xfe,
  0x0e, 0xfe, 0x0d, 0x0f, 0x0d, 0xfe, 0x04, 0x06, 0x12, 0x0b, 0xf5, 0xec,
  0x1b, 0x00, 0x17, 0x00, 0xed, 0xec, 0x39, 0x12, 0x01, 0x1f, 0x14, 0x17,
  0xf0, 0xfc, 0x14, 0x0a, 0xee, 0x09, 0xfc, 0x17, 0x01, 0x04, 0xfa, 0x0a,
  0x09, 0xf4, 0x03, 0x03, 0xfd, 0xf7, 0x21, 0xfd, 0x16, 0x06, 0xeb, 0xea,
  0x17, 0x15, 0xfa, 0x03, 0x2a, 0x11, 0x07, 0x0f, 0x0f, 0x0f, 0x04, 0x06,
  0x07, 0x14, 0x08, 0x12, 0x09, 0x0b, 0x12, 0x08, 0x08, 0x09, 0xfd, 0x00,
  0x04, 0x15, 0x30, 0xf9, 0x00, 0xfb, 0xfa, 0x10, 0x09, 0x06, 0x22, 0x17,
  0x03, 0xfe, 0x0e, 0x02, 0x11, 0x0c, 0xf4, 0x0b, 0x0b, 0x09, 0x0e, 0x07,
  0x05, 0x02, 0x0f, 0x06, 0x16, 0x0b, 0xed, 0x19, 0x20, 0xcb, 0xfd, 0x07,
  0xfa, 0x0e, 0x11, 0x02, 0x07, 0x08, 0xe1, 0x02, 0x06, 0xe9, 0x06, 0x03,
  0x10, 0xf6, 0x03, 0x0e, 0xf2, 0x04, 0x00, 0xf6, 0x14, 0xff, 0x0f, 0x13,
  0xd8, 0x0a, 0x2a, 0xc8, 0x07, 0x0a, 0xe8, 0x0e, 0x22, 0x01, 0x15, 0x08,
  0xfb, 0x10, 0xf1, 0xf2, 0x13, 0x06, 0xf5, 0xfa, 0x0f, 0xfc, 0xf9, 0x02,
  0xff, 0x03, 0x12, 0xf9, 0x17, 0x29, 0xe1, 0xeb, 0x2b, 0xfb, 0x12, 0x01,
  0xe5, 0x0d, 0x10, 0xfe, 0x05, 0x0a, 0xf2, 0x19, 0xfd, 0xee, 0x0a, 0xfb,
  0x1a, 0xfd, 0xfa, 0x02, 0xf5, 0xff, 0xff, 0xfb, 0x07, 0x06, 0x1e, 0x35,
  0xdb, 0xe3, 0x20, 0x0f, 0x0e, 0xf0, 0xfd, 0x05, 0x16, 0x0a, 0xe6, 0x02,
  0xea, 0xf9, 0x00, 0xee, 0xfa, 0x0c, 0x05, 0xfd, 0x0e, 0xf7, 0x03, 0x04,
  0x09, 0x0a, 0x01, 0xfb, 0x1c, 0x0f, 0xe4, 0xc9, 0xf3, 0xf0, 0xe3, 0xbb,
  0xed, 0xee, 0x0e, 0xf2, 0xf0, 0x05, 0xd1, 0x0e, 0x05, 0xfb, 0x0a, 0x02,
  0xf7, 0x06, 0x08, 0x05, 0x02, 0x08, 0x00, 0x0c, 0x00, 0x13, 0x03, 0x06,
  0xce, 0xc1, 0xdf, 0xdd, 0xd4, 0xa7, 0xd1, 0xe9, 0xf4, 0xe2, 0xf3, 0x04,
  0xf6, 0x04, 0x03, 0x0b, 0xf4, 0x06, 0xf0, 0xfc, 0x03, 0x16, 0x0d, 0x06,
  0x06, 0x01, 0xfd, 0x15, 0x12, 0xe8, 0xb5, 0xd5, 0xcd, 0xf6, 0x05, 0xd7,
  0xd6, 0xcf, 0xf3, 0xd3, 0xf4, 0x01, 0x0b, 0x1a, 0x04, 0x11, 0x14, 0x0c,
  0x01, 0x09, 0x08, 0xff, 0x0e, 0x06, 0x01, 0x0f, 0x05, 0x05, 0xf6, 0xed,
  0xa7, 0xd6, 0xe0, 0xdc, 0xe4, 0xf4, 0xf5, 0xf1, 0xeb, 0xf8, 0x13, 0x01,
  0x06, 0x23, 0xfd, 0x1b, 0x12, 0x0a, 0x07, 0x1d, 0x09, 0x08, 0x1c, 0x06,
  0x06, 0x05, 0x0d, 0xf9, 0xfc, 0xe5, 0xc3, 0xec, 0xdb, 0xe1, 0xe4, 0xf8,
  0x05, 0xea, 0xf9, 0xf2, 0x0b, 0xfc, 0x17, 0x17, 0x0a, 0x27, 0x04, 0x0e,
  0xfa, 0x1b, 0x04, 0x13, 0x16, 0x04, 0x04, 0x0f, 0x0a, 0xfc, 0xf7, 0xd8,
  0x03, 0xf4, 0xd9, 0x1b, 0xfb, 0xf8, 0x36, 0x00, 0x0a, 0x16, 0xee, 0xf6,
  0xe2, 0xf4, 0x0b, 0x08, 0xff, 0x01, 0x1b, 0x07, 0xff, 0x12, 0x0d, 0x0f,
  0x12, 0x0d, 0xfe, 0x08, 0xe6, 0xe8, 0x2c, 0xfb, 0x07, 0x2a, 0xf6, 0xe7,
  0x4b, 0xfc, 0x09, 0x12, 0xf3, 0xec, 0xf3, 0xfc, 0xfc, 0x14, 0xff, 0xfa,
  0x0b, 0x0c, 0x03, 0x14, 0x02, 0x0d, 0x11, 0xf9, 0x07, 0xfe, 0xcd, 0xce,
  0x3a, 0xf7, 0x0e, 0x17, 0xf2, 0xdd, 0x32, 0x06, 0xfa, 0x24, 0x06, 0x07,
  0x0b, 0xff, 0x05, 0x10, 0xfd, 0xfb, 0x0e, 0x08, 0x06, 0x17, 0x00, 0x03,
  0x07, 0x02, 0x0c, 0x15, 0xd4, 0xd6, 0x2e, 0xff, 0x12, 0x08, 0xeb, 0xe6,
  0x25, 0x23, 0x05, 0x27, 0x1a, 0x13, 0xf4, 0x01, 0x07, 0x09, 0x0e, 0xfb,
  0xed, 0x07, 0x00, 0x0b, 0x01, 0x08, 0xee, 0xee, 0x01, 0xf5, 0xdd, 0xd9,
  0x1e, 0x0a, 0x1b, 0x0e, 0xfa, 0xf1, 0x1e, 0x0f, 0x0a, 0x0c, 0x20, 0x2a,
  0xfb, 0xee, 0x0e, 0x0f, 0x00, 0xf8, 0xfd, 0xfb, 0x06, 0x14, 0x09, 0x04,
  0x03, 0x10, 0xfe, 0x03, 0xf2, 0x08, 0x1f, 0x0e, 0x23, 0x05, 0x09, 0xee,
  0x1c, 0x13, 0x0e, 0x0e, 0x21, 0x15, 0x08, 0xfd, 0x1c, 0x0f, 0xfe, 0xea,
  0xf0, 0xf4, 0xfc, 0xf8, 0xfe, 0x0e, 0x0a, 0xf4, 0x0a, 0x0e, 0xf1, 0x18,
  0x0b, 0x05, 0x17, 0xfb, 0x05, 0xee, 0xf8, 0x0e, 0x0f, 0x1c, 0x08, 0x2a,
  0xff, 0x0e, 0x09, 0x0d, 0xf8, 0xec, 0xdf, 0xe9, 0xf7, 0xff, 0xf2, 0xff,
  0xf7, 0xfd, 0x08, 0x03, 0xdd, 0x1a, 0x04, 0x06, 0x26, 0xe7, 0xfc, 0x0c,
  0xd7, 0x0e, 0x04, 0xfb, 0x03, 0x15, 0x02, 0x02, 0x08, 0xf2, 0x08, 0xfc,
  0xeb, 0xff, 0x06, 0x00, 0xfe, 0x03, 0xfd, 0x03, 0x0d, 0x0c, 0x00, 0x01,
  0xf0, 0xd3, 0x21, 0xd8, 0x0a, 0x15, 0xef, 0xf5, 0x0c, 0xf0, 0xff, 0x0c,
  0xe2, 0xf8, 0xff, 0x06, 0x08, 0x07, 0xfa, 0x03, 0x01, 0xf1, 0x01, 0x00,
  0xfa, 0xf5, 0xfe, 0x04, 0x04, 0x02, 0xed, 0xd9, 0x15, 0xf4, 0x02, 0xf2,
  0xeb, 0xfd, 0xf9, 0x01, 0x0c, 0x04, 0x03, 0x0f, 0x09, 0x0b, 0x02, 0x04,
  0xfa, 0x0a, 0x06, 0x1c, 0x00, 0x00, 0x09, 0x05, 0x01, 0xfd, 0xfc, 0xf3,
  0xea, 0xd0, 0x1c, 0xe2, 0xff, 0xfb, 0x06, 0xfb, 0xfd, 0xdc, 0xf1, 0x06,
  0x01, 0x03, 0x08, 0xff, 0x03, 0x03, 0xfc, 0x08, 0x07, 0x09, 0x09, 0x09,
  0x16, 0x05, 0x02, 0xfa, 0x00, 0x00, 0x00, 0x00, 0x16, 0xff, 0xff, 0xff,
  0x04, 0x00, 0x00, 0x00, 0x03, 0x00, 0x00, 0x00, 0xbf, 0xd7, 0x81, 0x00,
  0x26, 0xff, 0xff, 0xff, 0x04, 0x00, 0x00, 0x00, 0x03, 0x00, 0x00, 0x00,
  0x7f, 0x5f, 0x69, 0x00, 0x36, 0xff, 0xff, 0xff, 0x04, 0x00, 0x00, 0x00,
  0x03, 0x00, 0x00, 0x00, 0xc9, 0xb8, 0x81, 0x00, 0x46, 0xff, 0xff, 0xff,
  0x04, 0x00, 0x00, 0x00, 0x03, 0x00, 0x00, 0x00, 0x7f, 0x64, 0x60, 0x00,
  0x56, 0xff, 0xff, 0xff, 0x04, 0x00, 0x00, 0x00, 0x0c, 0x00, 0x00, 0x00,
  0x66, 0xf1, 0xff, 0xff, 0x5e, 0xf8, 0xff, 0xff, 0x76, 0xee, 0xff, 0xff,
  0x00, 0x00, 0x00, 0x00, 0x00, 0x00, 0x00, 0x00, 0x76, 0xff, 0xff, 0xff,
  0x04, 0x00, 0x00, 0x00, 0x04, 0x00, 0x00, 0x00, 0x2a, 0x07, 0x00, 0x00,
  0x86, 0xff, 0xff, 0xff, 0x04, 0x00, 0x00, 0x00, 0x50, 0x00, 0x00, 0x00,
  0x1b, 0x01, 0x00, 0x00, 0xf6, 0xff, 0xff, 0xff, 0x5b, 0x0b, 0x00, 0x00,
  0xbb, 0xdc, 0xff, 0xff, 0x13, 0xef, 0xff, 0xff, 0x7a, 0xe2, 0xff, 0xff,
  0x26, 0x08, 0x00, 0x00, 0x47, 0x02, 0x00, 0x00, 0x00, 0x0c, 0x00, 0x00,
  0x9c, 0xe2, 0xff, 0xff, 0x6f, 0x08, 0x00, 0x00, 0x8e, 0xe1, 0xff, 0xff,
  0x82, 0xe2, 0xff, 0xff, 0xb6, 0x00, 0x00, 0x00, 0x71, 0x04, 0x00, 0x00,
  0x06, 0xe0, 0xff, 0xff, 0x95, 0x02, 0x00, 0x00, 0xdd, 0x0b, 0x00, 0x00,
  0x41, 0xe3, 0xff, 0xff, 0x38, 0x0a, 0x00, 0x00, 0x00, 0x00, 0x00, 0x00,
  0xe6, 0xff, 0xff, 0xff, 0x04, 0x00, 0x00, 0x00, 0x0c, 0x00, 0x00, 0x00,
  0x6d, 0xfc, 0xff, 0xff, 0xb5, 0x02, 0x00, 0x00, 0xc2, 0xff, 0xff, 0xff,
  0x00, 0x00, 0x06, 0x00, 0x08, 0x00, 0x04, 0x00, 0x06, 0x00, 0x00, 0x00,
  0x04, 0x00, 0x00, 0x00, 0x08, 0x00, 0x00, 0x00, 0xff, 0xff, 0xff, 0xff,
  0xd0, 0x02, 0x00, 0x00, 0x00, 0x00, 0x00, 0x00, 0x64, 0xe6, 0xff, 0xff,
  0x00, 0x00, 0x00, 0x00, 0x00, 0x00, 0x00, 0x00, 0x00, 0x00, 0x00, 0x00,
  0x74, 0xe6, 0xff, 0xff, 0x00, 0x00, 0x00, 0x00, 0x0f, 0x00, 0x00, 0x00,
  0x4d, 0x4c, 0x49, 0x52, 0x20, 0x43, 0x6f, 0x6e, 0x76, 0x65, 0x72, 0x74,
  0x65, 0x64, 0x2e, 0x00, 0x01, 0x00, 0x00, 0x00, 0x14, 0x00, 0x00, 0x00,
  0x00, 0x00, 0x0e, 0x00, 0x18, 0x00, 0x04, 0x00, 0x08, 0x00, 0x0c, 0x00,
  0x10, 0x00, 0x14, 0x00, 0x0e, 0x00, 0x00, 0x00, 0x6c, 0x03, 0x00, 0x00,
  0x60, 0x03, 0x00, 0x00, 0x54, 0x03, 0x00, 0x00, 0x14, 0x00, 0x00, 0x00,
  0x04, 0x00, 0x00, 0x00, 0x04, 0x00, 0x00, 0x00, 0x6d, 0x61, 0x69, 0x6e,
  0x00, 0x00, 0x00, 0x00, 0x0e, 0x00, 0x00, 0x00, 0x18, 0x03, 0x00, 0x00,
  0xc0, 0x02, 0x00, 0x00, 0x5c, 0x02, 0x00, 0x00, 0x18, 0x02, 0x00, 0x00,
  0xd4, 0x01, 0x00, 0x00, 0x94, 0x01, 0x00, 0x00, 0x50, 0x01, 0x00, 0x00,
  0x1c, 0x01, 0x00, 0x00, 0xe8, 0x00, 0x00, 0x00, 0xc0, 0x00, 0x00, 0x00,
  0x84, 0x00, 0x00, 0x00, 0x4c, 0x00, 0x00, 0x00, 0x28, 0x00, 0x00, 0x00,
  0x04, 0x00, 0x00, 0x00, 0x2a, 0xfd, 0xff, 0xff, 0x08, 0x00, 0x00, 0x00,
  0x10, 0x00, 0x00, 0x00, 0x04, 0x00, 0x00, 0x00, 0x01, 0x00, 0x00, 0x00,
  0x1b, 0x00, 0x00, 0x00, 0x01, 0x00, 0x00, 0x00, 0x19, 0x00, 0x00, 0x00,
  0x4a, 0xfd, 0xff, 0xff, 0x06, 0x00, 0x00, 0x00, 0x10, 0x00, 0x00, 0x00,
  0x04, 0x00, 0x00, 0x00, 0x01, 0x00, 0x00, 0x00, 0x19, 0x00, 0x00, 0x00,
  0x01, 0x00, 0x00, 0x00, 0x18, 0x00, 0x00, 0x00, 0x62, 0xfe, 0xff, 0xff,
  0x00, 0x00, 0x00, 0x08, 0x05, 0x00, 0x00, 0x00, 0x18, 0x00, 0x00, 0x00,
  0x0c, 0x00, 0x00, 0x00, 0x04, 0x00, 0x00, 0x00, 0x60, 0xe7, 0xff, 0xff,
  0x01, 0x00, 0x00, 0x00, 0x18, 0x00, 0x00, 0x00, 0x03, 0x00, 0x00, 0x00,
  0x17, 0x00, 0x00, 0x00, 0x0b, 0x00, 0x00, 0x00, 0x04, 0x00, 0x00, 0x00,
  0x96, 0xfe, 0xff, 0xff, 0x00, 0x00, 0x00, 0x08, 0x05, 0x00, 0x00, 0x00,
  0x1c, 0x00, 0x00, 0x00, 0x10, 0x00, 0x00, 0x00, 0x04, 0x00, 0x00, 0x00,
  0x3e, 0xe6, 0xff, 0xff, 0x00, 0x00, 0x00, 0x01, 0x01, 0x00, 0x00, 0x00,
  0x17, 0x00, 0x00, 0x00, 0x03, 0x00, 0x00, 0x00, 0x16, 0x00, 0x00, 0x00,
  0x0a, 0x00, 0x00, 0x00, 0x03, 0x00, 0x00, 0x00, 0xd6, 0xfd, 0xff, 0xff,
  0x04, 0x00, 0x00, 0x00, 0x10, 0x00, 0x00, 0x00, 0x04, 0x00, 0x00, 0x00,
  0x01, 0x00, 0x00, 0x00, 0x16, 0x00, 0x00, 0x00, 0x02, 0x00, 0x00, 0x00,
  0x15, 0x00, 0x00, 0x00, 0x01, 0x00, 0x00, 0x00, 0xf2, 0xfe, 0xff, 0xff,
  0x00, 0x00, 0x00, 0x0b, 0x03, 0x00, 0x00, 0x00, 0x18, 0x00, 0x00, 0x00,
  0x0c, 0x00, 0x00, 0x00, 0x04, 0x00, 0x00, 0x00, 0xf0, 0xe7, 0xff, 0xff,
  0x01, 0x00, 0x00, 0x00, 0x15, 0x00, 0x00, 0x00, 0x02, 0x00, 0x00, 0x00,
  0x14, 0x00, 0x00, 0x00, 0x09, 0x00, 0x00, 0x00, 0x22, 0xff, 0xff, 0xff,
  0x00, 0x00, 0x00, 0x15, 0x02, 0x00, 0x00, 0x00, 0x18, 0x00, 0x00, 0x00,
  0x0c, 0x00, 0x00, 0x00, 0x04, 0x00, 0x00, 0x00, 0x20, 0xe8, 0xff, 0xff,
  0x01, 0x00, 0x00, 0x00, 0x14, 0x00, 0x00, 0x00, 0x02, 0x00, 0x00, 0x00,
  0x13, 0x00, 0x00, 0x00, 0x08, 0x00, 0x00, 0x00, 0x52, 0xff, 0xff, 0xff,
  0x00, 0x00, 0x00, 0x05, 0x01, 0x00, 0x00, 0x00, 0x2c, 0x00, 0x00, 0x00,
  0x20, 0x00, 0x00, 0x00, 0x04, 0x00, 0x00, 0x00, 0x02, 0xff, 0xff, 0xff,
  0x00, 0x00, 0x00, 0x01, 0x02, 0x00, 0x00, 0x00, 0x02, 0x00, 0x00, 0x00,
  0x02, 0x00, 0x00, 0x00, 0x02, 0x00, 0x00, 0x00, 0x01, 0x00, 0x00, 0x00,
  0x13, 0x00, 0x00, 0x00, 0x01, 0x00, 0x00, 0x00, 0x12, 0x00, 0x00, 0x00,
  0xf2, 0xfe, 0xff, 0xff, 0x00, 0x00, 0x00, 0x01, 0x24, 0x00, 0x00, 0x00,
  0x18, 0x00, 0x00, 0x00, 0x04, 0x00, 0x00, 0x00, 0xe4, 0xfe, 0xff, 0xff,
  0x00, 0x00, 0x00, 0x01, 0x01, 0x00, 0x00, 0x00, 0x01, 0x00, 0x00, 0x00,
  0x01, 0x00, 0x00, 0x00, 0x12, 0x00, 0x00, 0x00, 0x03, 0x00, 0x00, 0x00,
  0x11, 0x00, 0x00, 0x00, 0x0d, 0x00, 0x00, 0x00, 0x05, 0x00, 0x00, 0x00,
  0xce, 0xff, 0xff, 0xff, 0x00, 0x00, 0x00, 0x0b, 0x03, 0x00, 0x00, 0x00,
  0x18, 0x00, 0x00, 0x00, 0x0c, 0x00, 0x00, 0x00, 0x04, 0x00, 0x00, 0x00,
  0xcc, 0xe8, 0xff, 0xff, 0x01, 0x00, 0x00, 0x00, 0x11, 0x00, 0x00, 0x00,
  0x02, 0x00, 0x00, 0x00, 0x10, 0x00, 0x00, 0x00, 0x07, 0x00, 0x00, 0x00,
  0x00, 0x00, 0x0e, 0x00, 0x18, 0x00, 0x08, 0x00, 0x0c, 0x00, 0x10, 0x00,
  0x07, 0x00, 0x14, 0x00, 0x0e, 0x00, 0x00, 0x00, 0x00, 0x00, 0x00, 0x15,
  0x02, 0x00, 0x00, 0x00, 0x18, 0x00, 0x00, 0x00, 0x0c, 0x00, 0x00, 0x00,
  0x04, 0x00, 0x00, 0x00, 0x0c, 0xe9, 0xff, 0xff, 0x01, 0x00, 0x00, 0x00,
  0x10, 0x00, 0x00, 0x00, 0x02, 0x00, 0x00, 0x00, 0x0f, 0x00, 0x00, 0x00,
  0x06, 0x00, 0x00, 0x00, 0x00, 0x00, 0x0e, 0x00, 0x1a, 0x00, 0x08, 0x00,
  0x0c, 0x00, 0x10, 0x00, 0x07, 0x00, 0x14, 0x00, 0x0e, 0x00, 0x00, 0x00,
  0x00, 0x00, 0x00, 0x05, 0x01, 0x00, 0x00, 0x00, 0x3c, 0x00, 0x00, 0x00,
  0x30, 0x00, 0x00, 0x00, 0x14, 0x00, 0x00, 0x00, 0x00, 0x00, 0x0e, 0x00,
  0x18, 0x00, 0x07, 0x00, 0x08, 0x00, 0x0c, 0x00, 0x10, 0x00, 0x14, 0x00,
  0x0e, 0x00, 0x00, 0x00, 0x00, 0x00, 0x00, 0x01, 0x02, 0x00, 0x00, 0x00,
  0x02, 0x00, 0x00, 0x00, 0x02, 0x00, 0x00, 0x00, 0x02, 0x00, 0x00, 0x00,
  0x01, 0x00, 0x00, 0x00, 0x0f, 0x00, 0x00, 0x00, 0x01, 0x00, 0x00, 0x00,
  0x0e, 0x00, 0x00, 0x00, 0x00, 0x00, 0x0e, 0x00, 0x14, 0x00, 0x00, 0x00,
  0x08, 0x00, 0x0c, 0x00, 0x07, 0x00, 0x10, 0x00, 0x0e, 0x00, 0x00, 0x00,
  0x00, 0x00, 0x00, 0x01, 0x30, 0x00, 0x00, 0x00, 0x24, 0x00, 0x00, 0x00,
  0x10, 0x00, 0x00, 0x00, 0x0c, 0x00, 0x10, 0x00, 0x00, 0x00, 0x08, 0x00,
  0x0c, 0x00, 0x07, 0x00, 0x0c, 0x00, 0x00, 0x00, 0x00, 0x00, 0x00, 0x01,
  0x01, 0x00, 0x00, 0x00, 0x01, 0x00, 0x00, 0x00, 0x01, 0x00, 0x00, 0x00,
  0x0e, 0x00, 0x00, 0x00, 0x03, 0x00, 0x00, 0x00, 0x00, 0x00, 0x00, 0x00,
  0x0c, 0x00, 0x00, 0x00, 0x02, 0x00, 0x00, 0x00, 0x00, 0x00, 0x0a, 0x00,
