unsigned char converted_model_tflite[] = {
  0x20, 0x00, 0x00, 0x00, 0x54, 0x46, 0x4c, 0x33, 0x00, 0x00, 0x00, 0x00,
  0x00, 0x00, 0x12, 0x00, 0x1c, 0x00, 0x04, 0x00, 0x08, 0x00, 0x0c, 0x00,
  0x10, 0x00, 0x14, 0x00, 0x00, 0x00, 0x18, 0x00, 0x12, 0x00, 0x00, 0x00,
  0x03, 0x00, 0x00, 0x00, 0xa8, 0xab, 0x00, 0x00, 0xb4, 0x99, 0x00, 0x00,
  0x9c, 0x99, 0x00, 0x00, 0x3c, 0x00, 0x00, 0x00, 0x04, 0x00, 0x00, 0x00,
  0x01, 0x00, 0x00, 0x00, 0x0c, 0x00, 0x00, 0x00, 0x08, 0x00, 0x0c, 0x00,
  0x04, 0x00, 0x08, 0x00, 0x08, 0x00, 0x00, 0x00, 0x08, 0x00, 0x00, 0x00,
  0x13, 0x00, 0x00, 0x00, 0x13, 0x00, 0x00, 0x00, 0x6d, 0x69, 0x6e, 0x5f,
  0x72, 0x75, 0x6e, 0x74, 0x69, 0x6d, 0x65, 0x5f, 0x76, 0x65, 0x72, 0x73,
  0x69, 0x6f, 0x6e, 0x00, 0x14, 0x00, 0x00, 0x00, 0x48, 0x99, 0x00, 0x00,
  0x34, 0x99, 0x00, 0x00, 0x18, 0x99, 0x00, 0x00, 0xe4, 0x98, 0x00, 0x00,
  0xc0, 0x98, 0x00, 0x00, 0x0c, 0x98, 0x00, 0x00, 0xf8, 0x97, 0x00, 0x00,
  0xe4, 0x01, 0x00, 0x00, 0xa0, 0x01, 0x00, 0x00, 0x6c, 0x01, 0x00, 0x00,
  0xc8, 0x00, 0x00, 0x00, 0xbc, 0x00, 0x00, 0x00, 0xa8, 0x00, 0x00, 0x00,
  0x94, 0x00, 0x00, 0x00, 0x80, 0x00, 0x00, 0x00, 0x6c, 0x00, 0x00, 0x00,
  0x58, 0x00, 0x00, 0x00, 0x44, 0x00, 0x00, 0x00, 0x30, 0x00, 0x00, 0x00,
  0x04, 0x00, 0x00, 0x00, 0x36, 0x67, 0xff, 0xff, 0x04, 0x00, 0x00, 0x00,
  0x10, 0x00, 0x00, 0x00, 0x31, 0x2e, 0x31, 0x34, 0x2e, 0x30, 0x00, 0x00,
  0x00, 0x00, 0x00, 0x00, 0x00, 0x00, 0x00, 0x00, 0x00, 0x00, 0x00, 0x00,
  0x00, 0x00, 0x00, 0x00, 0x00, 0x00, 0x00, 0x00, 0x34, 0x56, 0xff, 0xff,
  0x00, 0x00, 0x00, 0x00, 0x00, 0x00, 0x00, 0x00, 0x00, 0x00, 0x00, 0x00,
  0x44, 0x56, 0xff, 0xff, 0x00, 0x00, 0x00, 0x00, 0x00, 0x00, 0x00, 0x00,
  0x00, 0x00, 0x00, 0x00, 0x54, 0x56, 0xff, 0xff, 0x00, 0x00, 0x00, 0x00,
  0x00, 0x00, 0x00, 0x00, 0x00, 0x00, 0x00, 0x00, 0x64, 0x56, 0xff, 0xff,
  0x00, 0x00, 0x00, 0x00, 0x00, 0x00, 0x00, 0x00, 0x00, 0x00, 0x00, 0x00,
  0x74, 0x56, 0xff, 0xff, 0x00, 0x00, 0x00, 0x00, 0x00, 0x00, 0x00, 0x00,
  0x00, 0x00, 0x00, 0x00, 0x84, 0x56, 0xff, 0xff, 0x00, 0x00, 0x00, 0x00,
  0x00, 0x00, 0x00, 0x00, 0x00, 0x00, 0x00, 0x00, 0x94, 0x56, 0xff, 0xff,
  0x00, 0x00, 0x00, 0x00, 0x00, 0x00, 0x00, 0x00, 0x00, 0x00, 0x00, 0x00,
  0xa4, 0x56, 0xff, 0xff, 0x00, 0x00, 0x00, 0x00, 0xd6, 0x67, 0xff, 0xff,
  0x04, 0x00, 0x00, 0x00, 0x90, 0x00, 0x00, 0x00, 0xf4, 0x7f, 0xf8, 0x07,
  0xc5, 0x0e, 0xe6, 0xe1, 0x21, 0xea, 0x0e, 0x0a, 0x1f, 0xdf, 0xe4, 0x12,
  0xbc, 0x13, 0xe6, 0x59, 0xf7, 0xe5, 0xf3, 0xf5, 0x05, 0xb5, 0xe3, 0x01,
  0xcf, 0xfc, 0xfd, 0x08, 0x3c, 0xe1, 0xc6, 0xf8, 0xf2, 0x08, 0xfd, 0xe5,
  0xda, 0xfd, 0x00, 0xe3, 0xc9, 0x02, 0xfa, 0xfa, 0xf1, 0x09, 0xfb, 0xf3,
  0xc7, 0xfa, 0x00, 0xdf, 0xe1, 0x00, 0xf8, 0x11, 0xe8, 0x02, 0xfe, 0x7f,
  0xda, 0xee, 0xfd, 0xdf, 0xf6, 0xf5, 0xf5, 0x06, 0x7f, 0x02, 0xcb, 0x09,
  0x1f, 0xf9, 0xfb, 0x1d, 0x14, 0xfa, 0x07, 0x33, 0xe8, 0xee, 0xee, 0x03,
  0xdd, 0xe2, 0x01, 0xf1, 0xdc, 0xf2, 0x07, 0xdc, 0xd5, 0xf4, 0x07, 0xf5,
  0xab, 0xf8, 0x10, 0xdd, 0xaa, 0xfe, 0x0d, 0xb5, 0xf6, 0xe7, 0x3b, 0x18,
  0x06, 0x01, 0xbb, 0x03, 0xf3, 0x1d, 0xe0, 0xfd, 0x00, 0xc9, 0x11, 0xfb,
  0x07, 0xff, 0x81, 0x06, 0xff, 0x28, 0xd8, 0x07, 0x12, 0xa9, 0xee, 0xff,
  0xfd, 0x08, 0x85, 0x00, 0x1b, 0x14, 0xd5, 0x08, 0x00, 0x00, 0x00, 0x00,
  0x76, 0x68, 0xff, 0xff, 0x04, 0x00, 0x00, 0x00, 0x24, 0x00, 0x00, 0x00,
  0x9c, 0xf1, 0x12, 0xe6, 0x7f, 0x1c, 0x54, 0x68, 0xc6, 0xb0, 0xe1, 0xf8,
  0x1c, 0xf0, 0x08, 0x7f, 0xe3, 0xd4, 0x7f, 0xc7, 0xc9, 0xf4, 0xe9, 0xe8,
  0xa6, 0xf0, 0x6c, 0x38, 0xd8, 0xc7, 0x6d, 0xda, 0xdd, 0x7f, 0x59, 0x20,
  0xa6, 0x68, 0xff, 0xff, 0x04, 0x00, 0x00, 0x00, 0x28, 0x00, 0x00, 0x00,
  0x57, 0x98, 0x7f, 0xb0, 0x66, 0x57, 0x00, 0x76, 0x9d, 0xa7, 0x5b, 0xa3,
  0x4b, 0xa9, 0x5a, 0xff, 0x0d, 0xbc, 0xa2, 0x99, 0xbc, 0xa1, 0x4a, 0x47,
  0xb6, 0xef, 0x00, 0x68, 0x4c, 0xad, 0xb7, 0xa2, 0x6c, 0x01, 0x16, 0x90,
  0xa4, 0x49, 0x00, 0xa3, 0x00, 0x00, 0x00, 0x00, 0x00, 0x00, 0x00, 0x00,
  0x00, 0x00, 0x00, 0x00, 0xe6, 0x68, 0xff, 0xff, 0x04, 0x00, 0x00, 0x00,
  0x00, 0x96, 0x00, 0x00, 0x0e, 0x20, 0x0a, 0xf3, 0xe8, 0x35, 0xc5, 0xf4,
  0xeb, 0xfe, 0xea, 0x02, 0x08, 0x16, 0x17, 0xf9, 0xfa, 0x03, 0x08, 0xfa,
  0xfb, 0xeb, 0xf4, 0x00, 0xef, 0xf9, 0x0a, 0x00, 0xf6, 0xfe, 0x0c, 0x00,
  0xf9, 0x00, 0x19, 0x00, 0x06, 0x04, 0x16, 0xff, 0x13, 0xff, 0xea, 0xf9,
  0xe7, 0x06, 0xed, 0xe2, 0xf9, 0xf7, 0x05, 0xfc, 0x1b, 0x16, 0xf9, 0x00,
  0xea, 0x21, 0xd8, 0x00, 0xea, 0xe2, 0xf8, 0x00, 0xf4, 0x04, 0x01, 0x00,
  0x06, 0xf3, 0xf2, 0xfe, 0x03, 0xfe, 0x01, 0xfe, 0x0d, 0xfb, 0xf9, 0xfd,
  0x1a, 0xf1, 0x0c, 0xd3, 0xef, 0x10, 0xf1, 0xe6, 0xe3, 0xf1, 0xeb, 0xf7,
  0x17, 0xe5, 0x03, 0xfb, 0xeb, 0x2b, 0x06, 0xff, 0x0f, 0xe3, 0xfb, 0xfb,
  0x0b, 0x17, 0x09, 0x03, 0x05, 0x04, 0x05, 0xf8, 0xfa, 0xf1, 0x10, 0x00,
  0x11, 0x03, 0x03, 0x00, 0x24, 0x04, 0xf9, 0xe6, 0xf1, 0x12, 0xe1, 0x0d,
  0xf6, 0xf6, 0xeb, 0xfc, 0x20, 0xe4, 0x15, 0xf8, 0x0c, 0x21, 0xfc, 0x1f,
  0x2b, 0x07, 0x15, 0x00, 0x1b, 0xf8, 0x24, 0x12, 0x0b, 0xf5, 0x17, 0xfd,
  0x03, 0xf9, 0x0f, 0x00, 0x15, 0xed, 0x1a, 0x07, 0xff, 0x0b, 0xc1, 0xfe,
  0xf3, 0x2a, 0xed, 0x1f, 0x16, 0x0f, 0xb8, 0xf4, 0x1c, 0xd9, 0xef, 0xed,
  0x19, 0x18, 0xee, 0x17, 0x13, 0xf7, 0xec, 0x08, 0x14, 0xf2, 0x00, 0x0a,
  0x0b, 0xf8, 0xf2, 0x07, 0xf0, 0xf7, 0xee, 0x00, 0xf8, 0x07, 0xf7, 0xff,
  0x1b, 0xf1, 0xb2, 0x02, 0x02, 0x0a, 0x21, 0x15, 0x0f, 0x17, 0xbd, 0x12,
  0xfe, 0xe1, 0xf4, 0xd2, 0xee, 0xfb, 0xe1, 0x1a, 0x14, 0xf5, 0x07, 0x14,
  0xfd, 0xf0, 0x06, 0x1f, 0x02, 0x1c, 0x01, 0x09, 0x07, 0x29, 0xf5, 0x00,
  0xfb, 0xf6, 0xde, 0x07, 0x27, 0xbd, 0xe8, 0xee, 0xf8, 0x20, 0xe8, 0x17,
  0x0f, 0x33, 0xaa, 0xf1, 0xe1, 0x04, 0x0d, 0xe2, 0xfd, 0xf9, 0x19, 0xfd,
  0x10, 0xf1, 0xff, 0x04, 0xfa, 0xee, 0x14, 0x01, 0x13, 0x18, 0x1a, 0x08,
  0x0a, 0x11, 0x10, 0x02, 0x06, 0xeb, 0x02, 0x01, 0x17, 0xbb, 0xcc, 0xf4,
  0x0d, 0x16, 0xff, 0x10, 0xfc, 0x34, 0xd7, 0x0c, 0xe4, 0x23, 0x10, 0x05,
  0xf8, 0xcc, 0x27, 0x12, 0x3f, 0xbe, 0xfb, 0xfd, 0x00, 0xee, 0x06, 0x0d,
  0x1c, 0x14, 0x0d, 0x01, 0x0b, 0xff, 0xe9, 0x05, 0x1a, 0xfa, 0x0c, 0xfd,
  0xf8, 0xc9, 0xec, 0xf0, 0x1f, 0xb1, 0x0f, 0x39, 0x07, 0xf0, 0x15, 0xfe,
  0xc2, 0xf7, 0x11, 0x05, 0xd7, 0xa0, 0x23, 0xfb, 0x0b, 0xba, 0x01, 0xec,
  0xfd, 0xda, 0x19, 0xfb, 0x0a, 0x32, 0xfc, 0xfa, 0xed, 0x03, 0xf3, 0xff,
  0x11, 0xfb, 0xf3, 0xff, 0xd2, 0xb8, 0x34, 0xd5, 0xdb, 0xcd, 0x12, 0xf7,
  0xc7, 0xcd, 0x32, 0x07, 0xad, 0xf5, 0x08, 0xf4, 0xd4, 0x92, 0x02, 0x01,
  0x0f, 0xbf, 0x00, 0xf0, 0xf5, 0xed, 0x19, 0x10, 0x16, 0x27, 0x07, 0xe6,
  0xf9, 0x00, 0xe2, 0x04, 0xf0, 0xfa, 0xec, 0xfe, 0xd1, 0xea, 0x28, 0xf8,
  0xee, 0x02, 0x24, 0xca, 0xa2, 0xc7, 0x41, 0xe5, 0xfc, 0xe9, 0x0e, 0x02,
  0xdc, 0xf2, 0xe5, 0xf1, 0xea, 0xfb, 0x2b, 0x00, 0xec, 0xe8, 0x36, 0xe8,
  0xff, 0xf3, 0x11, 0xff, 0x03, 0xf0, 0xf7, 0xff, 0xfa, 0x02, 0x07, 0x00,
  0xbd, 0xf2, 0x22, 0x33, 0x16, 0x14, 0x20, 0xc0, 0x01, 0xf1, 0x6e, 0xc6,
  0x34, 0xf7, 0x13, 0x16, 0x19, 0x3f, 0xe7, 0xf1, 0x11, 0x15, 0xf9, 0x04,
  0xf8, 0xfd, 0xfb, 0x03, 0x03, 0x14, 0xf6, 0x02, 0xf5, 0x07, 0xf1, 0xff,
  0xfb, 0x04, 0xf3, 0xfb, 0xaf, 0xdf, 0x1f, 0x27, 0x27, 0x13, 0x29, 0xc3,
  0xf6, 0x00, 0x32, 0xe5, 0x53, 0x1d, 0x2b, 0xf7, 0x31, 0x56, 0x0b, 0xfc,
  0x13, 0x18, 0xff, 0x05, 0x01, 0x0f, 0x06, 0x05, 0x07, 0xf4, 0x09, 0x02,
  0xf6, 0xfa, 0xfc, 0xfe, 0xed, 0xfd, 0xe6, 0x00, 0xf5, 0xea, 0xe4, 0x35,
  0x29, 0x33, 0x10, 0xcf, 0x15, 0x09, 0x10, 0x00, 0x43, 0x43, 0x2c, 0xf2,
  0x23, 0x4e, 0xeb, 0xfe, 0x01, 0x1f, 0x0d, 0x16, 0x0c, 0x0e, 0x02, 0xf6,
  0xfd, 0xf8, 0x1f, 0xfa, 0xff, 0x0b, 0xf8, 0x00, 0x13, 0xfd, 0x03, 0x07,
  0xea, 0xcb, 0x00, 0x36, 0x3d, 0x16, 0xfc, 0xe1, 0x08, 0x07, 0xff, 0xfc,
  0x16, 0x0b, 0x10, 0xf4, 0x42, 0x4e, 0xf3, 0xf2, 0x15, 0x1a, 0x06, 0x0d,
  0x1c, 0xff, 0x08, 0xff, 0x07, 0x0e, 0x02, 0xf4, 0xf7, 0x05, 0x05, 0xfa,
  0xed, 0xfa, 0xf3, 0x00, 0x00, 0xe2, 0xf0, 0x17, 0xef, 0x12, 0xe6, 0xdb,
  0xff, 0xe5, 0xef, 0xfe, 0x12, 0xe5, 0x1c, 0xf7, 0x06, 0x13, 0xd4, 0x06,
  0x02, 0x05, 0x1d, 0x04, 0xfe, 0x09, 0x0a, 0x07, 0xff, 0x10, 0xfb, 0xfb,
  0xff, 0x05, 0xf7, 0x03, 0xff, 0x04, 0xf7, 0xf8, 0x17, 0xdd, 0x09, 0x05,
  0xc5, 0x03, 0xd1, 0xd7, 0xf8, 0xd3, 0xe4, 0x0a, 0x03, 0xe1, 0xfb, 0xf6,
  0xf3, 0xe8, 0xcf, 0x01, 0x01, 0xdd, 0xff, 0xfd, 0xf4, 0x00, 0xe4, 0x03,
  0x03, 0x0e, 0x0c, 0x00, 0x05, 0xff, 0xf2, 0x00, 0x15, 0x02, 0xfc, 0x00,
  0x02, 0x10, 0xf0, 0xfa, 0xec, 0xe8, 0xe3, 0xea, 0xeb, 0xe0, 0xf3, 0x12,
  0x18, 0xe5, 0xeb, 0xf0, 0xee, 0xff, 0xd6, 0xfd, 0x10, 0xe5, 0x2d, 0x00,
  0xf5, 0x06, 0xf7, 0xfa, 0x0c, 0xf0, 0xfb, 0x00, 0xfe, 0xef, 0x0a, 0x00,
  0xfa, 0xfb, 0xf2, 0x01, 0x22, 0x17, 0xff, 0xfb, 0xd3, 0xff, 0xe1, 0xf4,
  0xfe, 0xf7, 0xe2, 0x0a, 0xff, 0xff, 0xee, 0x03, 0xef, 0x04, 0xfc, 0xfd,
  0x05, 0xde, 0x11, 0xff, 0x0f, 0x0c, 0xf2, 0x0d, 0x01, 0x00, 0x0f, 0x00,
  0xff, 0x06, 0xf8, 0x00, 0x00, 0x12, 0xf6, 0x00, 0xff, 0x02, 0xef, 0xf9,
  0xe4, 0x11, 0xbd, 0xff, 0x02, 0xef, 0xf8, 0xfb, 0x10, 0xf9, 0xe1, 0x25,
  0x08, 0x0a, 0xd2, 0x08, 0x0c, 0xf9, 0xe7, 0x11, 0x0b, 0x33, 0xfb, 0xfe,
  0xfb, 0x01, 0xfd, 0x00, 0xed, 0x09, 0xfc, 0x00, 0x07, 0x15, 0xf9, 0xf9,
  0xee, 0xf6, 0xeb, 0x16, 0x13, 0xf8, 0xdc, 0x05, 0x0a, 0xfe, 0x04, 0xfa,
  0x10, 0xfe, 0xd5, 0x16, 0x19, 0x19, 0xdf, 0x1d, 0x0d, 0xf6, 0xf9, 0x16,
  0x0b, 0x1c, 0xf0, 0x07, 0x0d, 0x1e, 0x07, 0x01, 0x06, 0x04, 0xff, 0x00,
  0x04, 0x01, 0xfc, 0x00, 0xe9, 0x15, 0xe4, 0x1f, 0xe1, 0xd3, 0xd2, 0xfb,
  0xee, 0xf7, 0xf8, 0x07, 0xff, 0xeb, 0xf5, 0x03, 0x11, 0x02, 0xed, 0x08,
  0xfe, 0x02, 0x03, 0x00, 0x10, 0x19, 0x04, 0xfb, 0x12, 0x1f, 0x03, 0x00,
  0xfa, 0x07, 0x04, 0x04, 0x04, 0x05, 0x08, 0x00, 0xf2, 0x16, 0xfb, 0x03,
  0x02, 0xd6, 0xd8, 0xff, 0xff, 0xf1, 0xf3, 0x05, 0xfe, 0xfa, 0xf0, 0xff,
  0x1e, 0xf0, 0xe4, 0xfc, 0xf7, 0xfc, 0xfd, 0xff, 0x09, 0x1b, 0x21, 0xfc,
  0x00, 0x0a, 0xff, 0x00, 0x02, 0x17, 0xe9, 0x00, 0x06, 0x0e, 0xec, 0x00,
  0xec, 0x0f, 0xfa, 0xe9, 0xc6, 0xf4, 0xd9, 0x00, 0xfd, 0xd2, 0x16, 0xf6,
  0xfd, 0xf3, 0x0f, 0xfe, 0x02, 0xfb, 0x0b, 0x01, 0xfb, 0xf9, 0x1b, 0xfd,
  0x09, 0x0c, 0x1f, 0x00, 0x04, 0x0b, 0x0c, 0x00, 0x03, 0x14, 0x08, 0x00,
  0x0c, 0x02, 0x08, 0x00, 0x0e, 0xec, 0x0b, 0xee, 0x13, 0xd8, 0x03, 0xe9,
  0xfc, 0xdd, 0x05, 0xfe, 0xfc, 0x15, 0xfc, 0xfe, 0x04, 0xf8, 0xfe, 0xff,
  0x0e, 0xf3, 0xf5, 0x03, 0xfd, 0xf6, 0x12, 0xfb, 0xf2, 0x03, 0xf7, 0x02,
  0xfc, 0x1b, 0x08, 0x00, 0x02, 0x05, 0xf7, 0xff, 0xf8, 0xf8, 0x0d, 0xca,
  0xdf, 0xd7, 0x08, 0xb2, 0xdc, 0xd8, 0xf9, 0xf7, 0xf9, 0xf5, 0xc1, 0x05,
  0xe2, 0x04, 0xd3, 0xf7, 0xfd, 0x0a, 0xf8, 0x01, 0xef, 0x03, 0xf3, 0x00,
  0x03, 0x0c, 0xfa, 0x00, 0xfd, 0x10, 0xf9, 0x09, 0x0b, 0x09, 0xf1, 0x01,
  0xe6, 0x03, 0x18, 0xb8, 0xc4, 0xe4, 0xee, 0xa0, 0xc0, 0xdc, 0x05, 0xef,
  0x0e, 0xf6, 0xfc, 0xe6, 0x0d, 0xf5, 0x00, 0x05, 0xee, 0xf8, 0x18, 0xfd,
  0xfa, 0x06, 0xf8, 0xfc, 0xf6, 0x02, 0x0b, 0x00, 0x07, 0xfe, 0xf6, 0x00,
  0x17, 0x17, 0x03, 0x04, 0xe3, 0x06, 0x1b, 0xff, 0xe7, 0xc8, 0xe2, 0xa8,
  0xd3, 0xc3, 0xfc, 0xdf, 0xef, 0xfe, 0xe6, 0xef, 0x02, 0x0d, 0x03, 0xed,
  0xf7, 0xee, 0x06, 0x01, 0x06, 0x13, 0x09, 0xf8, 0x0c, 0x06, 0x0e, 0x00,
  0x10, 0x07, 0x13, 0x02, 0x10, 0x00, 0x0c, 0x07, 0xd2, 0xfa, 0x1f, 0xfb,
  0xf6, 0xe0, 0xbf, 0xaf, 0xec, 0xe6, 0xfa, 0xdd, 0x0e, 0x01, 0x06, 0x0a,
  0x13, 0x1d, 0x04, 0xfa, 0xee, 0x13, 0xf2, 0x01, 0xfa, 0x15, 0x06, 0xf8,
  0x01, 0x07, 0x08, 0x09, 0xff, 0x27, 0xff, 0x02, 0x1a, 0x22, 0x04, 0xff,
  0xdc, 0xf1, 0x1d, 0x28, 0x1a, 0xfb, 0x14, 0xf1, 0xf9, 0xea, 0x51, 0xe3,
  0x40, 0xfc, 0x1e, 0xfe, 0x12, 0x1c, 0x11, 0xf9, 0xf4, 0xf8, 0x1d, 0x0d,
  0x00, 0x19, 0x1f, 0xf8, 0x03, 0xf9, 0x21, 0x01, 0x1b, 0x0a, 0x17, 0x03,
  0x11, 0x16, 0x0d, 0xfd, 0xbd, 0xef, 0x3c, 0x1e, 0x00, 0x0b, 0x3d, 0xde,
  0xeb, 0xe6, 0x59, 0xf8, 0x2b, 0xfc, 0xfd, 0x04, 0x33, 0x32, 0x1b, 0x01,
  0x08, 0x0f, 0x14, 0x02, 0x14, 0x1b, 0x16, 0xf4, 0x10, 0x01, 0x1b, 0xff,
  0x0d, 0x08, 0x1d, 0x04, 0xf3, 0x0a, 0x0e, 0x02, 0xa2, 0xed, 0x22, 0x2d,
  0x01, 0x08, 0x19, 0xef, 0x08, 0xff, 0x28, 0xdf, 0x2c, 0xea, 0xfa, 0xfe,
  0x0f, 0x0f, 0x09, 0xf9, 0x24, 0x22, 0x04, 0x11, 0x27, 0xf1, 0x16, 0x02,
  0x0a, 0x0f, 0x0f, 0x01, 0x21, 0x0a, 0xf6, 0x01, 0x10, 0x06, 0x12, 0x05,
  0xb3, 0xf7, 0xf3, 0x2e, 0xe6, 0xec, 0x1c, 0xf6, 0xf4, 0x25, 0x18, 0xe3,
  0x1f, 0xc8, 0x1c, 0xf0, 0x25, 0x3f, 0xfc, 0xfd, 0xe9, 0x04, 0x03, 0xf4,
  0x10, 0x00, 0x0c, 0x03, 0x1a, 0x11, 0x1d, 0xfd, 0x11, 0x09, 0x15, 0x04,
  0x1d, 0x1a, 0x15, 0x00, 0xca, 0x02, 0xed, 0x21, 0xf5, 0x07, 0x00, 0x01,
  0x10, 0x27, 0xe5, 0x04, 0x06, 0xf4, 0xff, 0x03, 0x1d, 0x31, 0x0f, 0x03,
  0x14, 0x2c, 0xe5, 0x22, 0x0b, 0x1c, 0x18, 0x0c, 0x08, 0xfb, 0x23, 0xff,
  0xf3, 0xf2, 0x26, 0x10, 0x0e, 0x0e, 0x19, 0x01, 0xde, 0x21, 0xce, 0x25,
  0x00, 0x15, 0x0b, 0xf8, 0x2c, 0x15, 0xa9, 0xfa, 0xee, 0xe4, 0xf9, 0x13,
  0x1b, 0x13, 0x02, 0x0e, 0x13, 0xf5, 0xff, 0x0d, 0x0b, 0x0c, 0x20, 0x0d,
  0xee, 0x04, 0x0b, 0x08, 0x06, 0xf3, 0x20, 0x06, 0xfb, 0x0d, 0x21, 0xf8,
  0xfa, 0xcf, 0xd7, 0x1a, 0x1d, 0x18, 0xda, 0x04, 0xfd, 0x04, 0xb3, 0x25,
  0xe1, 0xef, 0xfd, 0x02, 0x06, 0x11, 0xe1, 0x07, 0xf6, 0xf0, 0xf1, 0x13,
  0xfd, 0xf9, 0xef, 0xf5, 0xf0, 0xdb, 0xf0, 0xff, 0xf9, 0xfb, 0x18, 0x00,
  0x05, 0xfd, 0x13, 0xff, 0xf4, 0xf1, 0xdd, 0x15, 0x3a, 0x14, 0xe5, 0xe2,
  0x16, 0xff, 0xe4, 0x18, 0xd5, 0xf1, 0xf2, 0xf6, 0x2d, 0xf8, 0xe1, 0x0d,
  0xf0, 0xf5, 0xed, 0x06, 0x15, 0x24, 0x12, 0x05, 0xf2, 0xf8, 0xe8, 0x02,
  0x0f, 0x15, 0x08, 0x08, 0x15, 0x0b, 0x08, 0xfd, 0xd6, 0xea, 0xd6, 0x10,
  0x28, 0x07, 0xf4, 0x01, 0xf8, 0x08, 0x06, 0x20, 0xc1, 0xf5, 0xd8, 0xe7,
  0xe1, 0xfd, 0xbf, 0x15, 0xe4, 0x09, 0xd9, 0x0c, 0x04, 0x2e, 0xe8, 0x07,
  0xf7, 0xed, 0xe1, 0x00, 0x15, 0xfc, 0xee, 0x00, 0xf3, 0x08, 0xf9, 0xf5,
  0xec, 0xf6, 0xec, 0xcd, 0x1b, 0x17, 0xfd, 0xff, 0x2e, 0x09, 0x01, 0x01,
  0xbb, 0xfa, 0xf6, 0xf2, 0xe6, 0xe5, 0xf1, 0xf7, 0xd3, 0x06, 0xdc, 0x03,
  0x13, 0x21, 0xf6, 0xf8, 0xff, 0xf2, 0xf2, 0x03, 0x11, 0x0f, 0xec, 0xfc,
  0xfc, 0x0b, 0xf5, 0x0d, 0x26, 0xe6, 0xf9, 0xae, 0xfd, 0xe2, 0xfe, 0xea,
  0xf3, 0x0e, 0x0e, 0xed, 0xbf, 0xf5, 0xe6, 0x07, 0xe8, 0xe0, 0xe0, 0x08,
  0xf7, 0xfd, 0xfe, 0x01, 0x0b, 0x09, 0xf9, 0x02, 0xf3, 0x18, 0xf7, 0x01,
  0xea, 0x27, 0x0b, 0x03, 0x0b, 0x14, 0x05, 0x01, 0x06, 0xea, 0x05, 0xab,
  0xec, 0xd6, 0x0e, 0xd1, 0xfd, 0xfe, 0x12, 0xf5, 0xe1, 0xdd, 0xfd, 0xf8,
  0xf1, 0xe4, 0xff, 0xf9, 0x0b, 0xe6, 0x05, 0xf8, 0x13, 0xfd, 0x13, 0x08,
  0x14, 0x13, 0x0f, 0x0f, 0x0d, 0x23, 0x2a, 0x00, 0x0f, 0x0d, 0x15, 0xfe,
  0xe9, 0xe2, 0x0d, 0xc0, 0xe7, 0xf4, 0x15, 0xfe, 0xee, 0x02, 0x17, 0xf2,
  0xf3, 0xd7, 0xd3, 0x02, 0x13, 0xfd, 0xf1, 0x12, 0xf9, 0xfc, 0xf0, 0xf7,
  0x1b, 0x15, 0xfd, 0x03, 0x0c, 0x1f, 0x1c, 0x08, 0x11, 0x18, 0x0e, 0x00,
  0x0a, 0x12, 0x1b, 0xfa, 0xe5, 0xf3, 0x13, 0xa1, 0xc3, 0xc3, 0xee, 0xed,
  0xf2, 0x11, 0x37, 0xef, 0xe9, 0xd2, 0x2b, 0x0d, 0x14, 0xd8, 0x22, 0x03,
  0x13, 0x03, 0x1c, 0x0d, 0x2a, 0x2a, 0x2e, 0x00, 0x21, 0x1a, 0x20, 0x05,
  0x0e, 0x04, 0x1e, 0xff, 0x09, 0x0e, 0x18, 0x05, 0xdf, 0x0b, 0xdc, 0xb4,
  0xaf, 0xb5, 0xe3, 0xbc, 0xd7, 0x03, 0x09, 0xe3, 0xf2, 0xf1, 0xfa, 0xea,
  0xe1, 0xe2, 0x02, 0xed, 0x04, 0xfa, 0x06, 0x08, 0x26, 0x1f, 0x14, 0xfe,
  0x18, 0x09, 0x12, 0x01, 0x21, 0x11, 0x1a, 0x00, 0x13, 0x01, 0x08, 0x05,
  0xfd, 0x14, 0xd0, 0xc4, 0xa8, 0xe1, 0xe6, 0xd2, 0xd9, 0xd1, 0xfc, 0xeb,
  0xf0, 0x00, 0x14, 0xf7, 0xfb, 0xe1, 0x1b, 0xf7, 0x16, 0xf3, 0x1d, 0xf9,
  0x16, 0x1d, 0x1f, 0x09, 0x2a, 0x18, 0x25, 0x00, 0x13, 0x03, 0x07, 0xfe,
  0x06, 0x03, 0x06, 0x04, 0x0a, 0x0a, 0xde, 0x02, 0xf7, 0x25, 0xde, 0xdf,
  0xd7, 0xd1, 0x0b, 0xfc, 0x0d, 0xf7, 0x0b, 0xfa, 0x25, 0xfa, 0x09, 0x02,
  0x17, 0xf3, 0x31, 0xf6, 0x18, 0x1c, 0x3a, 0x09, 0x25, 0x06, 0x22, 0x04,
  0x0a, 0x08, 0x03, 0x00, 0x0c, 0x17, 0x01, 0x03, 0x01, 0x03, 0xef, 0xfd,
  0x0e, 0x16, 0x13, 0xf2, 0xfb, 0xf4, 0xf4, 0x0a, 0x0a, 0x17, 0x00, 0xff,
  0x0c, 0xd4, 0x10, 0x01, 0x1c, 0x08, 0x0f, 0x00, 0x1a, 0x10, 0x21, 0x01,
  0x00, 0x14, 0x09, 0x03, 0xfd, 0x05, 0xf7, 0x00, 0x06, 0x09, 0x00, 0x02,
  0xff, 0xfa, 0x1e, 0x36, 0x3f, 0x1e, 0xff, 0xf8, 0xfd, 0x1d, 0xfb, 0x11,
  0x0c, 0x41, 0x25, 0xde, 0xe5, 0xda, 0x08, 0x03, 0x29, 0xf6, 0x19, 0x01,
  0x0e, 0x06, 0x1a, 0x04, 0x0f, 0x00, 0x1b, 0x03, 0x17, 0x09, 0x1e, 0x09,
  0x0e, 0x13, 0x16, 0x02, 0xfb, 0xf2, 0x18, 0xe8, 0x06, 0xc2, 0x42, 0x4f,
  0x12, 0x1a, 0xfd, 0xf3, 0xe0, 0xd3, 0xf3, 0x02, 0x23, 0xb7, 0x0a, 0x00,
  0x0a, 0x1c, 0xf1, 0xff, 0xf5, 0x16, 0xea, 0x05, 0xfc, 0xfb, 0x0f, 0x00,
  0x17, 0xf7, 0xed, 0x00, 0x00, 0x17, 0x14, 0xff, 0xb9, 0xe2, 0xf0, 0xdf,
  0xe8, 0xe3, 0xf7, 0x13, 0x0a, 0x05, 0x1b, 0xfd, 0xea, 0x1d, 0x16, 0xfe,
  0xf3, 0xd1, 0x1b, 0x01, 0x02, 0xfa, 0xf0, 0xfc, 0x10, 0x04, 0xfe, 0x0c,
  0xf3, 0xef, 0x08, 0x00, 0x0e, 0xf2, 0x24, 0xff, 0xf3, 0x00, 0x11, 0x00,
  0xc7, 0xe7, 0xfb, 0xd2, 0x04, 0xfa, 0xf5, 0xfe, 0xe1, 0xa4, 0xfa, 0x0e,
  0xe8, 0x1e, 0x2a, 0x09, 0xdd, 0xe7, 0x07, 0xfc, 0xed, 0xf9, 0x0d, 0xf5,
  0xf7, 0x07, 0x06, 0xfc, 0xe4, 0xed, 0x03, 0x00, 0xee, 0x01, 0xfd, 0x06,
  0xff, 0x09, 0x07, 0xfc, 0xe5, 0xf8, 0x1f, 0xc5, 0xe6, 0x01, 0x09, 0xee,
  0xc3, 0xc0, 0x3b, 0xec, 0xc3, 0x00, 0xfc, 0x00, 0xf2, 0xf4, 0xff, 0x00,
  0xfa, 0xf8, 0xf2, 0x00, 0x1a, 0x0a, 0x07, 0xfc, 0x07, 0x03, 0x05, 0x00,
  0x0e, 0xf5, 0xfa, 0x03, 0x06, 0x14, 0xfc, 0xf5, 0xed, 0xff, 0x17, 0xcc,
  0xec, 0xe4, 0x2e, 0xff, 0xd8, 0x02, 0x44, 0xf1, 0xfa, 0x01, 0xdd, 0xf9,
  0xe8, 0xfe, 0x03, 0x00, 0xf2, 0xf3, 0xde, 0x00, 0x12, 0x0f, 0xe5, 0x00,
  0x02, 0xf8, 0xfa, 0x00, 0x0a, 0x08, 0x0c, 0x00, 0xf9, 0xfd, 0xf7, 0xfa,
  0xf0, 0x06, 0x1a, 0x1a, 0xf5, 0x4c, 0xf2, 0xde, 0xf8, 0x14, 0x0d, 0xf5,
  0xf3, 0x1a, 0xfc, 0xff, 0x06, 0x29, 0x03, 0xff, 0x00, 0xfa, 0xe7, 0x00,
  0xf2, 0x10, 0xec, 0x00, 0xe7, 0xfd, 0x05, 0x00, 0xf0, 0xf4, 0x00, 0x00,
  0x09, 0xf4, 0xfc, 0x00, 0xd1, 0x12, 0x14, 0x00, 0x0d, 0xec, 0x19, 0xd9,
  0x17, 0xec, 0x15, 0xf9, 0x12, 0x0d, 0xf3, 0xe9, 0xff, 0x27, 0xe9, 0xf9,
  0xf9, 0xea, 0xf6, 0xf8, 0xfc, 0x1c, 0xef, 0x03, 0x04, 0x15, 0xf3, 0x00,
  0x01, 0x02, 0x07, 0x01, 0x02, 0x0e, 0xf7, 0x00, 0xf7, 0x1b, 0x0a, 0xff,
  0x06, 0xf2, 0xe5, 0xf2, 0xea, 0xe4, 0x03, 0xfb, 0xf5, 0xf1, 0xfa, 0x03,
  0xf2, 0x0b, 0xf5, 0xfd, 0xe1, 0xe9, 0xee, 0xfb, 0x0c, 0x25, 0x02, 0xf8,
  0x04, 0xfe, 0xfb, 0x01, 0xfe, 0x05, 0x02, 0x03, 0x0b, 0x15, 0xff, 0x00,
  0xe3, 0xfd, 0x0d, 0xcf, 0xdf, 0xff, 0xec, 0xf5, 0xd0, 0xd2, 0xf2, 0xf2,
  0xf3, 0xe8, 0x03, 0xef, 0xf0, 0xf7, 0xfb, 0x1f, 0x10, 0x20, 0xee, 0xff,
  0x18, 0x2b, 0x00, 0x06, 0xff, 0xff, 0xee, 0x00, 0x08, 0xfe, 0xfa, 0xff,
  0x07, 0x09, 0x06, 0x00, 0x04, 0x12, 0xf5, 0xe8, 0xdb, 0xea, 0xf4, 0xf2,
  0xea, 0xcb, 0xe1, 0xfd, 0xf2, 0xf2, 0xe5, 0xfb, 0x2b, 0xef, 0xfa, 0x02,
  0x08, 0x04, 0xeb, 0x00, 0x08, 0x1e, 0x05, 0x06, 0xf3, 0xf7, 0xea, 0xf4,
  0xf8, 0xef, 0xf5, 0x00, 0x05, 0xfd, 0xf5, 0x00, 0x09, 0x0b, 0x13, 0xec,
  0xe0, 0xde, 0xe0, 0x00, 0xff, 0xdb, 0x01, 0xfc, 0xfd, 0xdf, 0xdd, 0xfd,
  0xe4, 0xf5, 0x04, 0xfe, 0x05, 0xff, 0x10, 0x00, 0x05, 0x2f, 0xf9, 0x00,
  0x05, 0xfa, 0xf0, 0xff, 0x03, 0x03, 0xf6, 0x00, 0xff, 0x0c, 0x05, 0xff,
  0x17, 0x20, 0x05, 0xff, 0xe5, 0xd8, 0xdb, 0x00, 0xd1, 0xe6, 0xe3, 0xfe,
  0xe1, 0xe3, 0xdb, 0xff, 0x08, 0xf5, 0x3c, 0x00, 0xeb, 0x05, 0x12, 0x00,
  0xf0, 0xff, 0xfd, 0x00, 0xf3, 0xfd, 0xf0, 0x00, 0xfe, 0x05, 0xfa, 0x00,
  0x10, 0x0d, 0xfb, 0x00, 0xfd, 0x28, 0x2e, 0xdd, 0xe5, 0xcd, 0xca, 0x00,
  0xf5, 0xef, 0xde, 0xfd, 0xf7, 0xf6, 0xe7, 0x00, 0xef, 0x05, 0x17, 0xff,
  0xfa, 0xf6, 0xf9, 0x00, 0xfd, 0x07, 0xfe, 0x07, 0x09, 0x07, 0xf5, 0x00,
  0xfb, 0xfc, 0xf8, 0x00, 0x08, 0x04, 0x01, 0x01, 0xee, 0xf6, 0x15, 0xe1,
  0xe8, 0xe0, 0xd6, 0xf4, 0x01, 0xda, 0x01, 0x00, 0x03, 0xea, 0xec, 0xfd,
  0xef, 0xfd, 0x1a, 0x00, 0xfd, 0xfd, 0xf6, 0x00, 0x03, 0x06, 0x06, 0xfd,
  0x0e, 0x09, 0x02, 0x00, 0xfa, 0x04, 0x02, 0x00, 0x02, 0x0b, 0xfa, 0xff,
  0x03, 0x0f, 0xfd, 0xc0, 0xdf, 0x21, 0xe0, 0xf2, 0xe2, 0x04, 0xff, 0x00,
  0x0d, 0xe1, 0xf2, 0x01, 0xee, 0x00, 0xe5, 0x00, 0x01, 0x01, 0xf4, 0x00,
  0x16, 0x09, 0xfd, 0xfc, 0xf7, 0xf8, 0xfc, 0x00, 0x03, 0x04, 0xfc, 0x00,
  0xfc, 0xfc, 0xfe, 0x00, 0xf6, 0x04, 0xf0, 0xd9, 0xe5, 0xed, 0xd7, 0xf9,
  0xf2, 0x03, 0xfd, 0xfb, 0x0a, 0xd5, 0xe8, 0x00, 0x04, 0x0c, 0xe8, 0x06,
  0x12, 0x21, 0xf7, 0x01, 0xf9, 0x08, 0xf8, 0x00, 0x0c, 0xfe, 0xff, 0x00,
  0xf4, 0x0e, 0x03, 0x00, 0x03, 0xf7, 0xff, 0x00, 0x24, 0x12, 0x13, 0xf3,
  0xfc, 0x22, 0xde, 0x1b, 0xf5, 0x0f, 0xd7, 0xf9, 0xe2, 0xef, 0xf2, 0xff,
  0x25, 0x0f, 0xe8, 0x1e, 0x0c, 0x03, 0xf4, 0x00, 0x04, 0x05, 0xec, 0x08,
  0x03, 0x02, 0xf9, 0x01, 0xfd, 0x03, 0xfb, 0x00, 0x06, 0xff, 0xff, 0x00,
  0x36, 0x14, 0xf3, 0xe5, 0x11, 0x1b, 0xd5, 0xfb, 0xf5, 0x15, 0xb3, 0xf9,
  0xe1, 0xf7, 0xfb, 0x02, 0xfd, 0xd9, 0xea, 0x0e, 0xda, 0xf9, 0xe3, 0xf8,
  0xeb, 0x01, 0xec, 0x00, 0xe9, 0xff, 0xfd, 0xf7, 0xfe, 0x0d, 0xf8, 0x00,
  0xf4, 0x04, 0xf7, 0x00, 0x16, 0x14, 0xf1, 0xc7, 0x05, 0x1c, 0xd0, 0x09,
  0x19, 0x2f, 0xa7, 0xef, 0xd9, 0x0f, 0x1b, 0x14, 0xdf, 0xf5, 0xe3, 0x0b,
  0xe6, 0xdf, 0xef, 0x05, 0xfa, 0x03, 0xf7, 0x03, 0xe8, 0x0a, 0xfa, 0x00,
  0x04, 0x03, 0xf2, 0x06, 0xfc, 0x0d, 0x00, 0xfb, 0xda, 0x0c, 0xdd, 0xe1,
  0x02, 0x1f, 0x19, 0x0b, 0xff, 0xfb, 0xd8, 0xe2, 0xe9, 0x15, 0x2a, 0x05,
  0xf7, 0xd8, 0xe5, 0xf5, 0xf4, 0xe0, 0xe9, 0xfd, 0xfe, 0xe2, 0x02, 0x00,
  0x06, 0x0b, 0xf8, 0x00, 0x06, 0x01, 0xfc, 0xfc, 0x04, 0x02, 0xf6, 0x00,
  0xf7, 0x02, 0x1b, 0xca, 0x1a, 0xf4, 0x2c, 0x1a, 0xef, 0x09, 0xf1, 0x00,
  0xb1, 0xdb, 0x0d, 0x00, 0xca, 0xbc, 0xf3, 0x00, 0xf6, 0xdb, 0xe0, 0x01,
  0x05, 0xf8, 0x02, 0x00, 0x14, 0xf6, 0xee, 0xfe, 0x23, 0xff, 0xf3, 0x00,
  0x05, 0xf1, 0x06, 0x00, 0xe7, 0x06, 0x11, 0xa7, 0x03, 0xda, 0x13, 0x18,
  0xdc, 0x0e, 0x0a, 0x15, 0xb9, 0xe8, 0x01, 0x02, 0xc9, 0xde, 0xc9, 0xf7,
  0xf4, 0x0d, 0xdb, 0x08, 0xfd, 0xf2, 0xf2, 0x00, 0xfc, 0xf6, 0xfd, 0x00,
  0x06, 0xf2, 0xfa, 0x00, 0x07, 0x00, 0x00, 0xfd, 0x12, 0xe6, 0x13, 0xd8,
  0x26, 0x13, 0x02, 0x11, 0xf4, 0x2b, 0x3d, 0x15, 0xe3, 0xf1, 0xd0, 0xfa,
  0xf5, 0x1f, 0xfd, 0x09, 0x0c, 0xf7, 0xea, 0x00, 0xf7, 0xf8, 0x01, 0x00,
  0xe9, 0xeb, 0xef, 0x00, 0x04, 0xf3, 0x06, 0x00, 0x0a, 0xed, 0xef, 0x06,
  0xfc, 0xd8, 0xf3, 0x18, 0x3d, 0x53, 0x11, 0x1b, 0x2e, 0x2e, 0x1e, 0xf4,
  0xd5, 0xf0, 0xe0, 0x1a, 0x0e, 0x09, 0xf0, 0x00, 0xfd, 0x0c, 0xfa, 0x00,
  0xff, 0x0b, 0xfd, 0xff, 0x13, 0x11, 0xf0, 0x00, 0x07, 0xf7, 0xf2, 0xfa,
  0xfa, 0xf4, 0x05, 0x02, 0x1c, 0xf4, 0x06, 0x20, 0x16, 0x1a, 0xf5, 0xf2,
  0x35, 0x27, 0xef, 0x00, 0x11, 0x3a, 0xf8, 0xfe, 0xf2, 0x08, 0x05, 0x00,
  0x05, 0xf6, 0xfb, 0xfb, 0xf9, 0x04, 0xfa, 0xff, 0x0c, 0x08, 0x13, 0x00,
  0x02, 0x15, 0xef, 0x00, 0xf8, 0x14, 0x01, 0x00, 0x2f, 0xf7, 0x19, 0xf2,
  0xee, 0x00, 0x30, 0xf7, 0x0b, 0x0e, 0x0d, 0x05, 0x09, 0x1b, 0xfa, 0x0b,
  0xf1, 0xf8, 0x0c, 0xfc, 0xdd, 0xdb, 0xf5, 0xfa, 0xea, 0xfe, 0x0a, 0xfe,
  0xf8, 0xfb, 0x0e, 0x00, 0xfb, 0x08, 0x03, 0x00, 0x01, 0x16, 0xf8, 0x00,
  0x0b, 0xfa, 0x25, 0xd0, 0x0d, 0x0a, 0x4f, 0xd6, 0xec, 0xf6, 0x15, 0xfd,
  0x08, 0x25, 0xfa, 0x03, 0xfa, 0xf9, 0xfe, 0x05, 0xe5, 0xf0, 0xf7, 0x00,
  0xf7, 0xf7, 0xfd, 0xff, 0xfc, 0x09, 0xf6, 0x00, 0xf7, 0x0c, 0xf8, 0xf9,
  0xf9, 0x09, 0xf5, 0x00, 0x01, 0xfe, 0x2e, 0xe6, 0xee, 0x1a, 0xfa, 0xcb,
  0x03, 0xdd, 0x0c, 0x0b, 0xef, 0x26, 0xdc, 0x04, 0x00, 0x08, 0x0e, 0x02,
  0xf9, 0xd1, 0xfc, 0xff, 0xf5, 0xf7, 0xf3, 0xff, 0xf8, 0xfc, 0xfc, 0x00,
  0xfc, 0x0b, 0xee, 0xfc, 0x01, 0x0f, 0xf7, 0xf4, 0xec, 0xfd, 0x09, 0xe1,
  0xef, 0x0c, 0x22, 0xca, 0x0c, 0xf1, 0xf1, 0x06, 0xfd, 0x09, 0x0d, 0xff,
  0xed, 0xde, 0xfb, 0xfa, 0x09, 0xd4, 0x0f, 0x01, 0x13, 0xfa, 0xfe, 0xf5,
  0x13, 0x05, 0x0f, 0x03, 0x1b, 0x01, 0x1d, 0x00, 0x17, 0x0d, 0x0e, 0x00,
  0xfc, 0x07, 0x09, 0xe4, 0xec, 0xf5, 0x11, 0xc9, 0x01, 0xe4, 0x07, 0xf5,
  0xee, 0x00, 0x0b, 0xf7, 0xf9, 0xff, 0xf5, 0xf8, 0xf4, 0xd6, 0x00, 0xee,
  0x00, 0xfc, 0xe9, 0xf0, 0xf9, 0xe2, 0x02, 0x07, 0x06, 0xe4, 0x15, 0x00,
  0x06, 0x07, 0x12, 0xfa, 0xf8, 0xdf, 0xfe, 0xf3, 0x01, 0x0e, 0xfe, 0xc1,
  0x01, 0xed, 0x0e, 0xdf, 0xf8, 0xf3, 0xfe, 0xf7, 0xea, 0xf5, 0x0f, 0x01,
  0xf0, 0xd3, 0x05, 0xfa, 0x02, 0xe6, 0xf3, 0xf0, 0xde, 0xec, 0x03, 0x01,
  0x12, 0x00, 0x06, 0x01, 0x18, 0x0f, 0x13, 0x02, 0xe9, 0xd9, 0x12, 0xed,
  0x1e, 0x0d, 0x1f, 0xa1, 0xf6, 0xf6, 0xf7, 0xfb, 0xe8, 0x2a, 0xeb, 0xf4,
  0xec, 0xde, 0xf9, 0xff, 0xeb, 0xf7, 0xfd, 0xef, 0xff, 0xf3, 0xe4, 0xf9,
  0x0c, 0xff, 0x01, 0x00, 0xfc, 0x05, 0x04, 0x00, 0x01, 0x17, 0x03, 0x00,
  0x0b, 0xd8, 0x07, 0xdd, 0x12, 0xf8, 0x0b, 0x9f, 0xca, 0xdb, 0xfc, 0xe0,
  0x00, 0x21, 0xfc, 0xf3, 0xe8, 0xe4, 0x08, 0xfc, 0xee, 0xdc, 0x15, 0x01,
  0x01, 0x04, 0x0f, 0xfb, 0xfe, 0xec, 0x0e, 0x07, 0x07, 0x14, 0x11, 0x03,
  0x09, 0x14, 0x0c, 0xff, 0xe2, 0xe1, 0xf8, 0xe1, 0xfe, 0x11, 0xeb, 0x88,
  0xf7, 0x02, 0x0d, 0xc5, 0xdc, 0x09, 0xf5, 0xf8, 0xec, 0xeb, 0xfd, 0x0d,
  0x04, 0xf2, 0xfb, 0x03, 0x16, 0xf7, 0x16, 0xe4, 0xf0, 0xe9, 0x1f, 0x08,
  0x1d, 0x13, 0x14, 0x00, 0x05, 0x14, 0x11, 0x03, 0xc9, 0xfb, 0x0a, 0xee,
  0x2c, 0x1d, 0x1c, 0x96, 0xf6, 0xc3, 0xfd, 0xed, 0xf9, 0x20, 0x05, 0xe1,
  0xc9, 0xd3, 0x05, 0xfe, 0xe5, 0xf8, 0x23, 0x0c, 0x14, 0xea, 0x0b, 0xe7,
  0x17, 0xf7, 0xee, 0x05, 0x15, 0x08, 0x00, 0x00, 0x19, 0x0a, 0xfd, 0x02,
  0xee, 0xf9, 0x0b, 0xec, 0x21, 0x1c, 0xfd, 0x99, 0x04, 0xe6, 0x0d, 0xe1,
  0xf9, 0x27, 0x04, 0xf2, 0xd6, 0xea, 0x24, 0xee, 0xf8, 0x08, 0x29, 0xfc,
  0x0b, 0xf6, 0x03, 0xfb, 0x17, 0xec, 0xed, 0xff, 0x18, 0x04, 0x18, 0x07,
  0x17, 0x12, 0x15, 0x00, 0xf0, 0xf6, 0x14, 0x08, 0x1f, 0x24, 0xfe, 0x8e,
  0x00, 0xbb, 0x0d, 0xea, 0x18, 0x2a, 0xfd, 0xd6, 0xfa, 0xef, 0x05, 0xf7,
  0xef, 0x09, 0x13, 0xf3, 0x17, 0xfc, 0x19, 0xf0, 0x06, 0x05, 0x16, 0x09,
  0x26, 0x0a, 0x28, 0x03, 0x07, 0x14, 0x10, 0x01, 0xf4, 0x16, 0x05, 0x2b,
  0x1a, 0x26, 0xfc, 0x99, 0x04, 0xca, 0xf0, 0xf9, 0x0e, 0x52, 0x18, 0xf9,
  0x0b, 0xf0, 0x0a, 0xf7, 0x12, 0xf1, 0x03, 0xf7, 0x0b, 0x02, 0xfa, 0xee,
  0x12, 0xfc, 0x1d, 0x0b, 0x21, 0x15, 0x26, 0x01, 0x19, 0x09, 0x1b, 0xfa,
  0x1a, 0xe2, 0x27, 0x08, 0x2b, 0x05, 0x0d, 0xaf, 0x0b, 0xac, 0x2f, 0xf7,
  0x02, 0x32, 0x0b, 0x07, 0x20, 0xf1, 0x2b, 0x05, 0x03, 0x10, 0xea, 0xfe,
  0x0f, 0xf0, 0x0a, 0x02, 0x0c, 0x08, 0x15, 0x05, 0x0e, 0x0c, 0x1a, 0x01,
  0x14, 0x12, 0x1a, 0x02, 0x02, 0x10, 0xf3, 0x10, 0x26, 0x29, 0xd2, 0xbc,
  0x0e, 0xb5, 0x3c, 0xe6, 0x10, 0x37, 0x12, 0x01, 0xf5, 0xec, 0x1e, 0xeb,
  0xef, 0x02, 0xf0, 0xf4, 0x0e, 0xf2, 0x12, 0xff, 0xf7, 0xe3, 0x21, 0x04,
  0x05, 0x0b, 0x00, 0x0a, 0x07, 0xfe, 0x08, 0x08, 0xe2, 0xf2, 0x01, 0xf6,
  0x25, 0x0b, 0xf3, 0xc5, 0x21, 0xb6, 0x46, 0xc9, 0x21, 0x1e, 0x25, 0x0e,
  0x00, 0x0c, 0x29, 0x00, 0x0f, 0x14, 0xed, 0xfb, 0x13, 0xfc, 0x06, 0xf6,
  0x06, 0xf5, 0x12, 0xff, 0x08, 0x0b, 0x15, 0x00, 0xf7, 0x03, 0x18, 0x00,
  0xeb, 0xfb, 0x06, 0x0f, 0x1d, 0xfc, 0xd6, 0xcb, 0xf6, 0xec, 0x46, 0xef,
  0xee, 0x19, 0x14, 0xe6, 0x0e, 0x1d, 0x16, 0xf3, 0xfd, 0x0f, 0xf9, 0xf4,
  0x06, 0xea, 0x00, 0x01, 0xf2, 0xf0, 0x0d, 0x09, 0x1c, 0x0f, 0x03, 0x04,
  0xf0, 0x13, 0x05, 0xfc, 0xe9, 0xed, 0xf0, 0xfa, 0xf3, 0xfc, 0xe0, 0xd5,
  0x10, 0x32, 0x36, 0x09, 0xfb, 0x0c, 0x2d, 0xe8, 0xfd, 0x0b, 0x08, 0x02,
  0xf7, 0x0c, 0xe9, 0x07, 0x07, 0xe2, 0xfe, 0x04, 0x03, 0xf4, 0x05, 0x05,
  0x0f, 0xff, 0x07, 0x10, 0x0a, 0x0a, 0x1a, 0xf9, 0x08, 0xdc, 0x07, 0x06,
  0xfd, 0xe7, 0x2c, 0xe5, 0x39, 0x28, 0x2d, 0xfb, 0xfa, 0x36, 0xfd, 0xce,
  0x03, 0xe1, 0x00, 0x0f, 0xf5, 0xeb, 0x01, 0xf7, 0xf8, 0xd8, 0xf3, 0x04,
  0x1f, 0xf7, 0x18, 0x01, 0x15, 0x13, 0x06, 0xff, 0x01, 0x03, 0x00, 0x06,
  0x0b, 0xe8, 0xfb, 0x0e, 0x08, 0xe7, 0xf6, 0xf1, 0x15, 0x15, 0x24, 0x22,
  0x05, 0x22, 0xe0, 0xed, 0xfa, 0x17, 0x00, 0xe9, 0xe0, 0xf3, 0xff, 0xe5,
  0xf9, 0xe3, 0x1f, 0x04, 0xfb, 0x12, 0x0d, 0xff, 0xee, 0x06, 0x06, 0x00,
  0x02, 0xfb, 0x12, 0x00, 0x10, 0xe6, 0xf4, 0x07, 0x00, 0xe9, 0xfe, 0x0a,
  0xff, 0x39, 0x08, 0x06, 0xe5, 0x18, 0xdb, 0x09, 0xf2, 0xfe, 0x01, 0x02,
  0xff, 0xe1, 0xf9, 0xfa, 0x16, 0xd8, 0x0a, 0x03, 0x12, 0xf8, 0x07, 0x01,
  0x07, 0x0b, 0x03, 0xfc, 0x04, 0x11, 0x01, 0x00, 0x0f, 0xfa, 0x07, 0x25,
  0xfc, 0x18, 0xfa, 0xe7, 0x00, 0x22, 0x0e, 0x10, 0xfd, 0x13, 0xfe, 0xf5,
  0xee, 0xdd, 0x1c, 0x03, 0xf0, 0xfe, 0x02, 0xf7, 0xf6, 0xda, 0xf3, 0x05,
  0x07, 0x07, 0x0e, 0x03, 0x1c, 0x12, 0x17, 0x01, 0x07, 0x05, 0x20, 0xff,
  0x10, 0xd8, 0x02, 0xe8, 0x11, 0x01, 0xc7, 0xdf, 0x21, 0xff, 0xff, 0x1b,
  0x0d, 0x27, 0xee, 0x03, 0xf0, 0x00, 0x0e, 0xfe, 0xf4, 0x0f, 0xf4, 0x01,
  0x06, 0xe7, 0x11, 0x04, 0x01, 0xfd, 0x24, 0x02, 0x0f, 0x04, 0x1c, 0x01,
  0x06, 0x09, 0x18, 0x03, 0xfe, 0x07, 0xf1, 0x03, 0xf9, 0xf9, 0x0c, 0xef,
  0xf7, 0x00, 0xed, 0x09, 0xff, 0x1c, 0x1c, 0xff, 0x08, 0x20, 0x25, 0x05,
  0xff, 0x0d, 0x34, 0x06, 0x13, 0x03, 0x22, 0x00, 0x06, 0xfa, 0x01, 0xff,
  0x00, 0x13, 0x08, 0x00, 0x04, 0x16, 0xfb, 0x00, 0xff, 0xe8, 0x2c, 0xf3,
  0x03, 0xdc, 0xfe, 0xf4, 0xda, 0x03, 0x08, 0x00, 0xee, 0xff, 0x11, 0x00,
  0xee, 0xee, 0xfd, 0x02, 0xf2, 0x10, 0x0b, 0x06, 0x08, 0xf5, 0xfa, 0xff,
  0xfc, 0xf8, 0x05, 0xff, 0xfa, 0x00, 0x1b, 0xf9, 0x06, 0x04, 0x11, 0x00,
  0xeb, 0xe5, 0x0c, 0xf9, 0xf1, 0xd8, 0xe5, 0xea, 0x00, 0xf6, 0xe9, 0x02,
  0xfc, 0x0a, 0xe0, 0xf7, 0xf0, 0x0f, 0xfa, 0xff, 0x01, 0x2a, 0xfb, 0x00,
  0xf7, 0x10, 0xf0, 0x02, 0x13, 0x12, 0x04, 0xfa, 0x19, 0x00, 0x04, 0x00,
  0xfd, 0x04, 0x02, 0x00, 0xf3, 0x06, 0x18, 0x0a, 0x13, 0x01, 0xea, 0xe5,
  0xf5, 0xf6, 0xdb, 0xfb, 0x17, 0x0c, 0x1c, 0xff, 0xfd, 0x0d, 0xfe, 0xfc,
  0x16, 0x0b, 0x0a, 0x01, 0x01, 0x1c, 0xf9, 0x02, 0x06, 0x0c, 0x0a, 0x00,
  0xfb, 0x03, 0xf8, 0x00, 0x06, 0x05, 0xf8, 0x03, 0x15, 0x05, 0x16, 0x03,
  0xe9, 0xf2, 0xd4, 0xe8, 0xec, 0xe6, 0x1b, 0xf5, 0x00, 0x12, 0xf6, 0xfc,
  0x03, 0x1d, 0x17, 0xfc, 0xf4, 0x1c, 0x1d, 0x00, 0xeb, 0x0d, 0x03, 0x00,
  0xeb, 0xf2, 0xf8, 0xff, 0x04, 0xff, 0xfb, 0x00, 0xf6, 0xfe, 0x00, 0x00,
  0x1b, 0xd4, 0x0d, 0x0c, 0xeb, 0x14, 0xdb, 0xd9, 0xe6, 0x2e, 0xe7, 0xf7,
  0x2a, 0x1b, 0xf8, 0x09, 0xde, 0x1b, 0xf7, 0xff, 0xf0, 0x0c, 0x19, 0x00,
  0xfb, 0x06, 0xfb, 0x01, 0x02, 0x03, 0xfb, 0x00, 0xee, 0x01, 0xfa, 0x00,
  0x00, 0x04, 0xf3, 0x00, 0x14, 0x01, 0xfd, 0xdb, 0x03, 0x0b, 0xe2, 0xcb,
  0xec, 0xe6, 0xe1, 0xec, 0x2a, 0x25, 0xf7, 0x03, 0xf4, 0x1a, 0xf3, 0x00,
  0xf8, 0x12, 0x06, 0xff, 0x08, 0x2a, 0xf7, 0x00, 0xf9, 0x02, 0xfb, 0x00,
  0x02, 0x10, 0xf9, 0x00, 0x10, 0x08, 0xff, 0x00, 0x21, 0x05, 0x28, 0xf9,
  0xfb, 0x15, 0xba, 0xe9, 0x00, 0x1b, 0xd5, 0xe7, 0x05, 0xff, 0xdc, 0x00,
  0xeb, 0x3b, 0xf5, 0xff, 0x0b, 0xfe, 0x16, 0xfe, 0x10, 0x18, 0x0d, 0x00,
  0x03, 0xfc, 0xf7, 0x00, 0x02, 0x10, 0xfa, 0x00, 0x01, 0xfc, 0x01, 0x00,
  0x1b, 0x15, 0xe7, 0xe9, 0xf6, 0x14, 0xe1, 0xf7, 0x04, 0x06, 0xcb, 0xf2,
  0x11, 0x07, 0xf6, 0xf1, 0x32, 0x1f, 0xe8, 0x05, 0x1e, 0x01, 0xf4, 0xf9,
  0x06, 0x2a, 0xfd, 0xfa, 0xf6, 0xf3, 0x00, 0xfa, 0x15, 0xf6, 0xef, 0xf9,
  0xfa, 0x00, 0xf4, 0xf5, 0x35, 0xdd, 0xe0, 0xde, 0xf2, 0x1e, 0x05, 0x20,
  0x0a, 0x14, 0xeb, 0xf9, 0x20, 0xe7, 0x0e, 0x04, 0x0a, 0x07, 0xd3, 0x10,
  0x15, 0xee, 0xf7, 0x05, 0x06, 0x26, 0xf6, 0xeb, 0x0b, 0x1c, 0xea, 0xfb,
  0x21, 0x05, 0xf9, 0xfe, 0x1f, 0x0a, 0xf2, 0x05, 0x21, 0xc1, 0xf1, 0xf8,
  0xec, 0xeb, 0xe6, 0x20, 0x12, 0x23, 0x91, 0x0c, 0xf1, 0xf6, 0xfd, 0x05,
  0x0c, 0xfd, 0xfc, 0x05, 0x09, 0x1d, 0xe3, 0xf8, 0xed, 0x10, 0xf9, 0xfc,
  0xf2, 0x0d, 0x09, 0xf3, 0xeb, 0x22, 0xf8, 0xfb, 0x1b, 0x02, 0xf7, 0x14,
  0xdb, 0xd7, 0xc3, 0xfd, 0xe6, 0xb3, 0xf9, 0x19, 0x0f, 0x29, 0xbd, 0x11,
  0xe9, 0x17, 0x2d, 0xff, 0x01, 0x02, 0xf2, 0xf2, 0xf9, 0x12, 0xdb, 0xf8,
  0xce, 0xf0, 0x03, 0xfa, 0xf0, 0x12, 0x08, 0x06, 0x13, 0x11, 0xde, 0xfd,
  0xf7, 0x00, 0x10, 0x01, 0xe3, 0x05, 0xc5, 0xf8, 0x02, 0xd8, 0xdf, 0x3b,
  0xf9, 0xe4, 0xe8, 0x15, 0xc6, 0xf8, 0x0f, 0x17, 0xba, 0xc5, 0xf1, 0xe6,
  0xfc, 0xdd, 0xf5, 0xed, 0xdf, 0xe3, 0xf8, 0xfe, 0x0b, 0x0e, 0xfc, 0xf8,
  0xff, 0xf2, 0xf1, 0xfb, 0x04, 0x09, 0x0f, 0x00, 0xee, 0xd6, 0x29, 0xea,
  0x0b, 0xc9, 0x17, 0x07, 0xe5, 0xd7, 0x3a, 0x17, 0xcd, 0xe9, 0xfb, 0x0c,
  0xc1, 0xcf, 0xf8, 0xf9, 0xfa, 0xe1, 0x0e, 0x01, 0xe8, 0xeb, 0x29, 0x01,
  0x12, 0xfd, 0x1f, 0xfe, 0xf3, 0x02, 0x0b, 0x00, 0x1d, 0x08, 0xfb, 0x08,
  0xe0, 0xdf, 0x1e, 0xd6, 0xf3, 0xdd, 0x28, 0xc9, 0xb3, 0xe3, 0x2c, 0xf5,
  0xc9, 0xd8, 0xf8, 0xfe, 0xd8, 0xcc, 0x18, 0x05, 0xe8, 0xcc, 0x0c, 0x00,
  0x03, 0xfa, 0x07, 0xf6, 0xf6, 0xfa, 0x0c, 0x01, 0x07, 0x00, 0x12, 0x00,
  0xfa, 0xf9, 0x02, 0xfc, 0xc1, 0xeb, 0x0b, 0x0b, 0x01, 0x17, 0x0e, 0xce,
  0xdb, 0x0d, 0x4c, 0xd0, 0x19, 0x25, 0xfc, 0x26, 0x10, 0x2b, 0xf4, 0xfa,
  0x1f, 0x42, 0xda, 0xfd, 0x06, 0x23, 0xef, 0xf5, 0x11, 0x11, 0xfe, 0x00,
  0x0a, 0xfd, 0xf5, 0xfd, 0xf8, 0x0f, 0xfb, 0x00, 0xec, 0xf2, 0xfb, 0x10,
  0x23, 0x01, 0x22, 0xbc, 0xf3, 0x2d, 0x04, 0xf0, 0x2d, 0x43, 0xf9, 0xfb,
  0x23, 0x1e, 0xff, 0xf3, 0x15, 0x13, 0xf2, 0x01, 0xf8, 0x0f, 0x06, 0x03,
  0x12, 0xfe, 0x0e, 0x03, 0xf7, 0x10, 0xff, 0x05, 0xfe, 0x10, 0x0a, 0x00,
  0xc7, 0xf1, 0xcb, 0x01, 0x26, 0x04, 0x03, 0xd1, 0x04, 0x10, 0xf2, 0x08,
  0x0b, 0x39, 0x0c, 0xe3, 0x30, 0x13, 0x03, 0xf7, 0x0c, 0x01, 0xf7, 0x0b,
  0x06, 0x25, 0x11, 0x0f, 0x15, 0x30, 0x0e, 0x01, 0x06, 0x0e, 0x05, 0xfc,
  0x0e, 0x11, 0x01, 0x03, 0x00, 0xe2, 0x02, 0x0a, 0x26, 0x14, 0xe6, 0xd4,
  0xd0, 0x05, 0x01, 0xf9, 0x18, 0x06, 0x1a, 0xed, 0x10, 0x1c, 0x0d, 0x04,
  0x0c, 0xfe, 0x0d, 0xfd, 0x0d, 0x46, 0x08, 0x02, 0x0b, 0x06, 0x10, 0xff,
  0xfa, 0x15, 0xf7, 0x03, 0xfc, 0x06, 0xfc, 0x0a, 0xf9, 0xc7, 0x06, 0x02,
  0x2a, 0x1c, 0x0b, 0xe8, 0xdd, 0x37, 0xed, 0xed, 0x06, 0xf8, 0xf4, 0xf6,
  0x16, 0x13, 0xd5, 0xf5, 0x09, 0x35, 0xfd, 0xfd, 0x13, 0x1a, 0x14, 0xfd,
  0x00, 0x07, 0x06, 0x00, 0x02, 0x0b, 0xf5, 0x00, 0x04, 0x01, 0x14, 0x03,
  0x55, 0xc4, 0x12, 0x20, 0xd3, 0x1e, 0xfc, 0xcf, 0xdd, 0x2e, 0xd6, 0xf3,
  0x0b, 0xfb, 0xfe, 0xf8, 0xe1, 0xe7, 0xd9, 0x08, 0x13, 0x17, 0x1a, 0x00,
  0xf4, 0xf5, 0xe5, 0xff, 0xf5, 0xf8, 0xec, 0x00, 0x0f, 0x12, 0xfd, 0x00,
  0x05, 0x01, 0x03, 0x00, 0x2a, 0xd0, 0x26, 0x0b, 0xf3, 0xe8, 0xdf, 0x05,
  0x16, 0x1a, 0xe4, 0xf4, 0xf5, 0xed, 0xed, 0xf3, 0xe4, 0x1d, 0xf9, 0xfa,
  0x18, 0x0e, 0xf1, 0x00, 0x07, 0x02, 0xf4, 0x00, 0xf4, 0x0a, 0xee, 0xff,
  0xfb, 0xff, 0xfb, 0xfd, 0xfd, 0xeb, 0x00, 0x00, 0xd2, 0xd1, 0xee, 0x10,
  0x0e, 0xf1, 0xfd, 0x5c, 0xee, 0x0d, 0x03, 0xf5, 0xd2, 0xea, 0x21, 0xfd,
  0xdf, 0xf4, 0x1d, 0x00, 0xf0, 0xfe, 0xe9, 0xfb, 0xf8, 0xf5, 0xfb, 0xfc,
  0xec, 0xf6, 0xf3, 0x00, 0xf8, 0xf4, 0xff, 0x00, 0x1d, 0x01, 0x0b, 0x07,
  0x12, 0xe0, 0x13, 0x1f, 0xe2, 0xdc, 0x0d, 0x45, 0x07, 0x1d, 0x0c, 0xfa,
  0xe4, 0x19, 0xe2, 0xfe, 0xfb, 0x02, 0xfb, 0x00, 0x0a, 0x14, 0xf4, 0x00,
  0xff, 0x0e, 0xf3, 0x00, 0x0e, 0xf5, 0xf7, 0x00, 0x0c, 0x1a, 0xfb, 0x00,
  0x0e, 0x04, 0x06, 0x00, 0xcc, 0xed, 0x0b, 0xf5, 0xf8, 0xfb, 0xfd, 0xee,
  0xee, 0xfd, 0xfe, 0xff, 0x03, 0x13, 0x1d, 0x00, 0x0a, 0x18, 0x15, 0x04,
  0xf6, 0x09, 0xe3, 0x00, 0x08, 0x10, 0xf0, 0xfa, 0xff, 0x03, 0xe6, 0x00,
  0x09, 0x04, 0xfd, 0x00, 0x00, 0xf9, 0xf2, 0x00, 0xc7, 0xfe, 0x09, 0xe9,
  0xfa, 0xc6, 0x41, 0xfb, 0x0d, 0xf2, 0x2b, 0x10, 0xff, 0x03, 0xff, 0x05,
  0x0d, 0xf7, 0xf8, 0x00, 0x0c, 0x1f, 0xf7, 0x00, 0xf9, 0x03, 0x02, 0xfe,
  0xfc, 0xfd, 0x06, 0x00, 0xea, 0xfe, 0xfb, 0xf9, 0x09, 0x0c, 0x07, 0x03,
  0xce, 0x09, 0x19, 0xed, 0xdc, 0xcb, 0xe9, 0xf6, 0x23, 0xec, 0xe8, 0x00,
  0x0f, 0x1c, 0xe9, 0x00, 0xfd, 0x07, 0xf7, 0x00, 0x07, 0x19, 0xfa, 0x00,
  0xf6, 0x13, 0xf8, 0xfd, 0xec, 0xfd, 0xf7, 0x00, 0xf6, 0xfc, 0x01, 0x00,
  0x05, 0x04, 0x0c, 0x00, 0xde, 0x18, 0xfa, 0xf5, 0xe7, 0xe5, 0xfd, 0xf2,
  0x02, 0xfb, 0xe0, 0xfc, 0x10, 0x1a, 0xfd, 0x00, 0x06, 0x07, 0xf9, 0x01,
  0x03, 0xff, 0x01, 0x00, 0x0d, 0x15, 0xfd, 0xfe, 0x01, 0x06, 0x0d, 0x00,
  0xf6, 0x0b, 0xfb, 0x00, 0xf3, 0x0b, 0xf1, 0x00, 0xfd, 0xf6, 0x21, 0xe5,
  0x07, 0x10, 0xf7, 0xfc, 0x03, 0xfb, 0xd9, 0xff, 0x07, 0x01, 0xee, 0x00,
  0xf3, 0xfb, 0xf6, 0x00, 0xf5, 0xf1, 0x0c, 0xff, 0xfa, 0x0f, 0xfc, 0x03,
  0xf2, 0x0a, 0xfb, 0x00, 0xfa, 0x05, 0x03, 0x00, 0x03, 0xfd, 0x06, 0x00,
  0x19, 0xf8, 0x01, 0x0a, 0xfe, 0x29, 0x10, 0xfa, 0xf7, 0x1a, 0xf6, 0x01,
  0xec, 0x06, 0xf4, 0x05, 0xf0, 0x14, 0xf8, 0x00, 0x0a, 0x10, 0x0b, 0x00,
  0x16, 0x0d, 0x12, 0xfa, 0x08, 0x0e, 0x03, 0xfb, 0x03, 0x04, 0xfe, 0x00,
  0x02, 0x0e, 0xf7, 0x00, 0x11, 0x02, 0xef, 0xf6, 0x0a, 0x2d, 0x02, 0xdd,
  0x01, 0xe4, 0xf5, 0x02, 0x0c, 0x1a, 0xff, 0xfc, 0xfc, 0xf2, 0x00, 0x00,
  0xef, 0x10, 0xf6, 0x01, 0x05, 0x1b, 0xfd, 0xff, 0x07, 0xfc, 0xef, 0x00,
  0x04, 0x0b, 0x04, 0x00, 0xf8, 0xfa, 0x01, 0x00, 0x13, 0x04, 0xeb, 0xed,
  0xf5, 0x1c, 0xdb, 0xc5, 0x18, 0x07, 0xf1, 0x05, 0x13, 0xf9, 0x0f, 0xfe,
  0x08, 0x17, 0x03, 0x06, 0xf7, 0xfd, 0xf7, 0x08, 0x01, 0x23, 0xf4, 0x00,
  0x0c, 0xf9, 0xee, 0x08, 0x06, 0x02, 0xfb, 0x00, 0xf9, 0x02, 0xff, 0x00,
  0x2d, 0x00, 0xfe, 0xd0, 0x0e, 0x15, 0xdc, 0xd9, 0xdd, 0xf9, 0xdd, 0x0a,
  0xfa, 0xe2, 0xfe, 0x0a, 0x01, 0x31, 0xf5, 0xfe, 0x0c, 0xea, 0x07, 0xff,
  0xfe, 0x12, 0x0e, 0xff, 0xf0, 0xf5, 0x00, 0x00, 0x06, 0x09, 0x00, 0x00,
  0x05, 0x10, 0x00, 0xff, 0x43, 0xf7, 0xcd, 0xd9, 0xd1, 0x0b, 0xf7, 0x0f,
  0xd8, 0x1b, 0xd9, 0x16, 0xfb, 0xd8, 0x04, 0x12, 0x06, 0x1d, 0xf3, 0xf4,
  0xf7, 0xea, 0xfd, 0xff, 0x01, 0x13, 0xf8, 0xf9, 0xee, 0x17, 0xf5, 0x00,
  0x02, 0xe9, 0x07, 0x00, 0x00, 0xf8, 0x07, 0x00, 0x1e, 0xeb, 0xcf, 0xec,
  0xe5, 0x04, 0xd9, 0x10, 0xed, 0x2e, 0xd6, 0x18, 0xfd, 0xea, 0x04, 0x01,
  0x03, 0xee, 0x23, 0x13, 0xf2, 0xe0, 0xf1, 0xff, 0xf0, 0x06, 0xe7, 0x02,
  0xe3, 0x01, 0xf8, 0xf8, 0xea, 0xec, 0xfe, 0x00, 0xf7, 0xfc, 0xe9, 0x09,
  0x0e, 0xfd, 0xaa, 0xe5, 0xe9, 0x0f, 0xe1, 0x37, 0xfb, 0x2f, 0xa4, 0x0d,
  0xf7, 0xdb, 0xf1, 0xe8, 0xfc, 0xe6, 0xe0, 0x00, 0xf6, 0xf5, 0xf7, 0xfa,
  0x01, 0x0f, 0xf7, 0x03, 0xee, 0xfd, 0xe2, 0x07, 0x1d, 0x0f, 0xe7, 0xff,
  0x19, 0x02, 0x00, 0x00, 0x31, 0xda, 0xe0, 0xd7, 0xfa, 0x21, 0xee, 0x29,
  0x1d, 0x30, 0x93, 0x14, 0xe6, 0xd3, 0xf9, 0xf7, 0x10, 0xcd, 0xee, 0xf8,
  0xfc, 0x17, 0xec, 0x0a, 0x02, 0xee, 0xff, 0x10, 0x07, 0xf6, 0xf3, 0xf8,
  0x18, 0x0c, 0xfa, 0x00, 0xf7, 0xf5, 0xf0, 0x01, 0x37, 0x90, 0xce, 0xef,
  0xfc, 0x0a, 0xcc, 0x1a, 0xf8, 0x25, 0xba, 0xe8, 0xcd, 0x0d, 0x1c, 0xf7,
  0xff, 0xc3, 0x1c, 0x17, 0x05, 0xf7, 0xec, 0xe8, 0xe3, 0xed, 0x16, 0x0b,
  0x01, 0x09, 0x09, 0x00, 0xf0, 0x04, 0xf4, 0x00, 0x03, 0x04, 0xfe, 0x03,
  0xf4, 0xb4, 0xcd, 0xe6, 0x0f, 0xcf, 0x02, 0x1e, 0xdb, 0x17, 0xf2, 0x0c,
  0xc2, 0x19, 0x25, 0xf4, 0xea, 0xae, 0x1a, 0x27, 0x0c, 0xd4, 0xeb, 0xf2,
  0xe9, 0xf3, 0xfc, 0x04, 0x14, 0x11, 0x07, 0x02, 0x1a, 0x01, 0x0b, 0x00,
  0x0d, 0x00, 0x1d, 0xfe, 0xf2, 0xc8, 0x2e, 0xe3, 0xeb, 0x96, 0x2c, 0x13,
  0xe5, 0xeb, 0x2a, 0x00, 0xd1, 0x01, 0x1d, 0xfb, 0xe1, 0xb2, 0x29, 0x11,
  0xf9, 0xe6, 0xdd, 0x02, 0xee, 0xe9, 0x00, 0x0a, 0xfa, 0xd9, 0xfd, 0xff,
  0xf9, 0xd9, 0x0a, 0xfa, 0xf2, 0x08, 0x05, 0x03, 0xfb, 0xe4, 0x30, 0xf5,
  0xde, 0xe2, 0x1c, 0xdf, 0xe2, 0xec, 0x26, 0xed, 0xe3, 0x14, 0x0c, 0x0f,
  0xe8, 0xd7, 0x08, 0xea, 0xda, 0xe0, 0xe4, 0x09, 0xf1, 0xed, 0x03, 0xfc,
  0xf7, 0xf9, 0xe8, 0xf8, 0xed, 0xe2, 0xeb, 0xff, 0x08, 0x07, 0xe1, 0x02,
  0xd4, 0xe3, 0x2c, 0xf9, 0x2e, 0x03, 0x23, 0xbd, 0x11, 0x30, 0x20, 0xdd,
  0x22, 0x16, 0xf5, 0x17, 0x07, 0x31, 0xf7, 0x07, 0x0a, 0x15, 0xe3, 0xfa,
  0xff, 0x08, 0xe1, 0x00, 0x08, 0xf8, 0xf0, 0x00, 0xfc, 0xf4, 0xfc, 0x02,
  0xf6, 0xf4, 0xf8, 0xfe, 0xd4, 0xe1, 0x12, 0x26, 0x1c, 0x1a, 0x32, 0xad,
  0x24, 0x22, 0x3a, 0xf5, 0x31, 0xf8, 0x04, 0xe9, 0x23, 0x09, 0xf6, 0xf4,
  0x17, 0x1a, 0xfc, 0xf2, 0x1c, 0xfb, 0x05, 0xff, 0x17, 0xfe, 0x00, 0xfc,
  0xff, 0x13, 0xf6, 0xf0, 0xfe, 0xf1, 0xf7, 0xff, 0xc0, 0xed, 0x01, 0x20,
  0x2c, 0x0e, 0x0e, 0xad, 0x11, 0x30, 0x0d, 0xe3, 0x35, 0x2e, 0x04, 0xf6,
  0x02, 0x16, 0x1d, 0x03, 0x00, 0x20, 0xf9, 0xf6, 0xf4, 0x04, 0x05, 0xfd,
  0xfe, 0x10, 0x0a, 0x01, 0xe9, 0x05, 0xe9, 0x05, 0xf7, 0xff, 0x00, 0xfd,
  0xe8, 0xe4, 0x0e, 0x31, 0x3b, 0x17, 0xeb, 0xbb, 0xf2, 0xf0, 0x14, 0xf3,
  0x30, 0x3d, 0xec, 0xf5, 0x36, 0x51, 0xfa, 0x18, 0x1e, 0x27, 0x02, 0x08,
  0x05, 0x0e, 0xf7, 0x03, 0xf5, 0x20, 0xfc, 0x07, 0xfb, 0x05, 0xfa, 0x01,
  0x00, 0x17, 0xfd, 0xfe, 0x16, 0xe4, 0x10, 0x39, 0x27, 0x11, 0x0a, 0xcb,
  0xe8, 0xe0, 0x2b, 0xf8, 0x2d, 0xf4, 0x11, 0x05, 0x25, 0x30, 0xfd, 0xf5,
  0x08, 0x05, 0x0a, 0x0c, 0x09, 0x01, 0xf1, 0x07, 0xf8, 0x0d, 0xfa, 0xfa,
  0xf4, 0xf1, 0xfa, 0x00, 0x04, 0x04, 0xfa, 0xfc, 0xf1, 0xda, 0xf1, 0x1c,
  0xf0, 0x02, 0xee, 0xd8, 0x0b, 0xf9, 0x08, 0xf3, 0x1b, 0x1f, 0xf8, 0x02,
  0x0c, 0xf1, 0x06, 0x00, 0xea, 0x06, 0xf3, 0x07, 0xf2, 0x01, 0xed, 0x00,
  0xf0, 0x0a, 0xf9, 0x00, 0xf4, 0xf7, 0xf2, 0x00, 0xfe, 0xf2, 0xfe, 0x00,
  0xf2, 0xed, 0x02, 0xf4, 0xfb, 0x0e, 0xe2, 0xe9, 0xf2, 0x03, 0xf3, 0xed,
  0x12, 0xfa, 0xea, 0x01, 0xf0, 0xeb, 0x11, 0x01, 0xfa, 0x0e, 0xfa, 0x00,
  0xed, 0xfa, 0xfa, 0x00, 0xff, 0xfb, 0xfa, 0x00, 0xf4, 0x00, 0xf2, 0x00,
  0xf8, 0xfd, 0xfc, 0x00, 0x00, 0x00, 0x00, 0x00, 0x00, 0x00, 0x00, 0x00,
  0x00, 0x00, 0x00, 0x00, 0x00, 0x00, 0x00, 0x00, 0x00, 0x00, 0x00, 0x00,
  0x00, 0x00, 0x00, 0x00, 0x00, 0x00, 0x00, 0x00, 0x00, 0x00, 0x00, 0x00,
  0x00, 0x00, 0x00, 0x00, 0x00, 0x00, 0x00, 0x00, 0x00, 0x00, 0x00, 0x00,
  0x00, 0x00, 0x00, 0x00, 0x00, 0x00, 0x00, 0x00, 0x00, 0x00, 0x00, 0x00,
  0x00, 0x00, 0x00, 0x00, 0x00, 0x00, 0x00, 0x00, 0x00, 0x00, 0x00, 0x00,
  0x00, 0x00, 0x00, 0x00, 0x00, 0x00, 0x00, 0x00, 0x00, 0x00, 0x00, 0x00,
  0x00, 0x00, 0x00, 0x00, 0x00, 0x00, 0x00, 0x00, 0x00, 0x00, 0x00, 0x00,
  0x00, 0x00, 0x00, 0x00, 0x00, 0x00, 0x00, 0x00, 0x00, 0x00, 0x00, 0x00,
  0x00, 0x00, 0x00, 0x00, 0x00, 0x00, 0x00, 0x00, 0x00, 0x00, 0x00, 0x00,
  0x00, 0x00, 0x00, 0x00, 0x00, 0x00, 0x00, 0x00, 0x00, 0x00, 0x00, 0x00,
  0x00, 0x00, 0x00, 0x00, 0x00, 0x00, 0x00, 0x00, 0x00, 0x00, 0x00, 0x00,
  0x00, 0x00, 0x00, 0x00, 0x00, 0x00, 0x00, 0x00, 0x00, 0x00, 0x00, 0x00,
  0x00, 0x00, 0x00, 0x00, 0x00, 0x00, 0x00, 0x00, 0x00, 0x00, 0x00, 0x00,
  0x00, 0x00, 0x00, 0x00, 0x00, 0x00, 0x00, 0x00, 0x00, 0x00, 0x00, 0x00,
  0x00, 0x00, 0x00, 0x00, 0x00, 0x00, 0x00, 0x00, 0x00, 0x00, 0x00, 0x00,
  0x00, 0x00, 0x00, 0x00, 0x00, 0x00, 0x00, 0x00, 0x00, 0x00, 0x00, 0x00,
  0x00, 0x00, 0x00, 0x00, 0x00, 0x00, 0x00, 0x00, 0x00, 0x00, 0x00, 0x00,
  0x00, 0x00, 0x00, 0x00, 0x00, 0x00, 0x00, 0x00, 0x00, 0x00, 0x00, 0x00,
  0x00, 0x00, 0x00, 0x00, 0x00, 0x00, 0x00, 0x00, 0x00, 0x00, 0x00, 0x00,
  0x00, 0x00, 0x00, 0x00, 0x00, 0x00, 0x00, 0x00, 0x00, 0x00, 0x00, 0x00,
  0x00, 0x00, 0x00, 0x00, 0x00, 0x00, 0x00, 0x00, 0x00, 0x00, 0x00, 0x00,
  0x00, 0x00, 0x00, 0x00, 0x00, 0x00, 0x00, 0x00, 0x00, 0x00, 0x00, 0x00,
  0x00, 0x00, 0x00, 0x00, 0x00, 0x00, 0x00, 0x00, 0x00, 0x00, 0x00, 0x00,
  0x00, 0x00, 0x00, 0x00, 0x00, 0x00, 0x00, 0x00, 0x00, 0x00, 0x00, 0x00,
  0x00, 0x00, 0x00, 0x00, 0x00, 0x00, 0x00, 0x00, 0x00, 0x00, 0x00, 0x00,
  0x00, 0x00, 0x00, 0x00, 0x00, 0x00, 0x00, 0x00, 0x00, 0x00, 0x00, 0x00,
  0x00, 0x00, 0x00, 0x00, 0x00, 0x00, 0x00, 0x00, 0x00, 0x00, 0x00, 0x00,
  0x00, 0x00, 0x00, 0x00, 0x00, 0x00, 0x00, 0x00, 0x00, 0x00, 0x00, 0x00,
  0x00, 0x00, 0x00, 0x00, 0x00, 0x00, 0x00, 0x00, 0x00, 0x00, 0x00, 0x00,
  0x00, 0x00, 0x00, 0x00, 0x00, 0x00, 0x00, 0x00, 0x00, 0x00, 0x00, 0x00,
  0x00, 0x00, 0x00, 0x00, 0x00, 0x00, 0x00, 0x00, 0x00, 0x00, 0x00, 0x00,
  0x00, 0x00, 0x00, 0x00, 0x00, 0x00, 0x00, 0x00, 0x00, 0x00, 0x00, 0x00,
  0x00, 0x00, 0x00, 0x00, 0x00, 0x00, 0x00, 0x00, 0x00, 0x00, 0x00, 0x00,
  0x00, 0x00, 0x00, 0x00, 0x00, 0x00, 0x00, 0x00, 0x00, 0x00, 0x00, 0x00,
  0x00, 0x00, 0x00, 0x00, 0x00, 0x00, 0x00, 0x00, 0x00, 0x00, 0x00, 0x00,
  0x00, 0x00, 0x00, 0x00, 0x00, 0x00, 0x00, 0x00, 0x00, 0x00, 0x00, 0x00,
  0x00, 0x00, 0x00, 0x00, 0x00, 0x00, 0x00, 0x00, 0x00, 0x00, 0x00, 0x00,
  0x00, 0x00, 0x00, 0x00, 0x00, 0x00, 0x00, 0x00, 0x00, 0x00, 0x00, 0x00,
  0x00, 0x00, 0x00, 0x00, 0x00, 0x00, 0x00, 0x00, 0x00, 0x00, 0x00, 0x00,
  0x00, 0x00, 0x00, 0x00, 0x00, 0x00, 0x00, 0x00, 0x00, 0x00, 0x00, 0x00,
  0x00, 0x00, 0x00, 0x00, 0x00, 0x00, 0x00, 0x00, 0x00, 0x00, 0x00, 0x00,
  0x00, 0x00, 0x00, 0x00, 0x00, 0x00, 0x00, 0x00, 0x00, 0x00, 0x00, 0x00,
  0x00, 0x00, 0x00, 0x00, 0x00, 0x00, 0x00, 0x00, 0x00, 0x00, 0x00, 0x00,
  0x00, 0x00, 0x00, 0x00, 0x00, 0x00, 0x00, 0x00, 0x00, 0x00, 0x00, 0x00,
  0x00, 0x00, 0x00, 0x00, 0x00, 0x00, 0x00, 0x00, 0x00, 0x00, 0x00, 0x00,
  0x00, 0x00, 0x00, 0x00, 0x00, 0x00, 0x00, 0x00, 0x00, 0x00, 0x00, 0x00,
  0x00, 0x00, 0x00, 0x00, 0x00, 0x00, 0x00, 0x00, 0x00, 0x00, 0x00, 0x00,
  0x00, 0x00, 0x00, 0x00, 0x00, 0x00, 0x00, 0x00, 0x00, 0x00, 0x00, 0x00,
  0x00, 0x00, 0x00, 0x00, 0x00, 0x00, 0x00, 0x00, 0x00, 0x00, 0x00, 0x00,
  0x00, 0x00, 0x00, 0x00, 0x00, 0x00, 0x00, 0x00, 0x00, 0x00, 0x00, 0x00,
  0x00, 0x00, 0x00, 0x00, 0x00, 0x00, 0x00, 0x00, 0x00, 0x00, 0x00, 0x00,
  0x00, 0x00, 0x00, 0x00, 0x00, 0x00, 0x00, 0x00, 0x00, 0x00, 0x00, 0x00,
  0x00, 0x00, 0x00, 0x00, 0x00, 0x00, 0x00, 0x00, 0x00, 0x00, 0x00, 0x00,
  0x00, 0x00, 0x00, 0x00, 0x00, 0x00, 0x00, 0x00, 0x00, 0x00, 0x00, 0x00,
  0x00, 0x00, 0x00, 0x00, 0x00, 0x00, 0x00, 0x00, 0x00, 0x00, 0x00, 0x00,
  0x00, 0x00, 0x00, 0x00, 0x00, 0x00, 0x00, 0x00, 0x00, 0x00, 0x00, 0x00,
  0x00, 0x00, 0x00, 0x00, 0x00, 0x00, 0x00, 0x00, 0x00, 0x00, 0x00, 0x00,
  0x00, 0x00, 0x00, 0x00, 0x00, 0x00, 0x00, 0x00, 0x00, 0x00, 0x00, 0x00,
  0x00, 0x00, 0x00, 0x00, 0x00, 0x00, 0x00, 0x00, 0x00, 0x00, 0x00, 0x00,
  0x00, 0x00, 0x00, 0x00, 0x00, 0x00, 0x00, 0x00, 0x00, 0x00, 0x00, 0x00,
  0x00, 0x00, 0x00, 0x00, 0x00, 0x00, 0x00, 0x00, 0x00, 0x00, 0x00, 0x00,
  0x00, 0x00, 0x00, 0x00, 0x00, 0x00, 0x00, 0x00, 0x00, 0x00, 0x00, 0x00,
  0x00, 0x00, 0x00, 0x00, 0x00, 0x00, 0x00, 0x00, 0x00, 0x00, 0x00, 0x00,
  0x00, 0x00, 0x00, 0x00, 0x00, 0x00, 0x00, 0x00, 0x00, 0x00, 0x00, 0x00,
  0x00, 0x00, 0x00, 0x00, 0x00, 0x00, 0x00, 0x00, 0x00, 0x00, 0x00, 0x00,
  0x00, 0x00, 0x00, 0x00, 0x00, 0x00, 0x00, 0x00, 0x00, 0x00, 0x00, 0x00,
  0x00, 0x00, 0x00, 0x00, 0x00, 0x00, 0x00, 0x00, 0x00, 0x00, 0x00, 0x00,
  0x00, 0x00, 0x00, 0x00, 0x00, 0x00, 0x00, 0x00, 0x00, 0x00, 0x00, 0x00,
  0x00, 0x00, 0x00, 0x00, 0x00, 0x00, 0x00, 0x00, 0x00, 0x00, 0x00, 0x00,
  0x00, 0x00, 0x00, 0x00, 0x00, 0x00, 0x00, 0x00, 0x00, 0x00, 0x00, 0x00,
  0x00, 0x00, 0x00, 0x00, 0x00, 0x00, 0x00, 0x00, 0x00, 0x00, 0x00, 0x00,
  0x00, 0x00, 0x00, 0x00, 0x00, 0x00, 0x00, 0x00, 0x00, 0x00, 0x00, 0x00,
  0x00, 0x00, 0x00, 0x00, 0x00, 0x00, 0x00, 0x00, 0x00, 0x00, 0x00, 0x00,
  0x00, 0x00, 0x00, 0x00, 0x00, 0x00, 0x00, 0x00, 0x00, 0x00, 0x00, 0x00,
  0x00, 0x00, 0x00, 0x00, 0x00, 0x00, 0x00, 0x00, 0x00, 0x00, 0x00, 0x00,
  0x00, 0x00, 0x00, 0x00, 0x00, 0x00, 0x00, 0x00, 0x00, 0x00, 0x00, 0x00,
  0x00, 0x00, 0x00, 0x00, 0x00, 0x00, 0x00, 0x00, 0x00, 0x00, 0x00, 0x00,
  0x00, 0x00, 0x00, 0x00, 0x00, 0x00, 0x00, 0x00, 0x00, 0x00, 0x00, 0x00,
  0x00, 0x00, 0x00, 0x00, 0x00, 0x00, 0x00, 0x00, 0x00, 0x00, 0x00, 0x00,
  0x00, 0x00, 0x00, 0x00, 0x45, 0xd6, 0xef, 0x09, 0x0d, 0x39, 0xdf, 0x29,
  0x29, 0x34, 0xdf, 0x0a, 0x03, 0xf2, 0xf2, 0x00, 0xff, 0xdf, 0xf0, 0x05,
  0x20, 0x26, 0xf5, 0x07, 0x04, 0x03, 0xf9, 0x0c, 0x07, 0xf1, 0xf8, 0x00,
  0xfe, 0xf5, 0xdd, 0x00, 0x05, 0x08, 0xf1, 0xfe, 0x0d, 0xc4, 0x0b, 0xed,
  0x11, 0xf5, 0x02, 0x12, 0x19, 0x34, 0xec, 0xff, 0xcc, 0xff, 0x1b, 0xf1,
  0xf6, 0xe1, 0x01, 0x14, 0x02, 0x1f, 0xde, 0x03, 0x08, 0x1b, 0xec, 0x09,
  0x03, 0x01, 0xf0, 0x07, 0xf1, 0xf5, 0xf8, 0x00, 0x03, 0xfd, 0xf9, 0x00,
  0xe7, 0xd8, 0x28, 0xdc, 0x19, 0xe8, 0xf5, 0x3d, 0xf4, 0x0e, 0xf1, 0xff,
  0xef, 0x15, 0x2a, 0xfe, 0xed, 0xcf, 0x02, 0x03, 0xe0, 0xf3, 0x00, 0xf3,
  0x0a, 0x05, 0xfe, 0x15, 0xfc, 0x0e, 0xfa, 0x00, 0xfc, 0x07, 0x02, 0x07,
  0x0f, 0x03, 0xfc, 0x01, 0x05, 0xff, 0x1f, 0xd4, 0x08, 0xe6, 0x0f, 0x0b,
  0xba, 0xd4, 0x19, 0x17, 0xb6, 0x1c, 0x14, 0x02, 0xdd, 0xbb, 0x1a, 0x00,
  0x0f, 0xf0, 0xf8, 0xf9, 0xfa, 0xe9, 0xfc, 0x07, 0x0f, 0x02, 0x12, 0x00,
  0xf8, 0xfa, 0x04, 0xfe, 0xfa, 0x03, 0x01, 0x00, 0xf6, 0xfc, 0x10, 0x07,
  0x28, 0x05, 0x10, 0xe1, 0xb9, 0xc7, 0x2c, 0xf8, 0xe3, 0xf7, 0xf4, 0xfd,
  0xe7, 0xde, 0xec, 0xff, 0xf3, 0xee, 0xed, 0x00, 0x08, 0x03, 0xf6, 0x05,
  0xef, 0xf7, 0xf4, 0x00, 0xf8, 0xf6, 0xff, 0x00, 0xf2, 0xff, 0x00, 0x00,
  0xc2, 0xf5, 0x14, 0x11, 0x0b, 0xef, 0x36, 0xc5, 0xcb, 0xfd, 0x35, 0xd2,
  0xfc, 0xce, 0xe2, 0x04, 0x07, 0x15, 0xe1, 0xfc, 0xff, 0xf4, 0x05, 0xfb,
  0x05, 0x11, 0xf9, 0xf6, 0xe8, 0xe8, 0x01, 0x00, 0x02, 0x03, 0x07, 0x00,
  0x0c, 0x0c, 0x00, 0x08, 0xdd, 0x03, 0x00, 0x35, 0x0b, 0x1e, 0xf2, 0xce,
  0x1d, 0x03, 0x0d, 0xd6, 0x29, 0x19, 0xdd, 0xfd, 0x30, 0x30, 0xea, 0x09,
  0x20, 0x14, 0x09, 0xfc, 0xfd, 0x0f, 0x08, 0xfd, 0xf8, 0xf7, 0xf9, 0x00,
  0xfc, 0x04, 0xf6, 0x01, 0xfe, 0x00, 0xfd, 0x00, 0xc8, 0x2b, 0xd4, 0x3a,
  0x26, 0x37, 0xdf, 0xd5, 0x09, 0xf4, 0xe9, 0xfb, 0x2c, 0x0d, 0xf8, 0x04,
  0x14, 0x3e, 0xff, 0x03, 0xfd, 0x30, 0x01, 0x02, 0x06, 0x0f, 0xfe, 0x00,
  0x03, 0x15, 0xe4, 0x00, 0x15, 0x13, 0xf4, 0x02, 0x08, 0x14, 0xf3, 0x00,
  0xfb, 0x1c, 0x08, 0xe2, 0xfa, 0x32, 0x09, 0xe0, 0x0c, 0xc8, 0xf3, 0x07,
  0x22, 0xff, 0x08, 0xfc, 0x0e, 0x00, 0x17, 0x07, 0x09, 0xf5, 0x02, 0x00,
  0xf6, 0x03, 0x13, 0xfe, 0x00, 0xf9, 0xf7, 0x00, 0x04, 0x00, 0x09, 0x00,
  0xef, 0x0e, 0xf5, 0x00, 0x22, 0x0f, 0x01, 0xd7, 0xf6, 0x1f, 0xf2, 0xe7,
  0xe7, 0xe0, 0xf4, 0xfe, 0x0b, 0xd6, 0x15, 0xfd, 0xf7, 0xe9, 0xfd, 0xf7,
  0xf9, 0x0e, 0x08, 0x00, 0x03, 0xfa, 0x09, 0x08, 0x01, 0xfd, 0xf7, 0x00,
  0xfe, 0xf7, 0x07, 0x04, 0x0c, 0xfe, 0xfc, 0x00, 0x23, 0x07, 0x25, 0xdd,
  0xe0, 0x15, 0xe5, 0xf1, 0xef, 0xe7, 0xf7, 0xfa, 0x06, 0xcc, 0xf2, 0xff,
  0xff, 0xf8, 0xe6, 0x00, 0xf9, 0xf5, 0xe8, 0x00, 0x13, 0x0d, 0xff, 0x01,
  0xf4, 0xfe, 0xfa, 0x00, 0x0c, 0xf7, 0xfa, 0x00, 0x00, 0x08, 0x01, 0x00,
  0x1e, 0xf3, 0x07, 0xd2, 0xce, 0x0d, 0xdb, 0xff, 0xda, 0xf0, 0xcf, 0xf8,
  0xe0, 0xe1, 0x04, 0x00, 0xf8, 0xf6, 0xd3, 0x00, 0xee, 0xf2, 0xfd, 0x00,
  0xec, 0x00, 0xec, 0x00, 0xfa, 0x0b, 0xfd, 0x00, 0xf6, 0x01, 0x04, 0x00,
  0xee, 0xf3, 0x00, 0x00, 0x35, 0xeb, 0x03, 0xcd, 0xe2, 0xf5, 0xce, 0x02,
  0xe6, 0x1e, 0xc7, 0xfb, 0xfd, 0xf9, 0xf6, 0x03, 0xfe, 0x01, 0xf4, 0xff,
  0xf0, 0xfc, 0x01, 0x00, 0x00, 0xf6, 0xfd, 0x06, 0x15, 0x06, 0xff, 0x00,
  0xfd, 0xff, 0xf3, 0xfc, 0x02, 0x07, 0xf7, 0x00, 0x2d, 0x07, 0xe3, 0xe0,
  0xf6, 0xf9, 0xcf, 0x02, 0xc6, 0x06, 0xcc, 0xf6, 0xd4, 0xc6, 0x00, 0x03,
  0xec, 0xe4, 0x06, 0xf8, 0xda, 0xf5, 0xee, 0x00, 0xd2, 0xf2, 0x0e, 0x06,
  0xeb, 0xef, 0xf4, 0x00, 0xf0, 0xee, 0xfc, 0x05, 0x02, 0xfe, 0x01, 0x00,
  0x3e, 0x0f, 0xd0, 0xe7, 0xeb, 0x1c, 0xcf, 0x25, 0xfc, 0x0b, 0xba, 0xda,
  0xd7, 0xe1, 0xe9, 0x06, 0xfd, 0x08, 0xe2, 0xfa, 0x03, 0xee, 0xee, 0xfd,
  0x00, 0xe3, 0xef, 0x00, 0xef, 0xec, 0xf2, 0x00, 0xf9, 0xf4, 0xf5, 0x01,
  0xee, 0xf7, 0xfd, 0x00, 0x21, 0xdd, 0xc1, 0xeb, 0xec, 0x2a, 0xe9, 0x26,
  0x0d, 0x2a, 0xc1, 0xf6, 0xfe, 0xeb, 0x12, 0xf6, 0x20, 0xed, 0xff, 0x1e,
  0x15, 0xf0, 0xdb, 0x1a, 0x09, 0xce, 0xed, 0xf8, 0x0a, 0xf3, 0xed, 0x00,
  0x02, 0xf1, 0xeb, 0x02, 0x17, 0x0b, 0xf2, 0x07, 0x22, 0xe5, 0xad, 0xe3,
  0x0b, 0x10, 0xd1, 0x18, 0x1e, 0x36, 0xa9, 0xf6, 0xce, 0xf5, 0x05, 0x00,
  0xfd, 0xea, 0xf2, 0x25, 0xf9, 0x03, 0xe7, 0x0f, 0x13, 0xea, 0xf3, 0x0b,
  0x15, 0x04, 0x07, 0xfe, 0x1f, 0x0e, 0xf5, 0x03, 0x11, 0x06, 0xf5, 0xfa,
  0x0b, 0x07, 0xbd, 0xe9, 0x06, 0xd0, 0xe7, 0x2a, 0xf9, 0x11, 0xd2, 0xfa,
  0xf2, 0x11, 0x28, 0xf3, 0xf3, 0xed, 0x31, 0x0f, 0xf6, 0xe9, 0xcb, 0x01,
  0x09, 0xd8, 0xe4, 0xf5, 0xff, 0x0b, 0xfd, 0xeb, 0x12, 0x0f, 0xf7, 0x00,
  0x15, 0x14, 0x08, 0x03, 0xf9, 0xee, 0xf2, 0xea, 0x0f, 0xb6, 0xfd, 0x36,
  0xe8, 0x0d, 0xe1, 0x16, 0xfa, 0x00, 0x1f, 0xea, 0xe0, 0xab, 0x1b, 0x22,
  0xfe, 0xdc, 0xdd, 0xed, 0x02, 0xdd, 0x13, 0xf6, 0x1b, 0x0d, 0xfd, 0x00,
  0x37, 0x18, 0xf2, 0x03, 0xfe, 0x0e, 0x03, 0x00, 0x15, 0xd9, 0x3d, 0xec,
  0x10, 0xbd, 0x31, 0x03, 0xcd, 0xca, 0x23, 0xf9, 0xd1, 0xe8, 0x02, 0xf3,
  0xcd, 0xbd, 0x1f, 0x25, 0x0f, 0xf9, 0x00, 0x08, 0x07, 0xc6, 0x16, 0x07,
  0x17, 0x0e, 0xf9, 0x00, 0x0e, 0xf4, 0x10, 0xfe, 0x03, 0x00, 0x00, 0x00,
  0xa6, 0x09, 0x2f, 0xfb, 0x1e, 0xd9, 0x19, 0xd4, 0xe4, 0xd5, 0x20, 0xf7,
  0x0b, 0x18, 0x1e, 0xec, 0x08, 0xf6, 0x34, 0x00, 0x02, 0xf8, 0x11, 0x01,
  0x07, 0x00, 0x01, 0xfb, 0x07, 0x09, 0xe9, 0x00, 0xfa, 0xf4, 0x09, 0x00,
  0xf7, 0x00, 0xf8, 0xfc, 0xe7, 0x22, 0x0b, 0x0f, 0x3e, 0xff, 0x24, 0xe6,
  0x2a, 0xfc, 0x29, 0xec, 0x4f, 0xfc, 0x24, 0x04, 0x1e, 0x0f, 0x10, 0xf8,
  0xfa, 0xf8, 0x17, 0x07, 0xdd, 0xfa, 0xf8, 0xfd, 0xed, 0x05, 0x11, 0x00,
  0x14, 0xe7, 0x09, 0x00, 0x07, 0x07, 0xfa, 0xf9, 0xc9, 0x0f, 0xfa, 0x22,
  0x33, 0xec, 0x1e, 0xda, 0x06, 0x00, 0x27, 0xfd, 0x47, 0x22, 0x22, 0x05,
  0x09, 0x23, 0x0e, 0xfa, 0xe9, 0x07, 0x02, 0x01, 0xf7, 0xfd, 0x09, 0xff,
  0xf8, 0xf5, 0xe5, 0xf6, 0xf4, 0xfc, 0xf5, 0x00, 0xf1, 0xf4, 0xff, 0x00,
  0xb1, 0x01, 0x04, 0x05, 0x2d, 0x13, 0x11, 0xf3, 0xfb, 0xed, 0x23, 0xe7,
  0x4e, 0x24, 0x27, 0xf5, 0x10, 0x16, 0xf5, 0xf9, 0x06, 0x14, 0x01, 0x00,
  0xfe, 0xef, 0x05, 0x00, 0xfb, 0xec, 0xf0, 0xfc, 0xfa, 0xe7, 0xec, 0x01,
  0xf9, 0xf4, 0xf7, 0x04, 0x1b, 0xf7, 0x0b, 0x17, 0xf9, 0x29, 0xf8, 0xac,
  0xc7, 0x9a, 0xf0, 0x0a, 0x2d, 0xfb, 0x04, 0x07, 0x09, 0x26, 0xfc, 0xff,
  0x0c, 0xf9, 0xfd, 0x07, 0x17, 0x08, 0xec, 0x04, 0x04, 0x26, 0xea, 0x00,
  0x04, 0x1b, 0xee, 0x00, 0x10, 0xf8, 0xda, 0x05, 0x06, 0xf7, 0x0f, 0x12,
  0xe4, 0x16, 0x0e, 0x99, 0xb8, 0x96, 0xff, 0xfe, 0x03, 0x12, 0x25, 0x19,
  0x15, 0x12, 0x1d, 0xfe, 0x01, 0x11, 0x19, 0xfc, 0x17, 0xf1, 0x0f, 0xfe,
  0x16, 0x14, 0x32, 0x00, 0x0e, 0x0d, 0x05, 0x06, 0x0c, 0x0a, 0x0c, 0x07,
  0xe4, 0xf2, 0x18, 0x18, 0x09, 0x15, 0xf6, 0xa9, 0xdd, 0xb1, 0x28, 0x00,
  0xf8, 0xf2, 0x1b, 0x13, 0x2a, 0x06, 0x20, 0x10, 0x15, 0xfb, 0x31, 0x02,
  0x09, 0xfe, 0x11, 0xfb, 0x04, 0x0e, 0x14, 0x03, 0x05, 0xfe, 0x1d, 0x05,
  0x04, 0x07, 0x09, 0x01, 0xe3, 0x01, 0x07, 0x11, 0x20, 0x14, 0xee, 0xc9,
  0x05, 0xd4, 0x28, 0x16, 0x12, 0x0b, 0x13, 0xff, 0x25, 0x27, 0x16, 0x15,
  0xf6, 0x01, 0x3b, 0x07, 0xf7, 0xef, 0x0f, 0x01, 0x0c, 0xf8, 0x0e, 0x09,
  0xfd, 0x21, 0x0b, 0x06, 0xfe, 0xf5, 0x0a, 0xff, 0xf4, 0xf8, 0x11, 0x23,
  0x10, 0x01, 0xfb, 0xd6, 0xfa, 0xca, 0x3d, 0x11, 0x04, 0xe4, 0x1e, 0x02,
  0x10, 0x20, 0x15, 0x10, 0xfe, 0x1b, 0x1b, 0xf3, 0x27, 0xe8, 0x0c, 0x04,
  0xee, 0xfc, 0x20, 0x01, 0xff, 0x0b, 0x02, 0x03, 0x14, 0x01, 0x14, 0x05,
  0xec, 0xfb, 0xe9, 0x1a, 0x1f, 0xe6, 0xbb, 0xe1, 0xfe, 0x03, 0x38, 0xfd,
  0xe5, 0x00, 0x2c, 0xfc, 0xff, 0x10, 0x48, 0xe4, 0xf3, 0x21, 0x11, 0xf0,
  0x02, 0xc8, 0x10, 0x00, 0x26, 0xf7, 0x0b, 0xff, 0xf6, 0xfd, 0x00, 0x02,
  0xf5, 0x13, 0x0a, 0xf4, 0x0c, 0xee, 0xd7, 0x17, 0x07, 0xfb, 0xcc, 0xeb,
  0x28, 0x12, 0xfe, 0x21, 0xf6, 0x2a, 0xe9, 0x16, 0x18, 0xea, 0xf7, 0x0b,
  0x0b, 0x15, 0xe2, 0xe8, 0x16, 0xdb, 0x0b, 0x02, 0x0a, 0xfb, 0x21, 0x03,
  0x1b, 0xea, 0x10, 0xfa, 0x03, 0x0e, 0x0d, 0xf9, 0x01, 0xe9, 0xe7, 0x2c,
  0x20, 0xfd, 0x13, 0xf2, 0x13, 0x1a, 0x09, 0x23, 0x15, 0x25, 0xdf, 0x00,
  0x09, 0xf0, 0x11, 0x09, 0xfa, 0x10, 0xf8, 0xfb, 0xf6, 0xe1, 0xe7, 0x11,
  0xfb, 0xed, 0xf7, 0xfd, 0xef, 0xe7, 0x19, 0xfa, 0xfb, 0xf0, 0x03, 0x03,
  0xf9, 0x01, 0xdf, 0x27, 0x06, 0x17, 0x30, 0xe4, 0x1c, 0x19, 0x01, 0x0a,
  0x05, 0x1d, 0xc5, 0x2e, 0x07, 0x23, 0x04, 0xf6, 0xfd, 0x08, 0xf6, 0xf7,
  0x18, 0xf8, 0xef, 0x04, 0x01, 0xef, 0x02, 0x03, 0x0a, 0x08, 0xf0, 0x06,
  0x0a, 0xfa, 0xf1, 0xff, 0x2e, 0xf7, 0x0b, 0xe5, 0xe4, 0x04, 0x07, 0xd2,
  0x00, 0xe9, 0xef, 0xf7, 0xe2, 0x21, 0xf1, 0x18, 0x05, 0x31, 0x0c, 0xf3,
  0xfe, 0xf6, 0xf7, 0xfa, 0x1a, 0xfd, 0xee, 0xfe, 0xeb, 0xf0, 0x0c, 0x0d,
  0x0b, 0x11, 0xed, 0x09, 0x0a, 0x02, 0x01, 0xfa, 0x1c, 0xdc, 0x24, 0xf7,
  0xb1, 0x01, 0x09, 0xde, 0xf2, 0x0b, 0x1b, 0xd4, 0xc4, 0xcd, 0x0b, 0x03,
  0x0a, 0xfd, 0x0a, 0x0f, 0xf0, 0x08, 0xfe, 0xf5, 0x0b, 0xf4, 0xfe, 0xfa,
  0xec, 0xed, 0xee, 0xfc, 0x05, 0xfb, 0xfb, 0x03, 0x09, 0x09, 0xe8, 0x00,
  0x03, 0xe3, 0x17, 0xf9, 0xa5, 0xff, 0xe1, 0xd9, 0xcc, 0xe8, 0xdd, 0xd0,
  0xd7, 0xbb, 0x0d, 0xee, 0xf2, 0xd6, 0x09, 0xfd, 0x05, 0xf5, 0xf0, 0xf4,
  0x0c, 0x0c, 0x04, 0xec, 0x00, 0xfc, 0xfc, 0x04, 0x16, 0x0a, 0x0b, 0x03,
  0x0c, 0x19, 0xfd, 0x03, 0xde, 0xf7, 0x10, 0xc5, 0xaa, 0xff, 0xbb, 0xcc,
  0xdd, 0xb1, 0xdb, 0xda, 0xc8, 0xd4, 0xfe, 0xed, 0xc2, 0xcd, 0x0a, 0x02,
  0x02, 0xf1, 0x09, 0xfc, 0x04, 0xf5, 0x1a, 0xfb, 0x18, 0xf6, 0x28, 0x02,
  0x19, 0x0b, 0x21, 0x03, 0x15, 0x1e, 0x18, 0x02, 0xe6, 0xff, 0x04, 0xc0,
  0xc0, 0xe2, 0xb9, 0xb8, 0xc9, 0xca, 0xe4, 0xf0, 0xd8, 0xff, 0xc6, 0xf6,
  0xfa, 0xfb, 0xf1, 0x00, 0xff, 0xdd, 0xfc, 0x06, 0x03, 0xe9, 0x10, 0x03,
  0x10, 0xf5, 0x0b, 0x02, 0x1f, 0x0e, 0x25, 0xff, 0x22, 0x0b, 0x1f, 0x05,
  0xc7, 0xff, 0xfd, 0xe2, 0xd5, 0xad, 0xd7, 0xb4, 0xe4, 0xc2, 0xf5, 0xd3,
  0x03, 0x13, 0xd7, 0xf4, 0xfc, 0x07, 0x0c, 0xfb, 0xfe, 0xdd, 0x0e, 0xfd,
  0x08, 0xf7, 0x05, 0x02, 0x1e, 0x07, 0x21, 0x00, 0x12, 0x10, 0x15, 0x02,
  0x0e, 0x0a, 0x1e, 0x01, 0xe6, 0xfe, 0x13, 0x1a, 0xf3, 0xe9, 0xe9, 0xb4,
  0xff, 0xda, 0x08, 0xec, 0x08, 0x11, 0xd7, 0xfb, 0x05, 0xeb, 0xff, 0xfb,
  0xed, 0xcd, 0x0c, 0xfc, 0x1c, 0xfe, 0x1b, 0xff, 0x1e, 0xef, 0x0c, 0x00,
  0x0b, 0x10, 0x15, 0x04, 0x16, 0x08, 0x05, 0x00, 0xf1, 0x0b, 0x05, 0x20,
  0xf7, 0xfd, 0x17, 0xb5, 0x1a, 0xe1, 0x2b, 0xed, 0x05, 0x1c, 0xd6, 0xef,
  0x04, 0x0e, 0x03, 0xfe, 0xf1, 0xf7, 0x02, 0x02, 0x0c, 0xf4, 0x13, 0x00,
  0x0a, 0xfc, 0x0b, 0x04, 0x05, 0x14, 0x11, 0x01, 0xfa, 0x07, 0x0f, 0x01,
  0xea, 0xeb, 0x2c, 0x15, 0x07, 0x13, 0x4a, 0xca, 0x17, 0xeb, 0x15, 0xfe,
  0x30, 0x2e, 0x08, 0x0b, 0x06, 0x13, 0x07, 0xed, 0x1a, 0x0c, 0x00, 0x08,
  0x10, 0x19, 0x21, 0x07, 0x06, 0xef, 0x17, 0x08, 0x07, 0xfe, 0x09, 0x02,
  0x01, 0xfa, 0x11, 0x03, 0xd5, 0xdc, 0x17, 0x36, 0x21, 0x07, 0x3f, 0xc8,
  0xfe, 0xb8, 0x04, 0xfe, 0x1a, 0x2d, 0x07, 0x07, 0x1c, 0x05, 0xf5, 0xff,
  0x01, 0x13, 0xf2, 0x06, 0x1d, 0x0f, 0x01, 0x03, 0x0d, 0xf9, 0x0a, 0xff,
  0xef, 0x04, 0xfb, 0x09, 0x0c, 0xf9, 0x0e, 0x05, 0xfb, 0x00, 0xf4, 0x2a,
  0xf7, 0x00, 0x0c, 0xc7, 0xe2, 0xdc, 0xed, 0xe8, 0x1d, 0x3f, 0x19, 0x09,
  0x06, 0x16, 0xf2, 0x02, 0x0b, 0x00, 0xfe, 0x0a, 0x0c, 0x11, 0x09, 0xfa,
  0x06, 0xe4, 0x01, 0x00, 0x07, 0x07, 0x0f, 0x03, 0xfd, 0xf7, 0x06, 0x01,
  0xf8, 0xfe, 0x11, 0x2f, 0xfc, 0x08, 0x2e, 0xd4, 0x0a, 0x18, 0xe6, 0x0f,
  0x1e, 0x29, 0x01, 0x1d, 0x1a, 0x23, 0x1a, 0xed, 0x0f, 0x0d, 0x1d, 0x00,
  0x0a, 0x0f, 0x0a, 0x00, 0xf4, 0xe0, 0x06, 0x04, 0x04, 0xee, 0x13, 0x02,
  0xfc, 0xfc, 0x06, 0x05, 0x10, 0xf9, 0x09, 0x3b, 0xfb, 0xe9, 0xfd, 0xd6,
  0x39, 0x0c, 0xfc, 0x11, 0x05, 0x14, 0x07, 0xfc, 0x0b, 0x2b, 0x29, 0x0b,
  0x03, 0x16, 0x07, 0x04, 0x06, 0x0c, 0xe3, 0xf8, 0x0b, 0xe5, 0xe6, 0x01,
  0x12, 0x12, 0xe9, 0xfc, 0x18, 0x17, 0xf7, 0x09, 0x09, 0x10, 0x08, 0x34,
  0xe7, 0xea, 0x06, 0xe6, 0x25, 0xfe, 0xfe, 0x00, 0x13, 0x15, 0xec, 0x03,
  0xfe, 0x09, 0xf8, 0x10, 0x25, 0x22, 0xfc, 0x0a, 0x1b, 0x00, 0xdf, 0x02,
  0x1f, 0x08, 0xf8, 0x0a, 0x25, 0x1b, 0x0a, 0x01, 0x0c, 0x0e, 0x08, 0x03,
  0xf7, 0xfd, 0xd5, 0x18, 0x01, 0xf4, 0xf2, 0xf7, 0x07, 0xd4, 0xf8, 0xfc,
  0x23, 0xf4, 0x28, 0x05, 0x08, 0x09, 0x2d, 0x14, 0x1f, 0x1c, 0x21, 0x03,
  0x12, 0xf7, 0x11, 0x04, 0x2e, 0x1c, 0x1c, 0x03, 0x21, 0x11, 0x18, 0x02,
  0x19, 0x0d, 0x17, 0x08, 0x2f, 0xe5, 0x0b, 0x18, 0xf0, 0x06, 0xd5, 0x01,
  0x00, 0xe7, 0xfb, 0x02, 0x12, 0x03, 0xfe, 0xf8, 0x0a, 0x02, 0x0e, 0x00,
  0x05, 0x08, 0x00, 0x00, 0x0a, 0x05, 0xf7, 0xfb, 0x07, 0x0d, 0xf6, 0x00,
  0x08, 0x03, 0x00, 0x00, 0x00, 0x07, 0xf1, 0x00, 0xf0, 0xe5, 0x22, 0x05,
  0xed, 0xfd, 0xff, 0xfa, 0x06, 0xd4, 0x00, 0xfb, 0x07, 0xfa, 0xff, 0x07,
  0x0e, 0x0c, 0x0b, 0x00, 0x0c, 0xf6, 0xf5, 0x00, 0xf2, 0x0d, 0xfd, 0xfb,
  0xf9, 0x00, 0x02, 0x00, 0x03, 0x00, 0x04, 0x01, 0xf7, 0x03, 0x01, 0x01,
  0x29, 0xf5, 0x35, 0x14, 0xd7, 0x12, 0x10, 0xda, 0xec, 0xc5, 0x1b, 0xf1,
  0xfc, 0xee, 0x0a, 0xf6, 0xf9, 0xe7, 0x16, 0x01, 0xf7, 0xf7, 0x09, 0xfb,
  0x06, 0xfc, 0xfc, 0xfa, 0xf6, 0xeb, 0x11, 0x07, 0x00, 0x09, 0x08, 0x00,
  0x04, 0xf9, 0x0a, 0x00, 0xf9, 0xef, 0x32, 0xfd, 0xbf, 0xf2, 0xf5, 0xaf,
  0xc7, 0xb0, 0x16, 0xf5, 0xdc, 0xca, 0x05, 0xf7, 0xe4, 0xec, 0x19, 0xfd,
  0xe3, 0xf7, 0x0c, 0x01, 0xfc, 0xfd, 0x04, 0xf2, 0xef, 0xf7, 0x02, 0x01,
  0x1d, 0xff, 0x0b, 0x01, 0x0e, 0xfa, 0x0b, 0xf7, 0x08, 0xf8, 0x19, 0xf9,
  0x9f, 0xe5, 0xca, 0x9b, 0xd7, 0xb9, 0xf0, 0xcd, 0xd3, 0xd3, 0xfe, 0xfa,
  0xfe, 0xfb, 0xff, 0xfd, 0xe4, 0xe3, 0x00, 0x02, 0xfc, 0xef, 0xf8, 0xfb,
  0x02, 0x06, 0x07, 0x02, 0x0d, 0x02, 0x0b, 0x00, 0x10, 0x07, 0x04, 0x00,
  0xdd, 0x06, 0x10, 0x04, 0xd9, 0xee, 0xcb, 0xaf, 0xe1, 0xc8, 0xfd, 0xc8,
  0x01, 0xf4, 0xfd, 0x0b, 0x0b, 0x1a, 0xfb, 0xfc, 0xe4, 0xf5, 0xf1, 0x07,
  0x11, 0x14, 0x0c, 0xfe, 0x19, 0xfa, 0x08, 0x07, 0x19, 0x0a, 0x15, 0x00,
  0x0a, 0x04, 0x12, 0xfb, 0xdd, 0xf3, 0x13, 0x12, 0x06, 0x04, 0xe1, 0xed,
  0xe4, 0xb9, 0x05, 0xe5, 0xfd, 0x06, 0x12, 0x17, 0x33, 0x2e, 0x06, 0xeb,
  0x10, 0x0a, 0x0f, 0x02, 0x14, 0x03, 0x2d, 0x01, 0x09, 0xfc, 0x36, 0xfd,
  0x0c, 0x09, 0x24, 0x06, 0x19, 0x11, 0x13, 0x01, 0xe8, 0xef, 0xfe, 0x36,
  0x13, 0xff, 0x24, 0x13, 0x07, 0xd1, 0x6c, 0xe6, 0x25, 0x0a, 0x2f, 0x0f,
  0x3d, 0x3c, 0x14, 0xef, 0xfa, 0x1c, 0x39, 0x0d, 0x06, 0x00, 0x2c, 0x0c,
  0x0b, 0x07, 0x1c, 0x00, 0x11, 0x06, 0x26, 0x00, 0xef, 0x01, 0x0d, 0x02,
  0xd8, 0xe6, 0x21, 0x21, 0x27, 0xfa, 0x39, 0x07, 0x01, 0xea, 0x57, 0x00,
  0x3f, 0xef, 0x18, 0x0d, 0x61, 0x36, 0x24, 0xe9, 0x10, 0x1d, 0x2f, 0x12,
  0x0f, 0xfa, 0x0f, 0x05, 0x33, 0x19, 0x18, 0x08, 0x08, 0x08, 0x14, 0xfe,
  0xf9, 0x0b, 0x10, 0x07, 0xdc, 0x14, 0x1e, 0x27, 0x09, 0xf5, 0x04, 0x03,
  0x04, 0x1f, 0x30, 0xf6, 0x2b, 0x05, 0x0f, 0x13, 0x11, 0x31, 0x05, 0x02,
  0xeb, 0x2a, 0x05, 0x16, 0xf8, 0x19, 0xfc, 0x09, 0x12, 0x07, 0x0f, 0x05,
  0x01, 0x14, 0x10, 0x00, 0xf8, 0x03, 0x09, 0x0d, 0xfc, 0x1d, 0xeb, 0x34,
  0xf6, 0xec, 0xda, 0x0a, 0x07, 0x2a, 0xfa, 0x04, 0xfd, 0x0a, 0xdc, 0x07,
  0x05, 0x39, 0xfc, 0x18, 0xfc, 0x37, 0x14, 0x11, 0x1d, 0x29, 0xf4, 0x05,
  0xf1, 0xfc, 0xff, 0x07, 0x0d, 0x03, 0xfc, 0x03, 0x0a, 0x02, 0xf8, 0xf8,
  0xeb, 0xfe, 0xc8, 0x1b, 0xeb, 0xf8, 0xe7, 0x03, 0x13, 0x25, 0xbc, 0x33,
  0x32, 0x22, 0xd5, 0x0c, 0xfb, 0x28, 0xff, 0xf9, 0x08, 0x21, 0xf2, 0x11,
  0x0e, 0x0d, 0xe1, 0xfc, 0xf6, 0xf6, 0xf0, 0xfd, 0xf1, 0x09, 0xf9, 0xfe,
  0xf4, 0xfd, 0xe9, 0x01, 0x03, 0x13, 0xe9, 0x1f, 0xf5, 0x11, 0x14, 0xf3,
  0x30, 0x20, 0xbb, 0x18, 0x03, 0x20, 0xc4, 0x14, 0xfe, 0x28, 0xe3, 0x11,
  0xea, 0x0a, 0x02, 0x13, 0x18, 0x1d, 0x0f, 0x00, 0xd6, 0x04, 0xfe, 0x00,
  0xf3, 0x02, 0xf3, 0x02, 0xfb, 0xf6, 0xed, 0x00, 0x0e, 0xe5, 0xfd, 0x0e,
  0xf9, 0x19, 0x19, 0xff, 0x13, 0x20, 0xd6, 0x31, 0x06, 0x15, 0xe5, 0x07,
  0x3d, 0x2f, 0x13, 0xfd, 0xf5, 0x0b, 0xe7, 0xfd, 0x03, 0x21, 0xed, 0xf2,
  0xee, 0xf5, 0xd9, 0x00, 0xf9, 0x09, 0xfc, 0xfb, 0x06, 0x01, 0xf2, 0xf9,
  0x3b, 0xed, 0xf0, 0x04, 0xd4, 0xf1, 0x0f, 0xfe, 0xeb, 0x00, 0xdc, 0x0e,
  0xf5, 0x0a, 0xd9, 0xfc, 0x1d, 0x20, 0x0a, 0xef, 0xe6, 0x08, 0xcd, 0x0c,
  0xff, 0x0f, 0xe0, 0x01, 0x06, 0x00, 0xe6, 0x00, 0x07, 0x11, 0xf2, 0xfe,
  0xf9, 0x0c, 0xf7, 0x00, 0x05, 0xe8, 0x08, 0xe8, 0xc6, 0x0b, 0xef, 0xf2,
  0xe5, 0xf8, 0xd4, 0xf2, 0xd5, 0xd6, 0x00, 0x00, 0xfd, 0x19, 0x0e, 0x10,
  0xf0, 0x11, 0xf9, 0xfd, 0x05, 0xfd, 0x05, 0xf4, 0x0a, 0xfd, 0x07, 0x01,
  0x06, 0x17, 0x02, 0x02, 0x0e, 0x12, 0xfa, 0x05, 0xfa, 0xe3, 0x05, 0xdf,
  0xa8, 0x07, 0xdf, 0xea, 0xce, 0xec, 0xd8, 0x01, 0xd1, 0xd8, 0x29, 0x07,
  0xec, 0xf4, 0x21, 0xf7, 0xff, 0x19, 0x19, 0xfb, 0x16, 0xed, 0x0a, 0xfe,
  0xff, 0xf6, 0x00, 0x00, 0x02, 0x07, 0x0e, 0x00, 0xf9, 0xf3, 0x0a, 0x01,
  0x1a, 0x0a, 0x0e, 0xf5, 0xb9, 0x0e, 0xc1, 0xf4, 0xf9, 0xe1, 0xe2, 0xf7,
  0xd9, 0xd2, 0x09, 0x0d, 0xe7, 0xf3, 0x23, 0xf0, 0x01, 0xdf, 0x00, 0xf7,
  0xfd, 0x05, 0x02, 0xfc, 0x10, 0x00, 0x0e, 0x00, 0xff, 0xfb, 0x1b, 0x00,
  0xfe, 0x0e, 0x0c, 0xfb, 0xff, 0x07, 0x09, 0xd6, 0xb5, 0x11, 0xa4, 0xe3,
  0xcf, 0xda, 0xd7, 0xe4, 0xdb, 0xd9, 0xf7, 0x07, 0x0b, 0xe1, 0x17, 0x00,
  0xef, 0xeb, 0x15, 0x00, 0x02, 0x07, 0x0d, 0xfc, 0xfd, 0xfc, 0x03, 0x01,
  0xfe, 0xfe, 0x13, 0x00, 0xfb, 0x01, 0x0d, 0x00, 0x15, 0x00, 0x15, 0xe8,
  0xd0, 0xf6, 0xd3, 0xe2, 0xf2, 0x0b, 0xf8, 0xed, 0x0a, 0x01, 0x12, 0x08,
  0x02, 0xed, 0x08, 0xf1, 0x04, 0xf0, 0x02, 0x01, 0x16, 0x05, 0xff, 0xff,
  0xfb, 0xf6, 0x0b, 0x01, 0x05, 0x01, 0x16, 0x00, 0x08, 0x09, 0x04, 0x00,
  0x01, 0xf6, 0x11, 0x0e, 0xf7, 0xe7, 0xe5, 0xdf, 0x04, 0x07, 0x43, 0xff,
  0x02, 0x07, 0xfa, 0x09, 0x21, 0xf3, 0x11, 0xea, 0x0c, 0x06, 0x1e, 0xff,
  0x0d, 0x0f, 0x0d, 0xf7, 0x07, 0x00, 0x12, 0x00, 0x05, 0x14, 0x01, 0x00,
  0x0c, 0xff, 0x07, 0x00, 0xe7, 0x01, 0x08, 0x17, 0x14, 0xcd, 0xfc, 0xf5,
  0x0e, 0x09, 0xee, 0x0c, 0x01, 0x0e, 0xe5, 0x0f, 0x09, 0x12, 0x0c, 0xff,
  0x03, 0x11, 0x17, 0x00, 0x06, 0x0f, 0xff, 0xf9, 0x06, 0xf2, 0x11, 0x00,
  0x0a, 0x0a, 0x0a, 0x03, 0x0e, 0x0a, 0x0b, 0x02, 0xf0, 0x08, 0x0f, 0x33,
  0x02, 0xf8, 0x32, 0x02, 0x2c, 0xf6, 0x0c, 0x05, 0x31, 0x0a, 0xfe, 0x11,
  0x1c, 0x05, 0x0b, 0xfe, 0x1f, 0x19, 0x05, 0x01, 0x07, 0x01, 0xf5, 0x03,
  0x1a, 0x03, 0x02, 0x00, 0x14, 0x04, 0x03, 0x00, 0xf8, 0x12, 0xfe, 0x00,
  0x1a, 0x09, 0x13, 0x0e, 0xee, 0xec, 0x2e, 0xe4, 0xff, 0xe5, 0x03, 0xff,
  0x19, 0xee, 0xfa, 0xf5, 0x11, 0xf3, 0xff, 0x04, 0x01, 0x0b, 0x03, 0x01,
  0xf8, 0x00, 0xf6, 0x02, 0xfe, 0xff, 0x0f, 0x00, 0x07, 0x05, 0x0e, 0x00,
  0xfc, 0xfc, 0x0e, 0x00, 0xfc, 0xe4, 0x05, 0xed, 0x08, 0xdc, 0x25, 0xf5,
  0x02, 0xd4, 0x3d, 0xfd, 0xfe, 0xf0, 0xf7, 0x00, 0x28, 0x04, 0x1e, 0xf9,
  0xf8, 0x17, 0xef, 0x00, 0xfc, 0x17, 0x08, 0x01, 0x07, 0x0c, 0x08, 0x00,
  0x15, 0x01, 0xf3, 0x00, 0x01, 0x14, 0x0b, 0x00, 0x02, 0xf4, 0x38, 0xfc,
  0x24, 0x23, 0xe7, 0xeb, 0xf7, 0xd5, 0xfa, 0xef, 0x02, 0xf2, 0x1f, 0xfa,
  0xdf, 0xfa, 0x0e, 0x00, 0xf0, 0xf5, 0xf1, 0x05, 0xf8, 0x04, 0x13, 0x03,
  0x0d, 0x03, 0x0c, 0x00, 0x0b, 0xfb, 0x38, 0xfc, 0xfb, 0xfe, 0x0d, 0xff,
  0x01, 0xec, 0x19, 0x0d, 0x07, 0x01, 0xad, 0xdb, 0xf1, 0xed, 0xe3, 0xe8,
  0xe3, 0xc6, 0xfb, 0xfe, 0xec, 0xe9, 0xeb, 0xff, 0x02, 0x0a, 0xe9, 0x00,
  0x06, 0x0f, 0xfb, 0xfb, 0x07, 0xf6, 0xf9, 0xf9, 0xf0, 0xf7, 0xfd, 0x00,
  0x06, 0xf9, 0x03, 0x06, 0xf5, 0x16, 0xe3, 0xf7, 0x22, 0xff, 0x14, 0xe4,
  0xec, 0xfa, 0xe3, 0xed, 0x0a, 0xd7, 0xd4, 0x04, 0x06, 0xf8, 0xd4, 0x09,
  0x0b, 0x04, 0x01, 0x07, 0x08, 0xf1, 0x0b, 0x00, 0xfa, 0xf6, 0xfe, 0xfe,
  0xe6, 0x00, 0xf8, 0x00, 0xf4, 0xf8, 0x09, 0x09, 0x1f, 0x04, 0x01, 0xf9,
  0x08, 0x1f, 0xe3, 0xec, 0xbe, 0xfd, 0x00, 0xee, 0xf0, 0xf5, 0xe6, 0xf6,
  0xf4, 0xfc, 0xec, 0x00, 0xef, 0xfa, 0xf8, 0xf2, 0x10, 0x03, 0xfa, 0x00,
  0xf6, 0xe5, 0xed, 0x01, 0x03, 0xe9, 0xe9, 0x00, 0xf0, 0xea, 0xf0, 0x00,
  0x30, 0x07, 0xee, 0xf9, 0xf1, 0x15, 0xf7, 0x25, 0x09, 0x20, 0xf8, 0xef,
  0x00, 0xdb, 0xfb, 0xe8, 0xe9, 0xf9, 0xdf, 0x08, 0xe6, 0xf6, 0xef, 0x0a,
  0x00, 0xf7, 0xfb, 0xfc, 0xe0, 0xf6, 0xf6, 0x0c, 0xe7, 0xea, 0xf9, 0x00,
  0x0b, 0x08, 0xeb, 0x01, 0x35, 0xf1, 0xef, 0x0a, 0x04, 0xf8, 0x0d, 0x27,
  0x07, 0x14, 0xb3, 0xda, 0xcc, 0xe1, 0xea, 0xf2, 0x03, 0xec, 0xe5, 0x00,
  0xf5, 0x11, 0xef, 0x07, 0xec, 0xf1, 0xf3, 0x0a, 0xf4, 0xf3, 0xef, 0x06,
  0x04, 0xf2, 0xf9, 0x02, 0x03, 0xf5, 0xf9, 0x01, 0x3e, 0xdb, 0xe2, 0xed,
  0xf5, 0xec, 0xe1, 0x27, 0x1c, 0x21, 0x91, 0x0d, 0xcd, 0x12, 0x15, 0xed,
  0xf6, 0xdf, 0xfa, 0x1b, 0x0b, 0xff, 0xd8, 0x02, 0xfe, 0x13, 0xdd, 0xf4,
  0xf1, 0xe5, 0xe1, 0x08, 0xf7, 0x0f, 0xe9, 0x02, 0xff, 0xf6, 0x05, 0xff,
  0x0f, 0xf6, 0xc4, 0xf8, 0xf7, 0xbc, 0xcc, 0x19, 0x0d, 0x0b, 0xa7, 0x0c,
  0xad, 0x1c, 0x35, 0xfe, 0x1d, 0xc0, 0xfa, 0xf6, 0x14, 0x25, 0xf4, 0xfd,
  0x12, 0xda, 0x09, 0xf5, 0xf6, 0xfa, 0xef, 0xff, 0xf8, 0xf2, 0xf6, 0xff,
  0x0f, 0x0c, 0xe3, 0xf7, 0xf1, 0xee, 0x12, 0xe0, 0x14, 0xc8, 0x19, 0x10,
  0xd8, 0xeb, 0xf1, 0x13, 0xbc, 0x1d, 0x05, 0xf2, 0xec, 0x94, 0x05, 0xf7,
  0xee, 0x04, 0xcf, 0x02, 0xf8, 0xf0, 0xfe, 0xfa, 0xfa, 0xf0, 0xe5, 0xe6,
  0x00, 0xe7, 0xee, 0x03, 0xfd, 0xff, 0xfb, 0xf0, 0x10, 0xd7, 0x2d, 0xbf,
  0xf5, 0xda, 0x0e, 0xd2, 0xa4, 0xca, 0x31, 0x04, 0xbe, 0xe8, 0xef, 0xf7,
  0xcb, 0xb9, 0xfd, 0xfd, 0x1a, 0xeb, 0xea, 0xfa, 0x01, 0x08, 0x01, 0x05,
  0xe6, 0x03, 0x08, 0xfe, 0x1a, 0xe6, 0x4c, 0x00, 0xfe, 0x00, 0x2d, 0x0c,
  0xca, 0xf9, 0x01, 0xf5, 0x1b, 0xff, 0x1b, 0xd1, 0xd0, 0xe6, 0x37, 0xf8,
  0xcf, 0x15, 0x03, 0x03, 0x06, 0xe7, 0xd4, 0xfd, 0x03, 0xde, 0xee, 0x00,
  0x1d, 0xfb, 0x25, 0x05, 0x00, 0x08, 0x19, 0x04, 0x01, 0x01, 0x21, 0xfd,
  0x13, 0x0c, 0x20, 0x00, 0xe2, 0x01, 0x1b, 0xf5, 0x1d, 0x11, 0x2f, 0xb2,
  0xfe, 0xfb, 0x25, 0xe9, 0x2e, 0x22, 0xe9, 0x03, 0x35, 0x16, 0xcb, 0xf5,
  0xef, 0x10, 0xfa, 0xf9, 0x10, 0x01, 0xf3, 0x08, 0x00, 0x01, 0xee, 0x01,
  0xf5, 0xed, 0x01, 0xfa, 0xfc, 0xff, 0x1c, 0x00, 0xea, 0x0c, 0x1c, 0xf6,
  0x0a, 0x13, 0x00, 0xd0, 0x16, 0xfd, 0xf6, 0xeb, 0x29, 0x34, 0x04, 0xf0,
  0x18, 0x23, 0xff, 0xe7, 0xea, 0x37, 0xf9, 0xf8, 0xed, 0x14, 0xfe, 0xf7,
  0xf6, 0xf0, 0xf4, 0xfb, 0xf9, 0xeb, 0x01, 0x01, 0x06, 0x0c, 0x0a, 0x00,
  0x03, 0xfd, 0xd9, 0xf8, 0x2a, 0x20, 0x0e, 0xd3, 0xf4, 0x3f, 0xc6, 0xf1,
  0x1f, 0x20, 0xdf, 0x04, 0x21, 0x38, 0xef, 0xf6, 0x19, 0x26, 0xdc, 0xfc,
  0x04, 0x21, 0xdf, 0xf9, 0xe5, 0xe9, 0xec, 0x01, 0xf9, 0xf8, 0xfa, 0xfd,
  0xf2, 0xfd, 0xf0, 0xff, 0x17, 0xd8, 0xe7, 0xe8, 0x10, 0x14, 0x0a, 0x0b,
  0xfe, 0x0f, 0xea, 0xf9, 0x1c, 0xee, 0xed, 0xdc, 0x1f, 0x12, 0x04, 0x08,
  0x0a, 0x05, 0xee, 0x07, 0xe6, 0x11, 0xe5, 0xfe, 0xf3, 0x05, 0x00, 0x00,
  0xf9, 0x02, 0xfd, 0x04, 0xed, 0x09, 0x0d, 0x03, 0x09, 0xc2, 0x07, 0xd9,
  0x13, 0x0a, 0x00, 0x33, 0xfa, 0x2e, 0xd0, 0xf2, 0xe6, 0x05, 0x19, 0xeb,
  0x06, 0xf3, 0xe4, 0xfd, 0xdf, 0xec, 0xd9, 0xfa, 0xf4, 0x0b, 0xf8, 0xfc,
  0xf0, 0x01, 0xf4, 0x00, 0xf2, 0xf2, 0xfd, 0x03, 0xf6, 0xf4, 0xf2, 0x00,
  0xf0, 0xf4, 0x04, 0xf2, 0xef, 0xd7, 0xd9, 0x38, 0xf5, 0xe9, 0xab, 0x13,
  0xd9, 0x1b, 0x11, 0xf8, 0xcd, 0xd5, 0xdc, 0xf6, 0xf2, 0xdd, 0xd6, 0xf9,
  0xef, 0xf8, 0xe5, 0xf1, 0xed, 0xf3, 0xe2, 0xfd, 0xf2, 0xf6, 0xfb, 0x01,
  0xec, 0xfb, 0xf6, 0xfe, 0x23, 0x04, 0x29, 0xda, 0xfc, 0xf2, 0xe5, 0xed,
  0xc8, 0xcb, 0xea, 0x0d, 0xe0, 0x0d, 0xf0, 0xfa, 0xe7, 0xee, 0xca, 0xfa,
  0xee, 0xef, 0xd7, 0xf3, 0x09, 0x15, 0xf1, 0x00, 0xf1, 0x03, 0xe8, 0xfd,
  0x06, 0x00, 0xf4, 0x00, 0x02, 0xff, 0xec, 0x00, 0xde, 0xea, 0x3a, 0xd0,
  0xfd, 0x02, 0x16, 0xe2, 0xb3, 0xd8, 0x1d, 0xff, 0xc3, 0xf8, 0xe5, 0xff,
  0xef, 0xc8, 0xcb, 0xfd, 0xe9, 0xe5, 0xdd, 0x07, 0xe6, 0xfb, 0x02, 0x00,
  0xf3, 0xf6, 0xf2, 0x00, 0xf3, 0xe9, 0xe8, 0x00, 0xff, 0x0d, 0xf1, 0x02,
  0xf9, 0xfb, 0x21, 0xe2, 0xed, 0xf7, 0x1d, 0xc9, 0xe4, 0x0f, 0x1d, 0xe4,
  0xc8, 0x0b, 0xe6, 0xf5, 0xf9, 0x07, 0xdc, 0x03, 0xfe, 0x09, 0xf2, 0x03,
  0xfe, 0xfb, 0xe8, 0xf5, 0x09, 0xf4, 0xf4, 0x04, 0x04, 0xff, 0xf2, 0x00,
  0xfc, 0xf4, 0xf4, 0x00, 0x04, 0x1e, 0xf7, 0x46, 0x17, 0x1e, 0xda, 0xba,
  0x33, 0x05, 0xd7, 0xe1, 0x1f, 0x1a, 0xd9, 0xfa, 0x1e, 0x3e, 0xdc, 0x02,
  0x16, 0x10, 0xf8, 0x10, 0x05, 0x10, 0xe7, 0xf3, 0xe1, 0xf1, 0xf9, 0x00,
  0xfd, 0xfa, 0x03, 0x00, 0x00, 0xef, 0xf3, 0x00, 0x05, 0x05, 0xce, 0xf6,
  0x5c, 0x3b, 0x1b, 0xdf, 0x2d, 0x36, 0xd9, 0xef, 0x0b, 0x26, 0x03, 0x0f,
  0x1e, 0x39, 0xe7, 0x02, 0x02, 0xf3, 0x05, 0x1a, 0x14, 0x22, 0xe2, 0x00,
  0x06, 0x0b, 0xf9, 0xff, 0xfe, 0x01, 0xfd, 0x01, 0x09, 0xf0, 0xf0, 0x08,
  0x2c, 0xe8, 0xee, 0x36, 0x19, 0x13, 0x13, 0x2f, 0x1d, 0x23, 0x14, 0xd7,
  0xcb, 0xe3, 0xfc, 0x36, 0x37, 0x40, 0x01, 0xfc, 0x00, 0xfd, 0x06, 0xff,
  0xf9, 0x0b, 0xff, 0xfe, 0xf6, 0xf7, 0xf6, 0xfd, 0xe8, 0xf1, 0xf3, 0x01,
  0xf7, 0x03, 0xef, 0x00, 0x0a, 0x00, 0xd9, 0x0c, 0x19, 0x2e, 0xc8, 0xd7,
  0xeb, 0xf4, 0x04, 0x04, 0x1a, 0x28, 0x00, 0x03, 0x07, 0x04, 0x0d, 0x05,
  0x06, 0x14, 0x2b, 0xff, 0x11, 0x20, 0x0e, 0x01, 0x02, 0x0c, 0xf9, 0x01,
  0x13, 0x11, 0x15, 0x00, 0x0b, 0x19, 0xfc, 0x01, 0x2d, 0xdf, 0x19, 0xe5,
  0xfe, 0x1f, 0x1d, 0xd9, 0xfd, 0xe9, 0x19, 0xf6, 0x14, 0xfb, 0xf4, 0x13,
  0x13, 0x02, 0x17, 0x06, 0x0a, 0x1d, 0x11, 0x07, 0x07, 0x18, 0x12, 0xff,
  0x0b, 0x04, 0x14, 0x00, 0x10, 0x07, 0x01, 0x02, 0x03, 0x15, 0x0a, 0x03,
  0x09, 0xfe, 0x19, 0x1b, 0xd9, 0x24, 0xfd, 0xb4, 0xdb, 0xec, 0x3a, 0xdb,
  0xf9, 0xfa, 0x13, 0xfe, 0x08, 0xe5, 0x32, 0x01, 0xe7, 0x01, 0x05, 0xfa,
  0x0d, 0x02, 0x0a, 0xf2, 0xfe, 0xfb, 0x14, 0x08, 0x03, 0x08, 0x05, 0x01,
  0x02, 0x0c, 0x0c, 0x04, 0x05, 0x08, 0x12, 0x06, 0xdc, 0x38, 0xe0, 0xb5,
  0xdc, 0xff, 0x35, 0xe6, 0xed, 0xe8, 0x05, 0x04, 0xf9, 0xe4, 0x24, 0x03,
  0xf9, 0xf8, 0x09, 0xfb, 0x14, 0x15, 0x08, 0xf9, 0x06, 0xf5, 0x1a, 0x02,
  0x1f, 0x0d, 0x2e, 0x01, 0x13, 0x0c, 0x1c, 0x05, 0xfd, 0x11, 0x15, 0x09,
  0xf7, 0x36, 0x2c, 0xc3, 0x1e, 0xd9, 0x13, 0xe7, 0xd3, 0xd9, 0x10, 0x0d,
  0x08, 0xd3, 0x15, 0x02, 0xe7, 0xfa, 0x18, 0xfc, 0xfb, 0x05, 0x1d, 0xfa,
  0xfb, 0x13, 0x2b, 0x05, 0x0f, 0x16, 0x1b, 0x01, 0x08, 0x0e, 0x10, 0x04,
  0x03, 0xe0, 0x12, 0x0b, 0x00, 0x28, 0x16, 0xa9, 0x1b, 0xe4, 0x13, 0xee,
  0xe8, 0xf0, 0xfe, 0xf2, 0x18, 0xfb, 0x16, 0x06, 0x18, 0x16, 0x1b, 0x04,
  0x14, 0xff, 0x1b, 0x09, 0x0b, 0xfa, 0x1a, 0x07, 0x0b, 0x18, 0x20, 0x01,
  0x02, 0x0f, 0x20, 0x01, 0x02, 0xe0, 0x1a, 0x12, 0x14, 0x15, 0xfb, 0xd9,
  0x0b, 0xd9, 0x13, 0x0f, 0xfd, 0xeb, 0x16, 0x01, 0x0f, 0x0e, 0x2a, 0x0e,
  0x0d, 0x0c, 0xfd, 0x07, 0x0f, 0x05, 0x1c, 0xfd, 0x01, 0xfb, 0x28, 0x02,
  0x0c, 0x15, 0x0e, 0x05, 0x05, 0x17, 0x12, 0x02, 0xe7, 0xfa, 0x00, 0xf9,
  0x10, 0x31, 0xd7, 0xe7, 0x14, 0xe1, 0x0f, 0xeb, 0xd0, 0x28, 0xfa, 0x15,
  0x12, 0x10, 0x03, 0xef, 0x07, 0x1f, 0x25, 0x02, 0x1c, 0xdd, 0x19, 0x0a,
  0x05, 0x00, 0x18, 0x01, 0x10, 0x19, 0x02, 0x09, 0x0e, 0x1b, 0x08, 0x03,
  0xf4, 0xdb, 0x04, 0x0a, 0x1d, 0xf8, 0x97, 0xcf, 0x18, 0xe0, 0xf8, 0x2b,
  0xdf, 0x2e, 0xec, 0x16, 0x17, 0x0c, 0x16, 0x0a, 0xeb, 0x35, 0x20, 0xff,
  0xf8, 0xed, 0x10, 0x0b, 0x1f, 0x08, 0x29, 0x03, 0x07, 0x2b, 0x1a, 0x09,
  0xfa, 0x1b, 0x06, 0x0d, 0xe4, 0x0a, 0xb9, 0x0a, 0x2d, 0xf3, 0x89, 0xef,
  0x1a, 0xfb, 0x04, 0x2f, 0x10, 0x17, 0xee, 0xfe, 0xfd, 0xf9, 0x05, 0x08,
  0xf8, 0x36, 0x04, 0x07, 0xf2, 0xf1, 0x09, 0x12, 0xf4, 0xf1, 0x29, 0x02,
  0xe1, 0x19, 0x20, 0x06, 0xe9, 0x08, 0x0c, 0x0b, 0x0a, 0x07, 0xac, 0x1e,
  0x2f, 0xf6, 0xc9, 0xf1, 0x37, 0xfe, 0x1e, 0x05, 0x1b, 0x17, 0xe0, 0x00,
  0x1d, 0xfc, 0x20, 0x04, 0xee, 0x35, 0x13, 0x09, 0xf1, 0x0f, 0xf1, 0x07,
  0xef, 0xe5, 0x04, 0x0d, 0xee, 0x18, 0xf3, 0xff, 0xf7, 0xfe, 0xe4, 0xf5,
  0xf6, 0x0a, 0xbd, 0x10, 0x1b, 0x09, 0x10, 0x06, 0x20, 0x1e, 0x03, 0x19,
  0x02, 0x2b, 0xd5, 0x14, 0x07, 0x0c, 0x20, 0x06, 0x04, 0x1a, 0x00, 0x13,
  0x02, 0x21, 0xde, 0xff, 0xf7, 0xd8, 0xdd, 0xfc, 0xfe, 0x03, 0xe9, 0x01,
  0xf9, 0xfe, 0xd2, 0xff, 0x24, 0x10, 0xc8, 0xf3, 0x1d, 0xf6, 0x15, 0x13,
  0xfa, 0x08, 0x22, 0x08, 0x13, 0x23, 0xed, 0x02, 0xf1, 0x1d, 0xf7, 0x10,
  0xee, 0x0d, 0xed, 0x05, 0x19, 0x31, 0xeb, 0x08, 0xe6, 0x0d, 0xf4, 0x09,
  0xfa, 0x06, 0xee, 0x03, 0x03, 0x03, 0xd6, 0x00, 0x3c, 0x01, 0xe6, 0xe7,
  0xcb, 0x04, 0x10, 0x1c, 0xe7, 0xff, 0xf0, 0xfc, 0xe2, 0x19, 0xff, 0x0b,
  0xe3, 0x19, 0x01, 0x02, 0xf3, 0xff, 0xfa, 0x02, 0xef, 0x1b, 0xf9, 0x06,
  0x01, 0x02, 0xf9, 0x0a, 0xf5, 0x09, 0xfb, 0x01, 0xf4, 0x00, 0xf4, 0xf4,
  0x2a, 0xeb, 0xf6, 0xca, 0xaf, 0x16, 0x15, 0x17, 0xd7, 0xea, 0x06, 0xea,
  0xc6, 0xcf, 0xfa, 0x11, 0xdd, 0xfa, 0xf0, 0xf4, 0xf0, 0xf6, 0xf3, 0xfe,
  0x05, 0xf6, 0x07, 0x07, 0x15, 0xfa, 0xf2, 0x00, 0x06, 0xff, 0xfc, 0x02,
  0x0c, 0x00, 0x04, 0x0d, 0x0e, 0xe4, 0x02, 0xdb, 0xc3, 0x24, 0xf7, 0xf8,
  0xd6, 0xe0, 0xd8, 0xf0, 0xc8, 0xcd, 0xf6, 0xfb, 0xfb, 0x09, 0xf5, 0x00,
  0xe7, 0xe8, 0xec, 0xfb, 0x02, 0xe3, 0xed, 0xfb, 0x04, 0x0b, 0xff, 0x02,
  0x0c, 0x18, 0x03, 0xfe, 0x0f, 0x10, 0xfd, 0x04, 0xfe, 0xdb, 0x2c, 0xc8,
  0xb8, 0x06, 0xf0, 0xea, 0xe9, 0xdf, 0xca, 0x08, 0xfe, 0xca, 0xfc, 0xfe,
  0xe3, 0xf1, 0x27, 0x05, 0x1c, 0x08, 0xfe, 0x04, 0x15, 0xf1, 0xfd, 0x05,
  0x2a, 0x1f, 0x09, 0xfe, 0x16, 0x19, 0x0e, 0x00, 0x0b, 0x23, 0x16, 0x01,
  0x06, 0x01, 0x16, 0xbd, 0xcb, 0xff, 0xdd, 0xf0, 0xea, 0x00, 0xdd, 0xeb,
  0xdd, 0xc9, 0x03, 0xfd, 0x09, 0xe7, 0x26, 0xff, 0x1a, 0xed, 0xf9, 0x08,
  0x22, 0xea, 0x14, 0x0b, 0x33, 0x11, 0x19, 0x02, 0x20, 0x0f, 0x21, 0x00,
  0x0c, 0x17, 0x05, 0x02, 0x0d, 0x02, 0x06, 0xab, 0xc1, 0x01, 0xcf, 0xe9,
  0xe7, 0xda, 0xf9, 0xe2, 0xe2, 0xf0, 0x0c, 0xf1, 0x03, 0xdf, 0x24, 0xfe,
  0xef, 0xe3, 0x2c, 0x06, 0x13, 0x0d, 0x22, 0x0a, 0x1c, 0x0d, 0x28, 0xff,
  0x1d, 0xfc, 0x37, 0xfc, 0xff, 0x01, 0x1d, 0x00, 0x0f, 0xef, 0x02, 0xb6,
  0xe3, 0x0a, 0xc0, 0xdf, 0xe0, 0xef, 0x0d, 0xef, 0x11, 0x0e, 0x13, 0xf2,
  0x05, 0xf3, 0x1b, 0xf1, 0x18, 0xe6, 0x43, 0xfa, 0x1e, 0x0c, 0x33, 0x0b,
  0x1b, 0x15, 0x26, 0x00, 0x22, 0x11, 0x2f, 0x00, 0x10, 0x15, 0x11, 0x01,
  0x22, 0xf9, 0xe7, 0xe6, 0x19, 0x16, 0xe1, 0xe4, 0xef, 0xfe, 0x1a, 0xff,
  0xf9, 0x23, 0xfd, 0x13, 0x14, 0xf6, 0x1d, 0xf4, 0x17, 0x00, 0x2b, 0xfe,
  0x1a, 0x13, 0x1a, 0x0e, 0x13, 0x10, 0x35, 0xfe, 0x19, 0x16, 0x1e, 0x01,
  0x15, 0x0d, 0x16, 0x01, 0x09, 0xf9, 0x0f, 0x0b, 0x3c, 0x1d, 0xe0, 0xf1,
  0x1e, 0x07, 0x0a, 0x1b, 0x19, 0x42, 0xe8, 0x0e, 0x18, 0x26, 0x1a, 0xfa,
  0x00, 0x06, 0x2b, 0xfd, 0x03, 0x1c, 0x0d, 0x09, 0x12, 0x02, 0x19, 0x01,
  0x14, 0x14, 0x03, 0xff, 0x17, 0x0e, 0x01, 0x06, 0x09, 0x00, 0x1f, 0x24,
  0x3b, 0x1d, 0xe7, 0x02, 0x3a, 0xfe, 0x1d, 0x19, 0x38, 0x2a, 0xf2, 0x0f,
  0x37, 0x12, 0x1e, 0x0d, 0x2f, 0x1b, 0x07, 0xfb, 0x0a, 0xf5, 0xfb, 0x00,
  0x07, 0xfd, 0x01, 0x01, 0x0f, 0x14, 0xff, 0x01, 0x02, 0x19, 0x02, 0x01,
  0xed, 0x04, 0xfe, 0xe7, 0x2c, 0x18, 0xe4, 0xec, 0x10, 0xec, 0x19, 0x0e,
  0x34, 0x2a, 0x07, 0xe6, 0xfc, 0xea, 0x13, 0x03, 0x11, 0x10, 0x05, 0x02,
  0x09, 0x0a, 0xfd, 0x03, 0x13, 0x0a, 0x07, 0x01, 0x14, 0x0b, 0x05, 0x00,
  0x17, 0x10, 0xfe, 0x00, 0xdd, 0x07, 0x15, 0xea, 0xe1, 0xe5, 0x45, 0xfc,
  0xf3, 0xe9, 0x3b, 0xfe, 0x01, 0xf2, 0x0a, 0x00, 0x10, 0xfe, 0xff, 0xff,
  0x05, 0x12, 0x00, 0x00, 0x11, 0x1c, 0xf9, 0xfa, 0x0d, 0xf8, 0x07, 0x00,
  0x0d, 0x08, 0x06, 0x00, 0x01, 0x11, 0x11, 0x00, 0xc6, 0x09, 0xfa, 0xea,
  0xeb, 0xd3, 0xf5, 0x00, 0xfd, 0xda, 0x01, 0x04, 0xf7, 0xf1, 0x09, 0x02,
  0xf0, 0x02, 0x12, 0xfc, 0xf6, 0x00, 0x0d, 0x00, 0xf8, 0xfe, 0x06, 0x00,
  0xf8, 0xf2, 0x0a, 0x00, 0x00, 0xfc, 0x2b, 0x00, 0x03, 0xff, 0x1d, 0x00,
  0xeb, 0x08, 0x20, 0xf6, 0xe3, 0xf6, 0xf1, 0xf7, 0xf5, 0xd1, 0x0d, 0xfd,
  0x07, 0xed, 0xfd, 0x00, 0x06, 0xfd, 0x0a, 0x00, 0x0d, 0x01, 0xfc, 0x00,
  0xf5, 0x01, 0xf8, 0x00, 0x06, 0x0c, 0x01, 0x00, 0x17, 0xf6, 0x0f, 0x00,
  0x05, 0x07, 0x12, 0x00, 0x06, 0x04, 0xfd, 0x17, 0xe9, 0x1e, 0xec, 0xf2,
  0xfd, 0xd8, 0xe3, 0x03, 0xfb, 0xfc, 0x03, 0x06, 0xf9, 0x09, 0x05, 0x00,
  0x0f, 0xf8, 0xff, 0x00, 0xf9, 0x03, 0x10, 0xfc, 0x03, 0xfb, 0x0c, 0x00,
  0x04, 0xef, 0x04, 0x00, 0xfc, 0x06, 0x01, 0x06, 0x18, 0xf8, 0x03, 0xe2,
  0xd7, 0x17, 0xdb, 0xea, 0x05, 0x02, 0xe7, 0x03, 0x15, 0x0e, 0xeb, 0x03,
  0xfa, 0x18, 0xeb, 0x00, 0xeb, 0xf3, 0xfe, 0xfe, 0xfe, 0x0e, 0x00, 0x00,
  0xf1, 0xff, 0xf9, 0xff, 0xfe, 0x04, 0xfd, 0x00, 0xf8, 0xff, 0x03, 0x05,
  0x1f, 0xef, 0xf1, 0xff, 0xea, 0x22, 0xc0, 0xdd, 0x04, 0x02, 0xe7, 0x07,
  0x05, 0xf8, 0x02, 0x0c, 0xe8, 0x3b, 0xfe, 0xf8, 0xff, 0xf8, 0x11, 0x01,
  0xfb, 0x02, 0x0e, 0xfc, 0xf8, 0xfc, 0x04, 0x00, 0xfb, 0xf4, 0x04, 0x00,
  0xfc, 0x05, 0x02, 0x00, 0x2d, 0x04, 0xe0, 0xcc, 0xed, 0x0c, 0xfb, 0xde,
  0xf8, 0x02, 0xd7, 0x09, 0x14, 0x0f, 0xfd, 0xfa, 0x02, 0x14, 0xf8, 0xf9,
  0xf0, 0x0f, 0x00, 0x09, 0xfa, 0x18, 0x00, 0x01, 0x0a, 0x01, 0xef, 0x00,
  0xff, 0x0b, 0xf9, 0xf6, 0x13, 0x00, 0xf9, 0x00, 0x35, 0xf6, 0xd5, 0xc0,
  0xf7, 0x1b, 0xc5, 0x30, 0x05, 0x18, 0xc6, 0x17, 0x01, 0xd4, 0x08, 0xfb,
  0x01, 0xf9, 0x06, 0x03, 0xf9, 0xea, 0xfb, 0x00, 0xfc, 0x17, 0xf9, 0x04,
  0x0e, 0xfc, 0xef, 0x08, 0x01, 0x06, 0x08, 0x00, 0x14, 0xfc, 0x0c, 0x00,
  0x4c, 0xf0, 0xc5, 0xeb, 0xfa, 0x15, 0xd8, 0x32, 0x09, 0x36, 0xb9, 0xf0,
  0xea, 0xd0, 0x01, 0xf4, 0x03, 0xe6, 0x09, 0x19, 0x1a, 0xfc, 0xf2, 0xf7,
  0xfb, 0x08, 0xf8, 0x00, 0xe5, 0xd9, 0x07, 0x03, 0x12, 0x0b, 0xfe, 0x00,
  0x06, 0xf4, 0xff, 0xf2, 0x2f, 0xe9, 0xbc, 0xe1, 0xe6, 0xf6, 0xe9, 0x1e,
  0x03, 0x26, 0xa0, 0xf6, 0xbe, 0xf4, 0x0e, 0xf9, 0xe7, 0xdf, 0xe7, 0xfe,
  0xe5, 0x0d, 0xf3, 0xf9, 0xf3, 0x1c, 0xef, 0xf3, 0xe4, 0xf2, 0xf6, 0x00,
  0x01, 0xfc, 0xf2, 0xfc, 0xf3, 0xf4, 0xfe, 0xeb, 0x32, 0xd7, 0xc9, 0xde,
  0x01, 0x00, 0xd0, 0x25, 0xff, 0x29, 0xbc, 0x0b, 0xcd, 0x38, 0x5d, 0xfc,
  0xf5, 0xc7, 0x25, 0x1f, 0x03, 0x14, 0xde, 0x01, 0xf6, 0x12, 0xf0, 0x12,
  0xea, 0xe4, 0xf4, 0xf9, 0xef, 0xff, 0xfb, 0x01, 0xf1, 0x06, 0xf5, 0x05,
  0x24, 0xd8, 0xd4, 0xdc, 0x14, 0x12, 0x01, 0x1b, 0xde, 0x16, 0xd7, 0x00,
  0xbb, 0x0a, 0x37, 0x0a, 0xce, 0x9e, 0x3c, 0x0c, 0xf1, 0xe4, 0x08, 0xf3,
  0x0b, 0xf9, 0x04, 0x05, 0xe9, 0xdc, 0xfd, 0x0f, 0x19, 0x0c, 0xe2, 0xfe,
  0x0b, 0x07, 0x04, 0xff, 0x00, 0xc4, 0x25, 0xca, 0xf8, 0xe9, 0x2f, 0x29,
  0xf2, 0x18, 0x23, 0xeb, 0xb0, 0xe4, 0x02, 0x19, 0xf3, 0xab, 0xf4, 0xec,
  0x04, 0xf7, 0xcb, 0x01, 0xe3, 0xe7, 0xeb, 0x07, 0x01, 0xf8, 0xf0, 0xfb,
  0x07, 0x0b, 0xf3, 0xfc, 0x0a, 0x17, 0xf2, 0x05, 0xe0, 0xd2, 0x1c, 0xe7,
  0x01, 0xd6, 0x19, 0x07, 0xfa, 0xfb, 0x1e, 0xdb, 0xaf, 0x13, 0x0e, 0x0a,
  0x0b, 0xd6, 0x1e, 0x08, 0x0f, 0xf9, 0xfd, 0xfb, 0xfd, 0xda, 0x1b, 0x09,
  0x0b, 0x05, 0xfc, 0xfe, 0x03, 0xfd, 0xff, 0x00, 0x10, 0x0b, 0x01, 0x08,
  0xe3, 0xd6, 0x1c, 0xff, 0xfe, 0xf2, 0x0d, 0x03, 0xf2, 0xf1, 0x2a, 0xfc,
  0xed, 0x41, 0x27, 0x00, 0x0f, 0xf3, 0x02, 0x04, 0x0e, 0x0a, 0xe6, 0xf7,
  0x03, 0xfb, 0xf9, 0x00, 0xff, 0xfe, 0x09, 0x00, 0x08, 0x00, 0x0a, 0xf8,
  0x08, 0x17, 0x19, 0xfa, 0xcd, 0xf3, 0x13, 0x16, 0x25, 0xfe, 0x1f, 0xf2,
  0xe5, 0xfc, 0x49, 0x02, 0x1e, 0x19, 0x0a, 0xe9, 0x0e, 0xf7, 0x1d, 0xfd,
  0x03, 0xf1, 0x00, 0xf8, 0xf3, 0xf7, 0x04, 0xfa, 0x0e, 0xe7, 0xf7, 0x00,
  0x16, 0x01, 0xfe, 0x05, 0x12, 0x1e, 0x04, 0xff, 0xee, 0xf8, 0x17, 0xf0,
  0x2e, 0x26, 0x25, 0xa9, 0x01, 0xf3, 0x3c, 0x04, 0x18, 0xf6, 0x04, 0xe6,
  0x17, 0x1e, 0x1a, 0xe5, 0xf4, 0x0f, 0xde, 0xfb, 0xf9, 0xf1, 0x05, 0xfa,
  0x05, 0xf8, 0x0a, 0x04, 0x10, 0xf7, 0x09, 0x06, 0x1a, 0x12, 0x09, 0x02,
  0xf2, 0xd2, 0x06, 0x18, 0x14, 0x2a, 0x0e, 0xca, 0x16, 0x0c, 0x39, 0xf3,
  0x2f, 0x0a, 0xd0, 0xe6, 0x37, 0x34, 0x01, 0xec, 0xf8, 0x13, 0x0a, 0x05,
  0x0e, 0x2a, 0x15, 0x02, 0x12, 0xff, 0x16, 0x00, 0x02, 0xf2, 0x06, 0x02,
  0xf8, 0xf7, 0x07, 0x02, 0xe6, 0xf3, 0xf6, 0x24, 0x26, 0x2f, 0x08, 0xd4,
  0x27, 0x1c, 0xf6, 0xe2, 0x38, 0x41, 0xf5, 0xe7, 0x17, 0x48, 0xd5, 0xec,
  0x16, 0x20, 0x00, 0x02, 0x05, 0x1d, 0xfe, 0xfd, 0xf3, 0x08, 0xf9, 0x00,
  0xec, 0x07, 0xf3, 0xfd, 0xfa, 0xf2, 0x0f, 0x00, 0xe2, 0xfc, 0xee, 0x21,
  0x07, 0x1b, 0xf9, 0xed, 0x0a, 0xde, 0xf6, 0xec, 0x49, 0x02, 0x15, 0xf4,
  0x23, 0x0b, 0xd4, 0x06, 0x02, 0x0f, 0x02, 0xf4, 0xf1, 0xf8, 0x00, 0x00,
  0xfa, 0x09, 0xf1, 0x00, 0xf2, 0x04, 0xf8, 0x06, 0xf9, 0xfd, 0x0d, 0x00,
  0xf0, 0xfa, 0xeb, 0xea, 0x18, 0x02, 0xe5, 0xf0, 0xde, 0xcd, 0x02, 0x00,
  0x03, 0xfd, 0xee, 0xf9, 0xf7, 0xe0, 0xea, 0x08, 0x05, 0x13, 0xe9, 0xff,
  0x02, 0xea, 0xee, 0xf7, 0xf6, 0xf9, 0xfe, 0x02, 0x00, 0xf5, 0x00, 0x00,
  0xf9, 0x08, 0xf3, 0x00, 0x0f, 0x06, 0x01, 0xc1, 0xc9, 0xf5, 0xe0, 0xf3,
  0xec, 0xcf, 0x0a, 0xf1, 0x00, 0xe4, 0xf1, 0xfb, 0xe3, 0xf0, 0xec, 0xf6,
  0xf1, 0xf9, 0x04, 0x00, 0x00, 0xf5, 0x02, 0xf8, 0xfb, 0xfd, 0xfd, 0xfd,
  0xfc, 0xf1, 0xf3, 0xfe, 0x02, 0xfd, 0xf6, 0xfa, 0x02, 0xf6, 0x0d, 0xcb,
  0xbf, 0x08, 0xcc, 0xf0, 0xfa, 0x04, 0xf4, 0xf8, 0xef, 0xe6, 0xdf, 0xff,
  0xe3, 0xf5, 0xeb, 0xfc, 0xf0, 0x00, 0xf6, 0x00, 0xf5, 0x00, 0xe1, 0x00,
  0xec, 0xf6, 0xf8, 0x00, 0xe5, 0xf3, 0xf7, 0x01, 0x07, 0xef, 0xfe, 0x07,
  0x1e, 0x0d, 0x15, 0x30, 0xf6, 0x12, 0xe8, 0xed, 0xe5, 0x40, 0x00, 0xf3,
  0xf6, 0x05, 0xea, 0xf5, 0xe4, 0xe3, 0xe9, 0x00, 0xe9, 0x03, 0xf2, 0x00,
  0xf3, 0x04, 0xfd, 0x00, 0xf6, 0xf4, 0x00, 0x00, 0xfe, 0x0c, 0xf3, 0x00,
  0xfc, 0xff, 0xfc, 0x06, 0xe4, 0x0c, 0x17, 0xfa, 0xf2, 0xda, 0xf6, 0xd4,
  0x0f, 0xf0, 0xff, 0x0d, 0x17, 0x24, 0x00, 0x0d, 0x0d, 0x0e, 0xfe, 0x00,
  0x04, 0x00, 0xf3, 0x00, 0xf2, 0x0c, 0xef, 0x01, 0x09, 0x0c, 0xfa, 0x00,
  0x09, 0x07, 0xf2, 0x00, 0x00, 0x02, 0xfa, 0x01, 0x03, 0xfa, 0xfe, 0xfd,
  0x04, 0x04, 0xf4, 0xd7, 0xff, 0xe9, 0x02, 0xee, 0x18, 0x35, 0x08, 0x07,
  0xfe, 0x22, 0x19, 0xf8, 0xf4, 0x05, 0x02, 0x03, 0x05, 0x07, 0x03, 0xff,
  0xea, 0x07, 0xf1, 0x00, 0xfe, 0x0c, 0xf4, 0x00, 0xf1, 0x02, 0xeb, 0x00,
  0xf5, 0x01, 0xfb, 0x28, 0x0e, 0xef, 0xed, 0xd8, 0xf9, 0xdc, 0x17, 0x16,
  0x0e, 0x3e, 0xf7, 0x18, 0x0a, 0x2a, 0x06, 0x03, 0xf0, 0x03, 0x0d, 0x08,
  0x10, 0x12, 0x08, 0xf9, 0x03, 0xfa, 0x03, 0xfe, 0x05, 0x04, 0xf1, 0x01,
  0xf3, 0xfd, 0xe8, 0xfc, 0x12, 0xd6, 0xf0, 0x0f, 0x17, 0x09, 0x01, 0xd9,
  0x11, 0xe5, 0x1e, 0x00, 0x03, 0x17, 0xe0, 0x03, 0x0b, 0x1c, 0x19, 0xf6,
  0x05, 0x0c, 0xee, 0x01, 0xea, 0x0e, 0x09, 0xf9, 0xf9, 0xee, 0xee, 0x00,
  0x04, 0x1b, 0x01, 0x00, 0x00, 0xfb, 0xfb, 0xfb, 0x0c, 0xf9, 0x18, 0xeb,
  0x01, 0xf9, 0x3d, 0xcd, 0x05, 0xe4, 0x3d, 0xe0, 0xe1, 0xd7, 0x29, 0xfa,
  0xfe, 0x02, 0x1d, 0xf6, 0x06, 0x00, 0x17, 0x07, 0xf8, 0x1c, 0x02, 0xfb,
  0xfe, 0xf4, 0x0d, 0xf9, 0x1a, 0x08, 0x13, 0x00, 0x17, 0x10, 0x0c, 0xfd,
  0x04, 0xe0, 0x4f, 0xc9, 0xf5, 0x02, 0x39, 0xc8, 0x02, 0xc6, 0x37, 0xe1,
  0xcd, 0xe5, 0x20, 0x02, 0xfe, 0xee, 0x21, 0x03, 0xf7, 0xf7, 0x13, 0x01,
  0x19, 0x12, 0xf7, 0x03, 0x0a, 0xef, 0x08, 0x08, 0x02, 0x07, 0x0c, 0x00,
  0x05, 0x15, 0x08, 0xff, 0xf8, 0xf2, 0x25, 0xc9, 0xb7, 0xec, 0x1c, 0xa7,
  0xe2, 0xcd, 0x12, 0xe2, 0xe1, 0xeb, 0x07, 0xef, 0xe8, 0xf4, 0x36, 0xf2,
  0xec, 0xdb, 0x02, 0xfa, 0xfd, 0x08, 0xf1, 0xf4, 0xf5, 0xf3, 0x02, 0x00,
  0x07, 0x06, 0x08, 0x00, 0x06, 0x16, 0x01, 0x00, 0xfe, 0xf8, 0xf3, 0xd5,
  0xa5, 0xc1, 0xd0, 0xb2, 0xc0, 0xba, 0xf6, 0xd1, 0xe1, 0xea, 0xdb, 0xf8,
  0xea, 0xf7, 0xf7, 0xfc, 0xd8, 0xfe, 0xf4, 0xf6, 0x01, 0xfb, 0xfc, 0xee,
  0x06, 0xe7, 0x04, 0x00, 0x01, 0x02, 0x15, 0x00, 0x07, 0x03, 0x00, 0x00,
  0xb5, 0x0b, 0xf9, 0xf0, 0xc1, 0xdf, 0xed, 0xaf, 0xea, 0xe4, 0x0f, 0xf4,
  0xf7, 0x0b, 0xe9, 0xf9, 0xfe, 0xe9, 0x14, 0xfa, 0xe5, 0xe7, 0x18, 0x02,
  0xfd, 0x06, 0x1c, 0xfd, 0x0e, 0x05, 0x1e, 0x00, 0x04, 0xfa, 0x16, 0x03,
  0x0f, 0x09, 0x0e, 0x02, 0xd6, 0xeb, 0xef, 0x13, 0xfe, 0xf5, 0xf5, 0xe8,
  0x11, 0xfb, 0x1d, 0xdf, 0x1e, 0x07, 0xe3, 0xf2, 0x0c, 0x07, 0x15, 0xfb,
  0x06, 0x01, 0x2c, 0xfc, 0x09, 0x11, 0x0c, 0xfa, 0x03, 0x0f, 0x0b, 0x12,
  0x19, 0x0a, 0x26, 0x06, 0x10, 0x0e, 0x19, 0x02, 0xe6, 0xdc, 0x18, 0x31,
  0xd6, 0xfc, 0x17, 0xe4, 0x09, 0xfd, 0x1d, 0xeb, 0x0a, 0x0a, 0xd2, 0x0e,
  0x22, 0x04, 0x22, 0x0b, 0x02, 0xf1, 0x15, 0x08, 0xfb, 0x0b, 0x29, 0xef,
  0x1c, 0x14, 0xfc, 0x03, 0x24, 0x0e, 0x00, 0x00, 0x10, 0x05, 0x08, 0xfc,
  0xed, 0xd3, 0x1b, 0x56, 0x13, 0xf8, 0x66, 0xf3, 0xf5, 0xeb, 0x4e, 0x00,
  0x25, 0x00, 0x23, 0xea, 0x14, 0x1e, 0x0a, 0x06, 0x04, 0x19, 0x34, 0x1d,
  0x21, 0xf1, 0x1b, 0xec, 0xf5, 0x02, 0x08, 0xf9, 0xfe, 0x07, 0x11, 0x02,
  0x0d, 0x19, 0x08, 0x02, 0xe3, 0xfc, 0x19, 0x36, 0x26, 0x0c, 0x31, 0xf7,
  0xfb, 0x0f, 0x1f, 0x10, 0x40, 0x0a, 0x0f, 0x08, 0x3a, 0x35, 0x2f, 0x04,
  0xf1, 0x39, 0x17, 0x01, 0x0a, 0x24, 0x06, 0xf4, 0xf4, 0x03, 0x0c, 0x06,
  0x0a, 0x11, 0xfe, 0x05, 0x0a, 0x03, 0xfe, 0x01, 0xca, 0x09, 0x01, 0x2f,
  0x11, 0x00, 0xfc, 0xf8, 0xfb, 0x02, 0x04, 0x0b, 0x0b, 0xfe, 0x1f, 0x17,
  0x09, 0x34, 0x06, 0x14, 0xef, 0x21, 0x1d, 0x15, 0x0f, 0x1d, 0x12, 0x06,
  0xf9, 0x08, 0x0b, 0x04, 0xfe, 0x11, 0x04, 0x01, 0xf9, 0x01, 0x00, 0xf9,
  0xf1, 0xff, 0xc2, 0x26, 0xfa, 0xec, 0xa9, 0x05, 0xff, 0x0c, 0xd8, 0x20,
  0x2a, 0x0e, 0xd5, 0xf3, 0xf7, 0x08, 0xd9, 0x1e, 0xff, 0x37, 0x24, 0x07,
  0xf9, 0x07, 0x10, 0x00, 0x06, 0xf8, 0x0a, 0x00, 0xf5, 0x03, 0xfe, 0xfc,
  0xf8, 0x0a, 0x05, 0x07, 0xfb, 0x1e, 0xda, 0x18, 0xf4, 0xff, 0x9e, 0x09,
  0x11, 0x45, 0xcb, 0x20, 0xf7, 0x17, 0xcc, 0xf2, 0xe7, 0x00, 0xea, 0x20,
  0xf9, 0xf9, 0x08, 0x19, 0x00, 0x1e, 0x00, 0xfc, 0xff, 0xf5, 0x18, 0x0c,
  0xf4, 0x16, 0xfd, 0xfd, 0xf3, 0xf8, 0xf7, 0xf7, 0x20, 0xf8, 0xda, 0x1a,
  0x0d, 0x19, 0xf4, 0x04, 0x1e, 0x36, 0xdd, 0x20, 0x11, 0x21, 0xcd, 0x04,
  0x26, 0x14, 0xec, 0x09, 0xfa, 0x21, 0x04, 0x01, 0xfd, 0x16, 0xd3, 0xf4,
  0xf1, 0xfb, 0xf5, 0x00, 0xe8, 0x14, 0xee, 0xfb, 0xf1, 0x02, 0xf8, 0x00,
  0x15, 0xd4, 0xf8, 0xfb, 0x0c, 0x1b, 0x0b, 0xf8, 0x27, 0x20, 0xd8, 0x17,
  0x05, 0x1f, 0xef, 0xf9, 0x23, 0x13, 0x01, 0x14, 0xd4, 0x33, 0xd9, 0xf8,
  0x0d, 0x07, 0xf4, 0xf6, 0xdc, 0xec, 0xd7, 0x0e, 0xf0, 0x00, 0xef, 0x08,
  0xef, 0xfc, 0xec, 0xfe, 0x19, 0xbf, 0x00, 0xde, 0xdf, 0x1a, 0x13, 0xf7,
  0x17, 0xef, 0xed, 0xfe, 0xe7, 0x17, 0xfa, 0xfd, 0xe4, 0x0a, 0x16, 0x12,
  0xdd, 0x06, 0xe6, 0xf7, 0xfc, 0xf2, 0xf6, 0x05, 0xf7, 0xe7, 0xda, 0x00,
  0xed, 0x07, 0xe6, 0x05, 0x03, 0xfb, 0xfa, 0x03, 0x27, 0xdd, 0x0a, 0xe5,
  0xd4, 0x1e, 0xf8, 0xe0, 0xf9, 0xe7, 0xf1, 0xee, 0xe4, 0xf6, 0x1c, 0xf2,
  0xe8, 0x05, 0x18, 0x09, 0xee, 0xfe, 0xe8, 0xf5, 0xfb, 0xfa, 0x0f, 0x01,
  0xef, 0xfd, 0x07, 0x00, 0x18, 0x02, 0x03, 0xfe, 0x08, 0x05, 0x01, 0x01,
  0x00, 0xe8, 0x0f, 0xe4, 0xa9, 0x12, 0xce, 0xd9, 0xfd, 0xc8, 0xf9, 0xfa,
  0xf8, 0xe3, 0x3c, 0x00, 0xee, 0xe3, 0x24, 0xf5, 0xf9, 0xf4, 0x0a, 0xfe,
  0x09, 0x03, 0x14, 0x00, 0x19, 0xfe, 0x0c, 0x00, 0x0c, 0xfc, 0xf9, 0x00,
  0x0b, 0x0f, 0x07, 0x01, 0x18, 0x05, 0x07, 0xcc, 0xcd, 0x07, 0xcc, 0xf0,
  0xee, 0xdc, 0xf4, 0x06, 0x17, 0xeb, 0x0c, 0xf9, 0x0d, 0xd4, 0x1b, 0x05,
  0x01, 0xe0, 0x1a, 0xf9, 0x0b, 0xf8, 0x15, 0x01, 0x01, 0xf6, 0x07, 0x00,
  0x11, 0x14, 0x08, 0xfd, 0xfc, 0x18, 0x02, 0x05, 0x0d, 0x18, 0x17, 0xe9,
  0xc2, 0xf6, 0xa9, 0xf4, 0xfc, 0xf0, 0x13, 0xf8, 0xff, 0xe5, 0x06, 0x03,
  0xfe, 0xf5, 0x1e, 0xff, 0xf9, 0xff, 0x0c, 0xf8, 0x24, 0xeb, 0x13, 0xf9,
  0xfe, 0x08, 0x0d, 0x00, 0x17, 0x07, 0x19, 0x00, 0x01, 0x00, 0x19, 0xfc,
  0xfa, 0x0e, 0x0e, 0xf8, 0xf1, 0xec, 0xda, 0xf1, 0x12, 0xd2, 0x16, 0x08,
  0xeb, 0x08, 0xd4, 0x08, 0x0b, 0x0d, 0xfc, 0x00, 0x03, 0x18, 0xf3, 0x01,
  0xfb, 0x03, 0x07, 0x00, 0x00, 0x10, 0x15, 0x00, 0x0f, 0x15, 0x13, 0x00,
  0x00, 0x0f, 0x1b, 0xff, 0x33, 0xde, 0xf2, 0xdc, 0x15, 0x23, 0xe3, 0x0c,
  0x0c, 0x11, 0x1e, 0x08, 0x0b, 0x1b, 0x14, 0xff, 0xfc, 0xe5, 0xf6, 0x03,
  0x02, 0xf2, 0xf1, 0x02, 0xfc, 0xf1, 0xee, 0xfe, 0xff, 0xfd, 0xf0, 0x00,
  0xfb, 0xf3, 0xea, 0xf7, 0x00, 0x07, 0xf3, 0x00, 0x37, 0xe9, 0xee, 0xf0,
  0x11, 0x14, 0xee, 0x2e, 0x19, 0x3e, 0xe5, 0x24, 0xe4, 0xee, 0xf4, 0xf1,
  0x12, 0xef, 0xee, 0x1a, 0x10, 0xe4, 0xed, 0xff, 0x15, 0x14, 0xf6, 0x08,
  0xfa, 0xf9, 0xfb, 0x00, 0x0a, 0xe5, 0x03, 0xff, 0x0f, 0xf3, 0xfe, 0x00,
  0xfd, 0xe0, 0xdc, 0x0b, 0x05, 0xea, 0xea, 0x25, 0xfd, 0x29, 0xb5, 0x03,
  0xd9, 0x1e, 0x05, 0x06, 0x0f, 0xe0, 0xf2, 0x1e, 0x22, 0x18, 0xf5, 0xea,
  0x00, 0x00, 0xf3, 0x05, 0xef, 0x04, 0xf5, 0x00, 0xde, 0x0a, 0x01, 0x08,
  0x07, 0x04, 0x04, 0x06, 0xb6, 0x06, 0xe9, 0x01, 0xf6, 0xe7, 0x08, 0x32,
  0xf0, 0x26, 0xf6, 0x08, 0xe4, 0x14, 0x0a, 0x0e, 0xff, 0xc9, 0x04, 0x15,
  0x14, 0xf1, 0xe9, 0xf6, 0xe6, 0xf3, 0xe2, 0x03, 0x10, 0x07, 0x01, 0xfc,
  0x02, 0xf1, 0xf7, 0x08, 0xff, 0x0f, 0x01, 0x05, 0xb9, 0xe0, 0xfe, 0xe0,
  0x11, 0xd5, 0x18, 0x02, 0xdf, 0xbe, 0x1a, 0x01, 0xd5, 0x1f, 0x05, 0xf7,
  0xc3, 0xbe, 0x11, 0xf9, 0x0a, 0xb4, 0xe9, 0xfd, 0xfe, 0xeb, 0x0b, 0x05,
  0xfc, 0xf3, 0xf6, 0x00, 0x0a, 0xf8, 0xfd, 0x00, 0x02, 0x07, 0x03, 0xfc,
  0xe4, 0xdf, 0x15, 0xf4, 0x1b, 0xe6, 0x00, 0xf4, 0xd1, 0xc4, 0x56, 0x04,
  0xc1, 0xf6, 0x0d, 0xf6, 0xdc, 0xd4, 0x09, 0xfd, 0x04, 0xda, 0x0a, 0xf7,
  0xfe, 0xeb, 0x07, 0xf4, 0xf8, 0xf5, 0x03, 0xf9, 0x0b, 0x08, 0xec, 0x00,
  0x17, 0x03, 0x05, 0x00, 0xcd, 0xe8, 0x21, 0x0b, 0x10, 0x04, 0x2b, 0xd4,
  0xe8, 0x01, 0x56, 0xf1, 0xf8, 0xfd, 0xfc, 0x00, 0x05, 0x22, 0xe0, 0xfc,
  0x19, 0xfc, 0xfa, 0x00, 0x06, 0x04, 0xf5, 0xff, 0x12, 0x09, 0x02, 0xf7,
  0x11, 0xfc, 0xf6, 0x00, 0x05, 0x06, 0x05, 0x00, 0xb8, 0x0f, 0x07, 0x01,
  0x18, 0xf6, 0x36, 0xbf, 0xf3, 0x05, 0x29, 0xd9, 0x28, 0x04, 0xfc, 0x13,
  0x26, 0x3e, 0xec, 0xfa, 0xfb, 0x28, 0x08, 0x04, 0xfc, 0x12, 0x0b, 0xf9,
  0x0f, 0xef, 0xfc, 0x00, 0x19, 0x0d, 0xef, 0x00, 0xfe, 0x0f, 0x00, 0xff,
  0x02, 0xfb, 0xe0, 0x0d, 0x23, 0xf7, 0xfa, 0xd4, 0x0e, 0x0e, 0x00, 0xed,
  0x3d, 0x20, 0x15, 0x1d, 0x23, 0x41, 0xf6, 0x0b, 0x11, 0x1b, 0xeb, 0x06,
  0xe5, 0x25, 0xf4, 0xfe, 0xf6, 0xe4, 0xeb, 0x00, 0x03, 0xf3, 0x00, 0x01,
  0xf8, 0x16, 0x08, 0x03, 0xed, 0x0b, 0x0c, 0xfe, 0x2d, 0x11, 0xf5, 0xd5,
  0x07, 0xfd, 0xff, 0xf6, 0x2f, 0x2d, 0x0b, 0x05, 0x1e, 0x20, 0x02, 0x06,
  0x0a, 0x0e, 0x0d, 0xfb, 0x0c, 0x1f, 0xfd, 0xf9, 0x00, 0xe1, 0xe7, 0xf7,
  0xee, 0xfc, 0xfe, 0x01, 0x0a, 0x07, 0xf8, 0x08, 0xe8, 0x26, 0xf8, 0x22,
  0x14, 0x0c, 0xff, 0xc6, 0xce, 0xd3, 0xfd, 0x06, 0x10, 0xfc, 0xed, 0xf2,
  0xe6, 0x0d, 0xfd, 0xfd, 0xf6, 0xfe, 0xfa, 0xfd, 0x11, 0x17, 0xdf, 0xfc,
  0x06, 0xf9, 0xf2, 0xfe, 0xf6, 0xff, 0x0d, 0xfc, 0xfe, 0x06, 0xf0, 0x00,
  0x08, 0x13, 0xfd, 0x11, 0xfe, 0x14, 0xde, 0xda, 0x01, 0xec, 0xf7, 0xf6,
  0xf4, 0xc9, 0xf9, 0xf0, 0xea, 0xfc, 0xeb, 0x01, 0xf1, 0xe8, 0xfb, 0xfc,
  0xe7, 0x0c, 0xea, 0xff, 0xee, 0xf9, 0xf5, 0xff, 0xe1, 0xfc, 0x02, 0x00,
  0xed, 0x01, 0xfb, 0xff, 0x15, 0x16, 0x06, 0xf5, 0xe7, 0x00, 0xfc, 0x02,
  0xf7, 0xf5, 0xd8, 0xe0, 0xec, 0xd9, 0xf2, 0xf5, 0xcd, 0xfd, 0xdb, 0x02,
  0xec, 0xf1, 0xfe, 0x01, 0xf3, 0xf0, 0xf4, 0xfd, 0xe9, 0xec, 0xfa, 0xfa,
  0xf1, 0xf8, 0xf0, 0x00, 0xf4, 0xfa, 0xfc, 0x00, 0x34, 0xea, 0x04, 0xfe,
  0x05, 0x0f, 0xed, 0x42, 0x1f, 0x1c, 0xd6, 0xdc, 0xfb, 0xce, 0xf1, 0xf5,
  0xfe, 0xee, 0xd9, 0x03, 0x08, 0x18, 0xf3, 0xfb, 0xf6, 0xf3, 0xf0, 0xf6,
  0xf8, 0xfe, 0xf7, 0x00, 0xf5, 0xef, 0xf8, 0x00, 0xfa, 0x05, 0x00, 0xff,
  0x17, 0xde, 0x12, 0x0d, 0x08, 0xf5, 0xd6, 0x10, 0x26, 0x3d, 0xc2, 0xf6,
  0xe4, 0xfc, 0xe3, 0xed, 0x01, 0xd3, 0xe2, 0x0a, 0x0a, 0xf3, 0xe3, 0xf9,
  0xeb, 0xf3, 0xec, 0x00, 0xec, 0xf7, 0xfa, 0x00, 0xf1, 0xef, 0xfa, 0x03,
  0xf4, 0xfb, 0xfe, 0x00, 0xdc, 0xfe, 0xff, 0xf2, 0x10, 0xb3, 0xd5, 0x16,
  0x00, 0xfb, 0xb2, 0xf5, 0xd6, 0x15, 0x24, 0xff, 0xf7, 0xe8, 0xea, 0xf7,
  0xe5, 0x04, 0xdf, 0xfe, 0xf7, 0x02, 0x0e, 0xfa, 0xeb, 0xeb, 0xef, 0x00,
  0xf8, 0xf5, 0xeb, 0x00, 0xed, 0x05, 0xeb, 0x03, 0xe6, 0x1e, 0xd4, 0xf9,
  0xfb, 0xc2, 0xcf, 0x14, 0xf6, 0xd0, 0xed, 0x12, 0xcd, 0x26, 0x37, 0x01,
  0xe1, 0xe9, 0xe5, 0xf3, 0xf7, 0x05, 0xec, 0x03, 0xfe, 0xe5, 0x05, 0xff,
  0xf5, 0xf0, 0xf8, 0xf7, 0xf5, 0xe9, 0xf6, 0x00, 0x0e, 0x07, 0xf4, 0xf8,
  0xc5, 0x1a, 0xff, 0xbf, 0x12, 0xbb, 0x13, 0xfe, 0xdc, 0xdc, 0x20, 0xf1,
  0xc2, 0xe7, 0xeb, 0xf8, 0xe6, 0xf8, 0xe8, 0xf9, 0xfe, 0xf5, 0xe6, 0x02,
  0xe8, 0xe6, 0xf9, 0x00, 0xf0, 0xef, 0xed, 0xf9, 0xfe, 0xfc, 0xf9, 0x00,
  0xff, 0x00, 0xfc, 0x02, 0xd7, 0xf4, 0x31, 0xd0, 0xee, 0xee, 0x2e, 0xcb,
  0xee, 0xe8, 0x2b, 0xd4, 0xda, 0xed, 0xf3, 0xf8, 0xff, 0xde, 0xeb, 0xf3,
  0xfa, 0xea, 0xf9, 0xf9, 0xf3, 0xef, 0xf8, 0x00, 0xfc, 0xe2, 0xfa, 0x00,
  0xfc, 0xfb, 0xf8, 0xf9, 0xfb, 0xfa, 0xf3, 0x00, 0xf0, 0xe3, 0xf5, 0x0b,
  0x10, 0x2b, 0x05, 0xe4, 0x01, 0x32, 0xe1, 0xd7, 0x1f, 0xfb, 0xdd, 0xee,
  0x11, 0x3f, 0xfb, 0xf3, 0xed, 0x0e, 0xed, 0xfa, 0xf3, 0x06, 0xf3, 0xfe,
  0xf6, 0xfe, 0xf8, 0x00, 0xff, 0x07, 0xf2, 0x01, 0x05, 0xf6, 0x02, 0xff,
  0xe0, 0xff, 0xd7, 0xe4, 0x52, 0x1d, 0x07, 0xd9, 0x35, 0x4a, 0xda, 0xf3,
  0x16, 0x31, 0x04, 0x02, 0x24, 0x38, 0xe0, 0x17, 0x04, 0x2b, 0xf1, 0x06,
  0x01, 0x0a, 0xf6, 0x00, 0xe0, 0x01, 0x0c, 0x00, 0xec, 0x03, 0x01, 0x03,
  0xfb, 0x12, 0x02, 0x00, 0xf5, 0xdd, 0x01, 0xbd, 0x2b, 0x14, 0x15, 0xf5,
  0x30, 0x16, 0xec, 0xf3, 0x14, 0x21, 0xeb, 0xfa, 0x0a, 0x07, 0xf3, 0xfc,
  0xfa, 0x11, 0xf7, 0x07, 0xff, 0xef, 0x02, 0x05, 0xf9, 0x01, 0x05, 0x00,
  0x01, 0xf8, 0x0c, 0x00, 0xf9, 0x0c, 0x0d, 0x00, 0x17, 0xe9, 0x16, 0xdc,
  0xf9, 0xfe, 0xfa, 0x25, 0x10, 0xf5, 0xec, 0xec, 0xfb, 0xe3, 0xef, 0xfd,
  0xed, 0xf2, 0xf4, 0x00, 0xf7, 0xf3, 0x00, 0x00, 0xf5, 0xf2, 0x05, 0x01,
  0xee, 0xfc, 0x01, 0xff, 0xf7, 0xfc, 0xf2, 0x00, 0x0c, 0x01, 0xf6, 0xfb,
  0x07, 0xe9, 0x06, 0xe5, 0xd8, 0x3f, 0xf1, 0x1b, 0xf6, 0xd6, 0xd4, 0x0b,
  0xf4, 0xe2, 0xd5, 0xfc, 0xf8, 0xe4, 0xf0, 0x00, 0xff, 0xeb, 0xff, 0x00,
  0x01, 0xff, 0xf9, 0x00, 0x0a, 0xef, 0xf7, 0x00, 0xfe, 0xef, 0xf4, 0x00,
  0xf0, 0x00, 0x01, 0x01, 0x00, 0x00, 0x00, 0x00, 0x00, 0x00, 0x00, 0x00,
  0x00, 0x00, 0x00, 0x00, 0x00, 0x00, 0x00, 0x00, 0x00, 0x00, 0x00, 0x00,
  0x00, 0x00, 0x00, 0x00, 0x00, 0x00, 0x00, 0x00, 0x00, 0x00, 0x00, 0x00,
  0x00, 0x00, 0x00, 0x00, 0x00, 0x00, 0x00, 0x00, 0x00, 0x00, 0x00, 0x00,
  0x00, 0x00, 0x00, 0x00, 0x00, 0x00, 0x00, 0x00, 0x00, 0x00, 0x00, 0x00,
  0x00, 0x00, 0x00, 0x00, 0x00, 0x00, 0x00, 0x00, 0x00, 0x00, 0x00, 0x00,
  0x00, 0x00, 0x00, 0x00, 0x00, 0x00, 0x00, 0x00, 0x00, 0x00, 0x00, 0x00,
  0x00, 0x00, 0x00, 0x00, 0x00, 0x00, 0x00, 0x00, 0x00, 0x00, 0x00, 0x00,
  0x00, 0x00, 0x00, 0x00, 0x00, 0x00, 0x00, 0x00, 0x00, 0x00, 0x00, 0x00,
  0x00, 0x00, 0x00, 0x00, 0x00, 0x00, 0x00, 0x00, 0x00, 0x00, 0x00, 0x00,
  0x00, 0x00, 0x00, 0x00, 0x00, 0x00, 0x00, 0x00, 0x00, 0x00, 0x00, 0x00,
  0x00, 0x00, 0x00, 0x00, 0x00, 0x00, 0x00, 0x00, 0x00, 0x00, 0x00, 0x00,
  0x00, 0x00, 0x00, 0x00, 0x00, 0x00, 0x00, 0x00, 0x00, 0x00, 0x00, 0x00,
  0x00, 0x00, 0x00, 0x00, 0x00, 0x00, 0x00, 0x00, 0x00, 0x00, 0x00, 0x00,
  0x00, 0x00, 0x00, 0x00, 0x00, 0x00, 0x00, 0x00, 0x00, 0x00, 0x00, 0x00,
  0x00, 0x00, 0x00, 0x00, 0x00, 0x00, 0x00, 0x00, 0x00, 0x00, 0x00, 0x00,
  0x00, 0x00, 0x00, 0x00, 0x00, 0x00, 0x00, 0x00, 0x00, 0x00, 0x00, 0x00,
  0x00, 0x00, 0x00, 0x00, 0x00, 0x00, 0x00, 0x00, 0x00, 0x00, 0x00, 0x00,
  0x00, 0x00, 0x00, 0x00, 0x00, 0x00, 0x00, 0x00, 0x00, 0x00, 0x00, 0x00,
  0x00, 0x00, 0x00, 0x00, 0x00, 0x00, 0x00, 0x00, 0x00, 0x00, 0x00, 0x00,
  0x00, 0x00, 0x00, 0x00, 0x00, 0x00, 0x00, 0x00, 0x00, 0x00, 0x00, 0x00,
  0x00, 0x00, 0x00, 0x00, 0x00, 0x00, 0x00, 0x00, 0x00, 0x00, 0x00, 0x00,
  0x00, 0x00, 0x00, 0x00, 0x00, 0x00, 0x00, 0x00, 0x00, 0x00, 0x00, 0x00,
  0x00, 0x00, 0x00, 0x00, 0x00, 0x00, 0x00, 0x00, 0x00, 0x00, 0x00, 0x00,
  0x00, 0x00, 0x00, 0x00, 0x00, 0x00, 0x00, 0x00, 0x00, 0x00, 0x00, 0x00,
  0x00, 0x00, 0x00, 0x00, 0x00, 0x00, 0x00, 0x00, 0x00, 0x00, 0x00, 0x00,
  0x00, 0x00, 0x00, 0x00, 0x00, 0x00, 0x00, 0x00, 0x00, 0x00, 0x00, 0x00,
  0x00, 0x00, 0x00, 0x00, 0x00, 0x00, 0x00, 0x00, 0x00, 0x00, 0x00, 0x00,
  0x00, 0x00, 0x00, 0x00, 0x00, 0x00, 0x00, 0x00, 0x00, 0x00, 0x00, 0x00,
  0x00, 0x00, 0x00, 0x00, 0x00, 0x00, 0x00, 0x00, 0x00, 0x00, 0x00, 0x00,
  0x00, 0x00, 0x00, 0x00, 0x00, 0x00, 0x00, 0x00, 0x00, 0x00, 0x00, 0x00,
  0x00, 0x00, 0x00, 0x00, 0x00, 0x00, 0x00, 0x00, 0x00, 0x00, 0x00, 0x00,
  0x00, 0x00, 0x00, 0x00, 0x00, 0x00, 0x00, 0x00, 0x00, 0x00, 0x00, 0x00,
  0x00, 0x00, 0x00, 0x00, 0x00, 0x00, 0x00, 0x00, 0x00, 0x00, 0x00, 0x00,
  0x00, 0x00, 0x00, 0x00, 0x00, 0x00, 0x00, 0x00, 0x00, 0x00, 0x00, 0x00,
  0x00, 0x00, 0x00, 0x00, 0x00, 0x00, 0x00, 0x00, 0x00, 0x00, 0x00, 0x00,
  0x00, 0x00, 0x00, 0x00, 0x00, 0x00, 0x00, 0x00, 0x00, 0x00, 0x00, 0x00,
  0x00, 0x00, 0x00, 0x00, 0x00, 0x00, 0x00, 0x00, 0x00, 0x00, 0x00, 0x00,
  0x00, 0x00, 0x00, 0x00, 0x00, 0x00, 0x00, 0x00, 0x00, 0x00, 0x00, 0x00,
  0x00, 0x00, 0x00, 0x00, 0x00, 0x00, 0x00, 0x00, 0x00, 0x00, 0x00, 0x00,
  0x00, 0x00, 0x00, 0x00, 0x00, 0x00, 0x00, 0x00, 0x00, 0x00, 0x00, 0x00,
  0x00, 0x00, 0x00, 0x00, 0x00, 0x00, 0x00, 0x00, 0x00, 0x00, 0x00, 0x00,
  0x00, 0x00, 0x00, 0x00, 0x00, 0x00, 0x00, 0x00, 0x00, 0x00, 0x00, 0x00,
  0x00, 0x00, 0x00, 0x00, 0x00, 0x00, 0x00, 0x00, 0x00, 0x00, 0x00, 0x00,
  0x00, 0x00, 0x00, 0x00, 0x00, 0x00, 0x00, 0x00, 0x00, 0x00, 0x00, 0x00,
  0x00, 0x00, 0x00, 0x00, 0x00, 0x00, 0x00, 0x00, 0x00, 0x00, 0x00, 0x00,
  0x00, 0x00, 0x00, 0x00, 0x00, 0x00, 0x00, 0x00, 0x00, 0x00, 0x00, 0x00,
  0x00, 0x00, 0x00, 0x00, 0x00, 0x00, 0x00, 0x00, 0x00, 0x00, 0x00, 0x00,
  0x00, 0x00, 0x00, 0x00, 0x00, 0x00, 0x00, 0x00, 0x00, 0x00, 0x00, 0x00,
  0x00, 0x00, 0x00, 0x00, 0x00, 0x00, 0x00, 0x00, 0x00, 0x00, 0x00, 0x00,
  0x00, 0x00, 0x00, 0x00, 0x00, 0x00, 0x00, 0x00, 0x00, 0x00, 0x00, 0x00,
  0x00, 0x00, 0x00, 0x00, 0x00, 0x00, 0x00, 0x00, 0x00, 0x00, 0x00, 0x00,
  0x00, 0x00, 0x00, 0x00, 0x00, 0x00, 0x00, 0x00, 0x00, 0x00, 0x00, 0x00,
  0x00, 0x00, 0x00, 0x00, 0x00, 0x00, 0x00, 0x00, 0x00, 0x00, 0x00, 0x00,
  0x00, 0x00, 0x00, 0x00, 0x00, 0x00, 0x00, 0x00, 0x00, 0x00, 0x00, 0x00,
  0x00, 0x00, 0x00, 0x00, 0x00, 0x00, 0x00, 0x00, 0x00, 0x00, 0x00, 0x00,
  0x00, 0x00, 0x00, 0x00, 0x00, 0x00, 0x00, 0x00, 0x00, 0x00, 0x00, 0x00,
  0x00, 0x00, 0x00, 0x00, 0x00, 0x00, 0x00, 0x00, 0x00, 0x00, 0x00, 0x00,
  0x00, 0x00, 0x00, 0x00, 0x00, 0x00, 0x00, 0x00, 0x00, 0x00, 0x00, 0x00,
  0x00, 0x00, 0x00, 0x00, 0x00, 0x00, 0x00, 0x00, 0x00, 0x00, 0x00, 0x00,
  0x00, 0x00, 0x00, 0x00, 0x00, 0x00, 0x00, 0x00, 0x00, 0x00, 0x00, 0x00,
  0x00, 0x00, 0x00, 0x00, 0x00, 0x00, 0x00, 0x00, 0x00, 0x00, 0x00, 0x00,
  0x00, 0x00, 0x00, 0x00, 0x00, 0x00, 0x00, 0x00, 0x00, 0x00, 0x00, 0x00,
  0x00, 0x00, 0x00, 0x00, 0x00, 0x00, 0x00, 0x00, 0x00, 0x00, 0x00, 0x00,
  0x00, 0x00, 0x00, 0x00, 0x00, 0x00, 0x00, 0x00, 0x00, 0x00, 0x00, 0x00,
  0x00, 0x00, 0x00, 0x00, 0x00, 0x00, 0x00, 0x00, 0x00, 0x00, 0x00, 0x00,
  0x00, 0x00, 0x00, 0x00, 0x00, 0x00, 0x00, 0x00, 0x00, 0x00, 0x00, 0x00,
  0x00, 0x00, 0x00, 0x00, 0x00, 0x00, 0x00, 0x00, 0x00, 0x00, 0x00, 0x00,
  0x00, 0x00, 0x00, 0x00, 0x00, 0x00, 0x00, 0x00, 0x00, 0x00, 0x00, 0x00,
  0x00, 0x00, 0x00, 0x00, 0x00, 0x00, 0x00, 0x00, 0x00, 0x00, 0x00, 0x00,
  0x00, 0x00, 0x00, 0x00, 0x00, 0x00, 0x00, 0x00, 0x00, 0x00, 0x00, 0x00,
  0x00, 0x00, 0x00, 0x00, 0x00, 0x00, 0x00, 0x00, 0x00, 0x00, 0x00, 0x00,
  0x00, 0x00, 0x00, 0x00, 0x00, 0x00, 0x00, 0x00, 0x00, 0x00, 0x00, 0x00,
  0x00, 0x00, 0x00, 0x00, 0x00, 0x00, 0x00, 0x00, 0x00, 0x00, 0x00, 0x00,
  0x00, 0x00, 0x00, 0x00, 0x00, 0x00, 0x00, 0x00, 0x00, 0x00, 0x00, 0x00,
  0x00, 0x00, 0x00, 0x00, 0x00, 0x00, 0x00, 0x00, 0x00, 0x00, 0x00, 0x00,
  0x00, 0x00, 0x00, 0x00, 0x00, 0x00, 0x00, 0x00, 0x00, 0x00, 0x00, 0x00,
  0x00, 0x00, 0x00, 0x00, 0x00, 0x00, 0x00, 0x00, 0x00, 0x00, 0x00, 0x00,
  0x00, 0x00, 0x00, 0x00, 0x00, 0x00, 0x00, 0x00, 0x00, 0x00, 0x00, 0x00,
  0x00, 0x00, 0x00, 0x00, 0x00, 0x00, 0x00, 0x00, 0x00, 0x00, 0x00, 0x00,
  0x00, 0x00, 0x00, 0x00, 0x00, 0x00, 0x00, 0x00, 0x00, 0x00, 0x00, 0x00,
  0x00, 0x00, 0x00, 0x00, 0x00, 0x00, 0x00, 0x00, 0x00, 0x00, 0x00, 0x00,
  0x00, 0x00, 0x00, 0x00, 0x00, 0x00, 0x00, 0x00, 0x00, 0x00, 0x00, 0x00,
  0x00, 0x00, 0x00, 0x00, 0x00, 0x00, 0x00, 0x00, 0x00, 0x00, 0x00, 0x00,
  0x00, 0x00, 0x00, 0x00, 0x00, 0x00, 0x00, 0x00, 0x00, 0x00, 0x00, 0x00,
  0x00, 0x00, 0x00, 0x00, 0x00, 0x00, 0x00, 0x00, 0x00, 0x00, 0x00, 0x00,
  0x00, 0x00, 0x00, 0x00, 0x00, 0x00, 0x00, 0x00, 0x00, 0x00, 0x00, 0x00,
  0x00, 0x00, 0x00, 0x00, 0x00, 0x00, 0x00, 0x00, 0x00, 0x00, 0x00, 0x00,
  0x00, 0x00, 0x00, 0x00, 0x00, 0x00, 0x00, 0x00, 0x00, 0x00, 0x00, 0x00,
  0x00, 0x00, 0x00, 0x00, 0x00, 0x00, 0x00, 0x00, 0x00, 0x00, 0x00, 0x00,
  0x00, 0x00, 0x00, 0x00, 0x00, 0x00, 0x00, 0x00, 0x00, 0x00, 0x00, 0x00,
  0x00, 0x00, 0x00, 0x00, 0x00, 0x00, 0x00, 0x00, 0x00, 0x00, 0x00, 0x00,
  0x00, 0x00, 0x00, 0x00, 0x00, 0x00, 0x00, 0x00, 0x00, 0x00, 0x00, 0x00,
  0x00, 0x00, 0x00, 0x00, 0x00, 0x00, 0x00, 0x00, 0x00, 0x00, 0x00, 0x00,
  0x00, 0x00, 0x00, 0x00, 0x00, 0x00, 0x00, 0x00, 0x00, 0x00, 0x00, 0x00,
  0x00, 0x00, 0x00, 0x00, 0x00, 0x00, 0x00, 0x00, 0x00, 0x00, 0x00, 0x00,
  0x00, 0x00, 0x00, 0x00, 0x00, 0x00, 0x00, 0x00, 0x00, 0x00, 0x00, 0x00,
